<unk>	0
<s>	0
</s>	0
in	-0
▁s	-1
er	-2
▁c	-3
re	-4
on	-5
en	-6
▁p	-7
an	-8
ed	-9
al	-10
ing	-11
at	-12
▁t	-13
▁m	-14
ar	-15
or	-16
le	-17
▁f	-18
▁b	-19
st	-20
▁d	-21
▁w	-22
it	-23
ou	-24
▁a	-25
▁g	-26
ic	-27
▁l	-28
ion	-29
▁e	-30
ent	-31
▁re	-32
▁h	-33
ro	-34
▁n	-35
ly	-36
om	-37
is	-38
▁st	-39
ce	-40
ct	-41
il	-42
et	-43
el	-44
▁in	-45
ss	-46
id	-47
▁u	-48
ol	-49
ay	-50
ow	-51
ig	-52
iv	-53
ra	-54
im	-55
se	-56
ch	-57
th	-58
ation	-59
▁k	-60
ver	-61
ur	-62
op	-63
▁de	-64
▁r	-65
am	-66
ad	-67
▁th	-68
▁pro	-69
ate	-70
ul	-71
ge	-72
▁ne	-73
▁con	-74
▁ch	-75
ot	-76
one	-77
and	-78
▁y	-79
ke	-80
ir	-81
▁v	-82
oun	-83
▁se	-84
ment	-85
as	-86
▁com	-87
od	-88
▁al	-89
▁o	-90
ant	-91
▁j	-92
igh	-93
ity	-94
▁ex	-95
ive	-96
un	-97
if	-98
▁le	-99
ist	-100
qu	-101
ck	-102
ter	-103
▁1	-104
▁go	-105
um	-106
▁sh	-107
us	-108
est	-109
▁man	-110
ort	-111
ble	-112
ut	-113
em	-114
la	-115
▁ye	-116
art	-117
ie	-118
pp	-119
▁ma	-120
ure	-121
ld	-122
▁kn	-123
ard	-124
ff	-125
ight	-126
ally	-127
all	-128
ud	-129
ice	-130
▁un	-131
▁know	-132
▁wor	-133
end	-134
ri	-135
▁ca	-136
▁sp	-137
ell	-138
ine	-139
ue	-140
ve	-141
▁lo	-142
ide	-143
▁an	-144
ould	-145
ect	-146
▁one	-147
▁per	-148
▁su	-149
ill	-150
ain	-151
our	-152
ated	-153
ast	-154
▁li	-155
gh	-156
▁uh	-157
orm	-158
ime	-159
▁pe	-160
▁ro	-161
▁be	-162
▁pre	-163
ire	-164
▁po	-165
▁pl	-166
ci	-167
lo	-168
ok	-169
▁comp	-170
ound	-171
ry	-172
▁en	-173
▁ad	-174
ous	-175
▁co	-176
ong	-177
ish	-178
ance	-179
ite	-180
old	-181
▁like	-182
▁ta	-183
▁im	-184
▁sa	-185
her	-186
▁ar	-187
ople	-188
ough	-189
▁people	-190
▁ac	-191
iz	-192
▁la	-193
age	-194
sp	-195
▁time	-196
ind	-197
ber	-198
▁year	-199
pt	-200
00	-201
ence	-202
ee	-203
▁inc	-204
king	-205
▁19	-206
▁tw	-207
▁would	-208
▁bo	-209
ction	-210
ru	-211
og	-212
out	-213
▁exp	-214
ount	-215
▁qu	-216
ree	-217
ign	-218
are	-219
▁ev	-220
▁2	-221
▁ser	-222
ome	-223
▁mu	-224
▁imp	-225
▁new	-226
ap	-227
itt	-228
▁fa	-229
▁ever	-230
▁ba	-231
▁ind	-232
▁he	-233
▁me	-234
▁cont	-235
ian	-236
ink	-237
iss	-238
ary	-239
▁am	-240
▁or	-241
▁rep	-242
▁dis	-243
bl	-244
ip	-245
▁te	-246
form	-247
ah	-248
▁wh	-249
▁work	-250
ame	-251
▁well	-252
ore	-253
▁two	-254
▁part	-255
▁us	-256
▁gr	-257
able	-258
▁tra	-259
▁get	-260
▁inter	-261
way	-262
ild	-263
▁mo	-264
▁pr	-265
du	-266
ress	-267
ther	-268
ult	-269
ical	-270
▁ra	-271
der	-272
▁op	-273
▁sc	-274
int	-275
ag	-276
▁ag	-277
fer	-278
▁app	-279
cy	-280
att	-281
ition	-282
▁comm	-283
ia	-284
so	-285
▁yeah	-286
▁em	-287
▁every	-288
▁cl	-289
▁bu	-290
▁think	-291
ark	-292
▁br	-293
ory	-294
ater	-295
▁res	-296
ach	-297
ict	-298
▁we	-299
▁act	-300
▁cent	-301
▁state	-302
thing	-303
ade	-304
ust	-305
▁serv	-306
▁ass	-307
▁off	-308
cess	-309
▁rec	-310
▁col	-311
vel	-312
▁car	-313
▁also	-314
▁sm	-315
▁good	-316
es	-317
▁gre	-318
ial	-319
row	-320
ual	-321
ft	-322
os	-323
low	-324
▁never	-325
oman	-326
rea	-327
own	-328
▁many	-329
ple	-330
ram	-331
▁play	-332
▁woman	-333
sh	-334
ord	-335
ess	-336
son	-337
▁need	-338
ced	-339
ab	-340
ert	-341
oc	-342
ren	-343
ved	-344
▁att	-345
▁cons	-346
▁see	-347
ning	-348
te	-349
ubl	-350
▁acc	-351
▁pol	-352
▁fe	-353
▁reg	-354
▁back	-355
▁dec	-356
▁tr	-357
▁jo	-358
ative	-359
▁right	-360
ific	-361
▁high	-362
ful	-363
▁service	-364
▁fin	-365
sc	-366
▁fir	-367
▁ha	-368
ith	-369
act	-370
und	-371
ick	-372
ious	-373
ouse	-374
▁look	-375
▁could	-376
▁leg	-377
▁mon	-378
▁pla	-379
▁inv	-380
con	-381
▁hel	-382
ath	-383
vern	-384
▁thing	-385
iver	-386
ily	-387
lud	-388
▁ent	-389
▁make	-390
eth	-391
▁no	-392
▁ru	-393
red	-394
▁gu	-395
▁any	-396
▁rem	-397
▁even	-398
▁said	-399
▁day	-400
▁way	-401
▁pa	-402
▁prog	-403
ang	-404
▁may	-405
▁so	-406
cial	-407
ating	-408
ident	-409
ican	-410
ife	-411
ency	-412
▁want	-413
ange	-414
eral	-415
▁much	-416
▁lot	-417
▁govern	-418
▁sy	-419
man	-420
▁really	-421
ib	-422
▁dif	-423
▁rel	-424
land	-425
ility	-426
▁take	-427
▁pres	-428
▁spe	-429
▁stand	-430
▁eff	-431
▁out	-432
ied	-433
▁first	-434
gan	-435
▁prov	-436
▁though	-437
ise	-438
ational	-439
ens	-440
▁old	-441
ury	-442
▁cost	-443
ood	-444
atch	-445
ile	-446
▁fr	-447
▁count	-448
▁long	-449
▁program	-450
ting	-451
▁city	-452
▁made	-453
ving	-454
▁gen	-455
▁house	-456
ph	-457
ty	-458
side	-459
▁law	-460
▁includ	-461
iew	-462
▁add	-463
▁inform	-464
▁government	-465
▁um	-466
▁show	-467
▁ab	-468
▁som	-469
▁with	-470
▁cr	-471
▁publ	-472
ather	-473
▁say	-474
ail	-475
ular	-476
▁stud	-477
ient	-478
ited	-479
▁bel	-480
▁sch	-481
▁produ	-482
orn	-483
ased	-484
▁ph	-485
▁child	-486
▁got	-487
▁fam	-488
ern	-489
urn	-490
▁hand	-491
ually	-492
▁def	-493
▁going	-494
ak	-495
▁plan	-496
▁clo	-497
▁loc	-498
▁supp	-499
alk	-500
▁des	-501
▁mar	-502
▁sub	-503
ool	-504
▁bus	-505
▁war	-506
▁da	-507
ible	-508
▁used	-509
▁amer	-510
▁requ	-511
▁is	-512
▁information	-513
▁small	-514
ower	-515
▁num	-516
aring	-517
▁art	-518
▁three	-519
▁ter	-520
▁bl	-521
▁inst	-522
▁wr	-523
ep	-524
▁person	-525
amp	-526
oup	-527
ject	-528
▁for	-529
▁still	-530
stem	-531
▁mean	-532
▁place	-533
ix	-534
▁legal	-535
▁disc	-536
▁differ	-537
▁stre	-538
▁199	-539
▁sign	-540
▁around	-541
▁system	-542
▁sur	-543
▁youn	-544
▁ob	-545
ivid	-546
ittle	-547
▁char	-548
ital	-549
▁use	-550
▁little	-551
▁young	-552
ene	-553
ember	-554
▁report	-555
io	-556
▁vis	-557
ale	-558
▁help	-559
▁form	-560
▁found	-561
▁sw	-562
ason	-563
pe	-564
▁ed	-565
▁cla	-566
led	-567
lect	-568
▁sim	-569
▁ga	-570
▁white	-571
ank	-572
▁min	-573
▁sou	-574
ider	-575
▁emp	-576
▁int	-577
▁lar	-578
ute	-579
▁oh	-580
▁ear	-581
▁200	-582
▁dep	-583
▁rev	-584
▁ret	-585
olog	-586
ways	-587
▁find	-588
▁pay	-589
▁dr	-590
▁public	-591
oy	-592
ract	-593
▁sk	-594
ork	-595
ose	-596
▁area	-597
▁life	-598
▁always	-599
▁century	-600
▁pop	-601
▁group	-602
▁country	-603
ey	-604
▁mod	-605
▁rest	-606
▁organ	-607
▁set	-608
▁case	-609
▁av	-610
▁do	-611
▁belie	-612
ier	-613
▁cre	-614
▁home	-615
ention	-616
▁cour	-617
▁as	-618
irl	-619
▁last	-620
▁call	-621
▁rule	-622
▁str	-623
▁fed	-624
▁water	-625
▁el	-626
▁end	-627
▁agency	-628
ctor	-629
▁someth	-630
▁individ	-631
▁comple	-632
▁something	-633
▁interest	-634
▁cur	-635
▁world	-636
▁individual	-637
ined	-638
ince	-639
▁perform	-640
rol	-641
▁town	-642
▁care	-643
▁great	-644
ace	-645
ization	-646
▁street	-647
rib	-648
▁men	-649
ost	-650
▁gra	-651
▁build	-652
▁iss	-653
▁val	-654
ature	-655
fit	-656
▁bar	-657
ew	-658
ash	-659
▁girl	-660
ody	-661
▁come	-662
xt	-663
▁eng	-664
ack	-665
▁ext	-666
▁20	-667
▁dist	-668
▁del	-669
▁resp	-670
cc	-671
eek	-672
ized	-673
▁dem	-674
▁mus	-675
ution	-676
oney	-677
▁not	-678
ission	-679
▁lead	-680
▁start	-681
any	-682
ont	-683
▁real	-684
▁det	-685
▁sec	-686
ond	-687
ished	-688
▁require	-689
▁happ	-690
▁american	-691
▁might	-692
▁est	-693
▁partic	-694
▁school	-695
▁large	-696
cent	-697
ision	-698
▁under	-699
▁bet	-700
▁cap	-701
▁dire	-702
▁run	-703
ether	-704
ner	-705
▁federal	-706
other	-707
ady	-708
▁bla	-709
irt	-710
▁cor	-711
▁book	-712
▁appro	-713
▁mark	-714
▁near	-715
▁number	-716
▁nor	-717
▁national	-718
▁med	-719
▁family	-720
get	-721
urch	-722
▁money	-723
av	-724
▁post	-725
▁watch	-726
itor	-727
▁sit	-728
▁top	-729
▁over	-730
ub	-731
▁3	-732
▁far	-733
atter	-734
▁another	-735
ich	-736
▁fund	-737
▁to	-738
▁bec	-739
iness	-740
▁tour	-741
▁change	-742
▁import	-743
ense	-744
ase	-745
▁fol	-746
▁au	-747
▁kind	-748
ger	-749
ling	-750
▁air	-751
per	-752
▁issue	-753
▁since	-754
less	-755
▁best	-756
cept	-757
▁black	-758
▁design	-759
ole	-760
▁big	-761
ans	-762
ared	-763
▁let	-764
▁sever	-765
▁tech	-766
▁anything	-767
▁different	-768
▁par	-769
▁building	-770
▁hum	-771
▁try	-772
loy	-773
ship	-774
▁fl	-775
▁fil	-776
ica	-777
▁ty	-778
▁bro	-779
▁tri	-780
▁four	-781
▁seem	-782
ward	-783
ted	-784
ived	-785
▁hist	-786
ertain	-787
▁cle	-788
conom	-789
▁point	-790
blem	-791
iving	-792
▁kid	-793
▁maj	-794
que	-795
▁less	-796
▁company	-797
oot	-798
▁study	-799
▁problem	-800
ism	-801
▁week	-802
▁econom	-803
ys	-804
▁put	-805
▁known	-806
ically	-807
eep	-808
mer	-809
velop	-810
▁sing	-811
▁18	-812
▁sure	-813
min	-814
▁techn	-815
▁bene	-816
▁major	-817
▁south	-818
ently	-819
▁conc	-820
alking	-821
▁colle	-822
ulation	-823
pl	-824
▁away	-825
▁thought	-826
▁consider	-827
ided	-828
▁red	-829
▁better	-830
▁sl	-831
▁aud	-832
▁var	-833
▁some	-834
omm	-835
ac	-836
ross	-837
itting	-838
bor	-839
▁effect	-840
▁adv	-841
rent	-842
ral	-843
▁tax	-844
▁cover	-845
▁business	-846
alth	-847
cing	-848
▁open	-849
▁hard	-850
▁must	-851
▁const	-852
▁offer	-853
▁commun	-854
▁signific	-855
▁head	-856
▁hu	-857
▁aff	-858
▁fre	-859
▁prop	-860
▁develop	-861
▁organization	-862
▁next	-863
▁how	-864
▁went	-865
ately	-866
▁manage	-867
▁name	-868
▁result	-869
ably	-870
▁fun	-871
ata	-872
joy	-873
▁read	-874
▁employ	-875
▁several	-876
▁island	-877
ane	-878
▁che	-879
▁dog	-880
▁hold	-881
▁control	-882
▁percent	-883
▁enjoy	-884
▁polit	-885
gy	-886
air	-887
▁bas	-888
▁boy	-889
▁without	-890
iel	-891
aper	-892
ural	-893
ology	-894
▁five	-895
▁side	-896
illion	-897
▁along	-898
▁remain	-899
▁trad	-900
▁night	-901
▁follow	-902
▁wearing	-903
▁yes	-904
▁film	-905
▁invest	-906
▁view	-907
ize	-908
▁office	-909
ery	-910
▁provide	-911
res	-912
be	-913
▁tem	-914
▁significant	-915
thor	-916
▁exam	-917
▁class	-918
ull	-919
▁ide	-920
▁feel	-921
▁poss	-922
▁room	-923
▁fore	-924
▁cal	-925
▁ele	-926
▁oft	-927
▁left	-928
ource	-929
▁land	-930
▁muse	-931
▁often	-932
ilt	-933
ley	-934
▁north	-935
▁5	-936
ever	-937
ivity	-938
ument	-939
▁rece	-940
▁beh	-941
▁current	-942
▁support	-943
000	-944
▁init	-945
▁ren	-946
▁nothing	-947
ality	-948
gress	-949
▁suc	-950
▁conf	-951
▁data	-952
▁keep	-953
co	-954
ought	-955
arch	-956
▁important	-957
▁camp	-958
▁shirt	-959
ither	-960
▁spec	-961
▁up	-962
ball	-963
ness	-964
▁fri	-965
▁grow	-966
▁port	-967
ending	-968
▁finan	-969
by	-970
▁ann	-971
ional	-972
ned	-973
▁inf	-974
▁hot	-975
▁foot	-976
▁process	-977
ven	-978
▁walk	-979
▁west	-980
▁allow	-981
▁intern	-982
▁president	-983
▁east	-984
▁market	-985
▁4	-986
ected	-987
▁contin	-988
▁believe	-989
ton	-990
▁game	-991
▁church	-992
▁reason	-993
▁main	-994
▁pain	-995
▁month	-996
▁saving	-997
osed	-998
inton	-999
az	-1000
ired	-1001
▁turn	-1002
▁clinton	-1003
▁management	-1004
▁appe	-1005
▁give	-1006
▁prot	-1007
▁music	-1008
ruct	-1009
ike	-1010
gest	-1011
▁bud	-1012
▁har	-1013
use	-1014
uc	-1015
▁hor	-1016
▁win	-1017
▁story	-1018
ior	-1019
ator	-1020
▁park	-1021
▁rate	-1022
▁job	-1023
▁met	-1024
▁blue	-1025
▁order	-1026
▁other	-1027
▁complete	-1028
▁tre	-1029
estion	-1030
▁sum	-1031
▁tod	-1032
▁test	-1033
▁playing	-1034
▁ask	-1035
iting	-1036
resent	-1037
▁standard	-1038
▁eas	-1039
▁account	-1040
ies	-1041
▁mail	-1042
▁local	-1043
▁ir	-1044
▁wa	-1045
▁question	-1046
iet	-1047
cond	-1048
▁mov	-1049
ration	-1050
▁impro	-1051
▁united	-1052
▁due	-1053
▁stay	-1054
▁team	-1055
▁represent	-1056
ye	-1057
▁dra	-1058
▁oper	-1059
▁site	-1060
▁gue	-1061
▁ref	-1062
▁benefit	-1063
▁pal	-1064
▁took	-1065
▁guess	-1066
▁movie	-1067
▁second	-1068
▁everyone	-1069
body	-1070
ended	-1071
▁event	-1072
hn	-1073
ead	-1074
▁mid	-1075
▁power	-1076
ii	-1077
igin	-1078
▁equ	-1079
▁short	-1080
▁center	-1081
up	-1082
▁done	-1083
▁rele	-1084
ensive	-1085
▁invol	-1086
▁train	-1087
▁respon	-1088
▁congress	-1089
ec	-1090
here	-1091
▁anal	-1092
▁free	-1093
▁priv	-1094
▁museum	-1095
▁opp	-1096
▁shop	-1097
▁level	-1098
▁record	-1099
ina	-1100
ric	-1101
▁quite	-1102
▁origin	-1103
used	-1104
illa	-1105
▁prev	-1106
▁however	-1107
ged	-1108
▁prof	-1109
▁tru	-1110
▁redu	-1111
▁exper	-1112
▁today	-1113
▁friend	-1114
vers	-1115
▁six	-1116
▁avail	-1117
▁outside	-1118
stand	-1119
▁front	-1120
por	-1121
▁ho	-1122
▁000	-1123
▁dol	-1124
ified	-1125
▁member	-1126
▁mr	-1127
ield	-1128
rict	-1129
▁gao	-1130
icy	-1131
▁john	-1132
▁certain	-1133
ird	-1134
▁af	-1135
▁exc	-1136
▁ris	-1137
▁ste	-1138
iding	-1139
ience	-1140
▁miss	-1141
▁road	-1142
▁success	-1143
▁performance	-1144
▁lea	-1145
▁arch	-1146
▁within	-1147
▁occ	-1148
▁pur	-1149
▁everything	-1150
▁stat	-1151
▁based	-1152
▁addition	-1153
▁pat	-1154
▁pos	-1155
▁idea	-1156
▁either	-1157
me	-1158
▁15	-1159
▁sn	-1160
ibility	-1161
▁financial	-1162
▁mor	-1163
▁beach	-1164
▁pract	-1165
iven	-1166
▁mount	-1167
▁compet	-1168
▁z	-1169
▁ins	-1170
▁sug	-1171
▁rese	-1172
▁review	-1173
▁project	-1174
bo	-1175
ump	-1176
▁arm	-1177
▁bad	-1178
erous	-1179
▁mer	-1180
▁prob	-1181
▁enough	-1182
▁general	-1183
gr	-1184
ott	-1185
rug	-1186
▁201	-1187
▁hour	-1188
▁trans	-1189
▁popular	-1190
▁present	-1191
▁can	-1192
▁built	-1193
▁matter	-1194
ened	-1195
▁seen	-1196
▁available	-1197
ium	-1198
iter	-1199
▁live	-1200
▁term	-1201
gin	-1202
▁yet	-1203
▁product	-1204
▁sitting	-1205
▁ap	-1206
▁the	-1207
iece	-1208
▁million	-1209
▁10	-1210
▁sun	-1211
▁jon	-1212
▁fact	-1213
▁exec	-1214
▁rock	-1215
▁using	-1216
▁health	-1217
▁tu	-1218
rease	-1219
ressed	-1220
▁offic	-1221
ugh	-1222
▁lsc	-1223
▁king	-1224
▁called	-1225
ued	-1226
▁pen	-1227
ivers	-1228
▁came	-1229
▁pass	-1230
▁past	-1231
uation	-1232
▁direct	-1233
▁cra	-1234
▁lim	-1235
▁party	-1236
day	-1237
lar	-1238
ler	-1239
▁ge	-1240
ogether	-1241
▁chr	-1242
▁pri	-1243
▁among	-1244
▁actually	-1245
abl	-1246
omb	-1247
▁er	-1248
▁type	-1249
▁activity	-1250
▁including	-1251
▁mag	-1252
▁star	-1253
▁making	-1254
▁looking	-1255
▁able	-1256
▁later	-1257
▁manag	-1258
▁price	-1259
nt	-1260
oice	-1261
ured	-1262
▁ten	-1263
▁gener	-1264
artment	-1265
▁meet	-1266
▁meth	-1267
▁others	-1268
▁temple	-1269
▁6	-1270
line	-1271
ken	-1272
▁low	-1273
▁alth	-1274
▁cult	-1275
▁least	-1276
▁secur	-1277
▁although	-1278
▁particip	-1279
▁probably	-1280
uck	-1281
ster	-1282
▁fig	-1283
▁tell	-1284
▁green	-1285
▁capital	-1286
▁technology	-1287
▁cut	-1288
▁tree	-1289
▁court	-1290
rew	-1291
▁17	-1292
ates	-1293
▁ant	-1294
▁food	-1295
▁word	-1296
▁together	-1297
oci	-1298
▁mil	-1299
▁news	-1300
▁budget	-1301
▁course	-1302
▁working	-1303
▁standing	-1304
ush	-1305
▁list	-1306
▁villa	-1307
▁action	-1308
fic	-1309
▁ve	-1310
▁sta	-1311
ortun	-1312
▁execut	-1313
▁method	-1314
▁someone	-1315
▁understand	-1316
▁pret	-1317
▁associ	-1318
▁author	-1319
les	-1320
ser	-1321
ison	-1322
▁gard	-1323
▁stop	-1324
▁talk	-1325
ication	-1326
▁effort	-1327
ret	-1328
▁hal	-1329
▁initi	-1330
yer	-1331
ised	-1332
▁crow	-1333
lement	-1334
▁deliver	-1335
med	-1336
▁ce	-1337
▁fut	-1338
▁line	-1339
▁mile	-1340
▁brit	-1341
▁paper	-1342
▁value	-1343
cer	-1344
▁vol	-1345
▁model	-1346
▁reach	-1347
over	-1348
ried	-1349
▁jap	-1350
▁crit	-1351
▁dollar	-1352
▁security	-1353
ilar	-1354
▁flo	-1355
ope	-1356
work	-1357
▁else	-1358
▁early	-1359
▁piece	-1360
▁research	-1361
icle	-1362
▁san	-1363
▁just	-1364
▁elect	-1365
▁refer	-1366
▁policy	-1367
ock	-1368
ique	-1369
▁risk	-1370
vement	-1371
▁garden	-1372
▁single	-1373
▁example	-1374
▁bea	-1375
▁rather	-1376
▁worker	-1377
ered	-1378
▁human	-1379
▁wanted	-1380
cle	-1381
elt	-1382
most	-1383
ored	-1384
▁accord	-1385
dle	-1386
▁ago	-1387
▁fish	-1388
▁establ	-1389
uss	-1390
▁198	-1391
▁bra	-1392
▁non	-1393
▁sat	-1394
▁tot	-1395
▁river	-1396
▁become	-1397
▁profess	-1398
▁suggest	-1399
▁age	-1400
▁thr	-1401
▁buy	-1402
acter	-1403
▁york	-1404
▁income	-1405
▁face	-1406
▁lost	-1407
▁plant	-1408
▁access	-1409
▁character	-1410
▁final	-1411
▁postal	-1412
▁usually	-1413
ief	-1414
uff	-1415
▁similar	-1416
▁ok	-1417
▁enc	-1418
▁sal	-1419
▁card	-1420
▁common	-1421
▁future	-1422
arent	-1423
▁love	-1424
▁political	-1425
ze	-1426
▁foc	-1427
▁base	-1428
▁travel	-1429
rop	-1430
▁cou	-1431
itten	-1432
▁desp	-1433
▁getting	-1434
▁community	-1435
imate	-1436
spect	-1437
▁tupp	-1438
▁visit	-1439
ination	-1440
ien	-1441
▁jud	-1442
▁trying	-1443
▁history	-1444
▁employee	-1445
▁tuppence	-1446
br	-1447
ik	-1448
enty	-1449
rench	-1450
▁clear	-1451
▁indust	-1452
▁season	-1453
iversity	-1454
▁executive	-1455
▁7	-1456
ising	-1457
ively	-1458
▁deal	-1459
▁economic	-1460
▁9	-1461
ira	-1462
▁close	-1463
▁various	-1464
ware	-1465
cient	-1466
▁fail	-1467
▁behind	-1468
▁entire	-1469
▁mountain	-1470
▁particular	-1471
ify	-1472
tern	-1473
unch	-1474
ysis	-1475
▁admin	-1476
▁increase	-1477
▁resource	-1478
▁specific	-1479
pa	-1480
▁eye	-1481
ering	-1482
▁wood	-1483
idence	-1484
▁minute	-1485
▁located	-1486
▁administ	-1487
▁analysis	-1488
pped	-1489
▁blo	-1490
asure	-1491
▁across	-1492
▁christ	-1493
▁ground	-1494
▁impact	-1495
▁whether	-1496
▁door	-1497
▁hund	-1498
▁infl	-1499
▁incre	-1500
▁whole	-1501
▁hundred	-1502
▁include	-1503
▁doc	-1504
▁desc	-1505
▁true	-1506
▁grant	-1507
▁almost	-1508
▁leader	-1509
▁feature	-1510
▁talking	-1511
▁tur	-1512
illed	-1513
▁agree	-1514
▁bring	-1515
▁interv	-1516
▁nation	-1517
▁pretty	-1518
ny	-1519
▁sol	-1520
▁quality	-1521
elf	-1522
▁bur	-1523
▁lack	-1524
▁detail	-1525
▁discuss	-1526
▁decision	-1527
▁deb	-1528
▁huh	-1529
▁mom	-1530
▁net	-1531
▁ple	-1532
▁claim	-1533
▁exist	-1534
▁comment	-1535
▁squ	-1536
▁lawyer	-1537
▁mention	-1538
▁private	-1539
▁tourist	-1540
▁document	-1541
fe	-1542
▁12	-1543
▁esp	-1544
uring	-1545
▁cond	-1546
▁wind	-1547
▁return	-1548
▁16	-1549
▁held	-1550
▁ident	-1551
▁histor	-1552
▁player	-1553
ming	-1554
▁her	-1555
▁table	-1556
▁figure	-1557
▁written	-1558
ging	-1559
▁nat	-1560
▁sen	-1561
▁beaut	-1562
▁given	-1563
ote	-1564
ume	-1565
▁gl	-1566
atic	-1567
uter	-1568
▁guy	-1569
▁brow	-1570
▁half	-1571
▁hill	-1572
▁force	-1573
▁tradition	-1574
▁dou	-1575
▁color	-1576
▁field	-1577
▁republ	-1578
▁according	-1579
▁alb	-1580
thern	-1581
ability	-1582
▁amount	-1583
▁needed	-1584
▁completely	-1585
au	-1586
▁full	-1587
cially	-1588
▁roman	-1589
ruction	-1590
iam	-1591
ony	-1592
yle	-1593
▁bal	-1594
▁cam	-1595
ption	-1596
▁dest	-1597
▁will	-1598
▁social	-1599
▁practice	-1600
ll	-1601
ety	-1602
imin	-1603
▁told	-1604
▁grand	-1605
▁walking	-1606
hol	-1607
▁tow	-1608
▁scre	-1609
den	-1610
ring	-1611
▁env	-1612
▁inside	-1613
▁special	-1614
▁department	-1615
▁it	-1616
▁fav	-1617
▁coun	-1618
▁mult	-1619
▁assist	-1620
▁section	-1621
▁possible	-1622
ron	-1623
▁eu	-1624
▁pot	-1625
ening	-1626
▁drug	-1627
▁deter	-1628
▁horse	-1629
▁sound	-1630
▁french	-1631
▁summer	-1632
▁ger	-1633
▁goal	-1634
▁late	-1635
▁prom	-1636
▁rout	-1637
▁wall	-1638
ov	-1639
iod	-1640
ourn	-1641
▁sil	-1642
▁ital	-1643
▁prim	-1644
▁defin	-1645
▁village	-1646
▁collection	-1647
▁abs	-1648
▁bill	-1649
aur	-1650
icient	-1651
▁crowd	-1652
▁regard	-1653
▁british	-1654
ins	-1655
▁tex	-1656
ained	-1657
▁educ	-1658
▁coast	-1659
▁store	-1660
▁period	-1661
▁central	-1662
▁committ	-1663
▁respons	-1664
▁arr	-1665
▁dev	-1666
etime	-1667
▁fire	-1668
▁poor	-1669
▁position	-1670
ma	-1671
ung	-1672
▁bor	-1673
istic	-1674
▁sand	-1675
▁asked	-1676
▁light	-1677
▁computer	-1678
asing	-1679
▁toward	-1680
▁student	-1681
ification	-1682
▁planning	-1683
allen	-1684
▁felt	-1685
ential	-1686
inking	-1687
▁taken	-1688
▁commission	-1689
▁dan	-1690
▁unf	-1691
atory	-1692
onder	-1693
▁hotel	-1694
▁couple	-1695
▁du	-1696
ogra	-1697
▁lake	-1698
▁heard	-1699
▁approach	-1700
hold	-1701
▁ach	-1702
ficult	-1703
▁started	-1704
▁difficult	-1705
ommy	-1706
▁fac	-1707
▁daan	-1708
▁began	-1709
▁press	-1710
▁seems	-1711
▁tommy	-1712
▁region	-1713
▁protect	-1714
▁remember	-1715
▁requirement	-1716
▁ii	-1717
▁vi	-1718
ready	-1719
▁alco	-1720
▁band	-1721
▁lady	-1722
▁pict	-1723
▁begin	-1724
▁obser	-1725
▁staff	-1726
▁total	-1727
▁prefer	-1728
▁already	-1729
▁college	-1730
pr	-1731
imal	-1732
▁arg	-1733
▁gold	-1734
▁frequ	-1735
▁modern	-1736
▁experience	-1737
▁university	-1738
amed	-1739
eter	-1740
iron	-1741
itch	-1742
▁mot	-1743
▁song	-1744
▁stra	-1745
▁client	-1746
▁alcohol	-1747
na	-1748
▁8	-1749
iful	-1750
▁civ	-1751
itary	-1752
▁bank	-1753
▁flow	-1754
aurant	-1755
▁influ	-1756
▁anyone	-1757
▁became	-1758
▁environ	-1759
▁restaurant	-1760
▁ke	-1761
▁dom	-1762
▁achie	-1763
▁journ	-1764
▁assess	-1765
▁justice	-1766
▁considered	-1767
▁environment	-1768
erv	-1769
ister	-1770
▁instead	-1771
▁picture	-1772
par	-1773
ival	-1774
reme	-1775
▁saw	-1776
▁tit	-1777
fully	-1778
▁brea	-1779
▁related	-1780
▁official	-1781
app	-1782
▁mal	-1783
▁album	-1784
▁maybe	-1785
▁super	-1786
▁appear	-1787
▁consist	-1788
▁at	-1789
band	-1790
▁197	-1791
▁draw	-1792
▁nice	-1793
▁sort	-1794
iously	-1795
▁maint	-1796
▁indian	-1797
▁wonder	-1798
▁holding	-1799
▁industry	-1800
▁numerous	-1801
▁lou	-1802
▁easy	-1803
▁item	-1804
▁lear	-1805
▁mind	-1806
▁sent	-1807
ift	-1808
aint	-1809
bert	-1810
▁ill	-1811
▁tele	-1812
ousand	-1813
▁object	-1814
▁thousand	-1815
▁situation	-1816
▁aid	-1817
▁cat	-1818
▁own	-1819
▁cast	-1820
▁cred	-1821
▁knew	-1822
▁role	-1823
▁sold	-1824
▁champ	-1825
▁death	-1826
▁worth	-1827
▁middle	-1828
▁taking	-1829
▁district	-1830
▁tv	-1831
where	-1832
▁brown	-1833
▁living	-1834
▁investment	-1835
ped	-1836
▁fle	-1837
▁emer	-1838
▁step	-1839
icated	-1840
▁award	-1841
▁third	-1842
▁strate	-1843
▁14	-1844
enue	-1845
rope	-1846
▁god	-1847
▁espe	-1848
▁wash	-1849
iction	-1850
▁likely	-1851
▁looked	-1852
▁despite	-1853
▁running	-1854
ake	-1855
▁wife	-1856
ructure	-1857
▁manager	-1858
▁involved	-1859
▁interesting	-1860
ask	-1861
play	-1862
▁appl	-1863
▁vict	-1864
▁relig	-1865
▁america	-1866
▁continue	-1867
▁received	-1868
▁sometime	-1869
▁especially	-1870
▁republican	-1871
hib	-1872
let	-1873
▁board	-1874
▁check	-1875
▁necess	-1876
▁development	-1877
▁key	-1878
▁opt	-1879
itive	-1880
▁body	-1881
▁wide	-1882
▁quick	-1883
▁stuff	-1884
▁france	-1885
▁following	-1886
ape	-1887
sed	-1888
▁avo	-1889
▁son	-1890
▁boat	-1891
▁born	-1892
▁style	-1893
▁implement	-1894
▁bre	-1895
▁ball	-1896
▁fort	-1897
▁rich	-1898
▁chang	-1899
▁favor	-1900
▁delivery	-1901
▁population	-1902
ino	-1903
rot	-1904
ining	-1905
▁prin	-1906
▁sell	-1907
▁route	-1908
▁moment	-1909
ann	-1910
oor	-1911
▁sle	-1912
▁civil	-1913
▁address	-1914
▁condition	-1915
▁expl	-1916
▁station	-1917
▁champion	-1918
▁beautiful	-1919
ex	-1920
ana	-1921
▁bed	-1922
▁fif	-1923
ellow	-1924
▁eight	-1925
▁europe	-1926
▁challen	-1927
▁decided	-1928
▁patient	-1929
▁released	-1930
▁sometimes	-1931
ocr	-1932
sure	-1933
▁sus	-1934
▁dark	-1935
▁jack	-1936
▁okay	-1937
▁famous	-1938
▁german	-1939
▁played	-1940
▁foreign	-1941
sy	-1942
▁hus	-1943
arter	-1944
▁cust	-1945
▁strong	-1946
lish	-1947
▁focus	-1948
▁lower	-1949
▁spend	-1950
▁entity	-1951
▁square	-1952
▁concern	-1953
▁ut	-1954
ames	-1955
vert	-1956
▁bit	-1957
▁jer	-1958
▁jew	-1959
▁fall	-1960
▁hall	-1961
▁lang	-1962
▁mass	-1963
ington	-1964
▁cause	-1965
▁fight	-1966
▁archit	-1967
▁created	-1968
▁difference	-1969
▁regulation	-1970
wh	-1971
za	-1972
ics	-1973
fect	-1974
▁adm	-1975
▁phot	-1976
▁parent	-1977
▁recent	-1978
▁architect	-1979
ers	-1980
une	-1981
▁don	-1982
▁drew	-1983
▁broad	-1984
▁husband	-1985
▁director	-1986
▁military	-1987
▁cir	-1988
rible	-1989
▁eval	-1990
▁texas	-1991
▁payment	-1992
▁required	-1993
ef	-1994
ama	-1995
ius	-1996
▁195	-1997
▁aut	-1998
▁fine	-1999
▁pick	-2000
▁stri	-2001
▁suff	-2002
▁carry	-2003
▁consum	-2004
▁196	-2005
▁den	-2006
▁gave	-2007
▁jump	-2008
▁viol	-2009
▁leave	-2010
▁sport	-2011
▁stone	-2012
▁accept	-2013
ug	-2014
bur	-2015
▁cy	-2016
empt	-2017
ping	-2018
ground	-2019
ograph	-2020
▁demand	-2021
▁engine	-2022
▁describ	-2023
▁provided	-2024
sw	-2025
▁sky	-2026
▁hair	-2027
▁heav	-2028
▁mich	-2029
▁corre	-2030
▁chance	-2031
▁corpor	-2032
▁ancient	-2033
▁english	-2034
era	-2035
oke	-2036
epend	-2037
▁snow	-2038
▁soon	-2039
▁critic	-2040
▁auditor	-2041
▁visitor	-2042
set	-2043
umb	-2044
▁cru	-2045
▁dam	-2046
▁exce	-2047
▁crime	-2048
▁exact	-2049
▁james	-2050
▁contain	-2051
▁designed	-2052
▁includes	-2053
ogn	-2054
▁je	-2055
▁ben	-2056
▁hur	-2057
▁jul	-2058
iling	-2059
▁prior	-2060
▁wrong	-2061
▁culture	-2062
▁independ	-2063
lass	-2064
▁neg	-2065
▁acqu	-2066
▁conn	-2067
▁happy	-2068
▁letter	-2069
▁series	-2070
▁mentioned	-2071
lus	-2072
gypt	-2073
▁hit	-2074
▁mad	-2075
▁web	-2076
▁heart	-2077
▁peace	-2078
▁mother	-2079
▁palace	-2080
▁recomm	-2081
▁11	-2082
idge	-2083
▁dav	-2084
▁club	-2085
▁comb	-2086
▁dead	-2087
▁gree	-2088
▁mess	-2089
▁pack	-2090
▁ride	-2091
▁break	-2092
▁higher	-2093
▁recogn	-2094
▁contrib	-2095
▁extreme	-2096
▁measure	-2097
▁majority	-2098
▁committee	-2099
▁structure	-2100
unt	-2101
▁hol	-2102
▁sea	-2103
attle	-2104
▁drive	-2105
▁egypt	-2106
▁moved	-2107
▁share	-2108
▁space	-2109
▁expect	-2110
▁source	-2111
▁emission	-2112
▁traditional	-2113
ror	-2114
pose	-2115
▁cross	-2116
▁older	-2117
▁teach	-2118
▁tower	-2119
▁track	-2120
▁perfect	-2121
▁reporting	-2122
▁construction	-2123
een	-2124
ille	-2125
▁div	-2126
▁fem	-2127
▁sla	-2128
itely	-2129
▁move	-2130
▁race	-2131
▁japan	-2132
▁attack	-2133
▁display	-2134
▁training	-2135
▁production	-2136
▁international	-2137
iff	-2138
▁lie	-2139
▁typ	-2140
▁hope	-2141
▁russ	-2142
▁spot	-2143
▁langu	-2144
▁custom	-2145
▁longer	-2146
▁served	-2147
▁purpose	-2148
▁evidence	-2149
come	-2150
▁ing	-2151
▁sir	-2152
ledge	-2153
oughout	-2154
▁choice	-2155
▁father	-2156
▁meeting	-2157
▁currently	-2158
▁throughout	-2159
▁mic	-2160
▁cath	-2161
▁self	-2162
▁morning	-2163
▁request	-2164
▁initiative	-2165
oth	-2166
pri	-2167
yal	-2168
▁13	-2169
▁hat	-2170
▁geor	-2171
▁phys	-2172
▁chair	-2173
▁spent	-2174
▁economy	-2175
▁happened	-2176
▁personal	-2177
▁effective	-2178
aw	-2179
ass	-2180
aign	-2181
round	-2182
▁span	-2183
▁appropri	-2184
▁estimate	-2185
▁painting	-2186
▁surround	-2187
▁washington	-2188
ne	-2189
ouch	-2190
▁aim	-2191
▁mur	-2192
▁tar	-2193
arily	-2194
▁chap	-2195
▁mand	-2196
▁prep	-2197
▁round	-2198
▁seven	-2199
▁stock	-2200
▁animal	-2201
▁campaign	-2202
▁language	-2203
▁statement	-2204
▁professional	-2205
eed	-2206
oon	-2207
val	-2208
onst	-2209
oura	-2210
rael	-2211
▁194	-2212
pture	-2213
▁norm	-2214
▁floor	-2215
▁occur	-2216
▁purch	-2217
▁saint	-2218
▁treat	-2219
▁israel	-2220
▁valley	-2221
▁funding	-2222
▁expensive	-2223
▁additional	-2224
pper	-2225
▁cook	-2226
▁page	-2227
▁separ	-2228
▁credit	-2229
▁except	-2230
▁factor	-2231
▁receive	-2232
▁original	-2233
▁watching	-2234
▁authority	-2235
isl	-2236
rin	-2237
ston	-2238
▁fair	-2239
▁soci	-2240
▁ther	-2241
▁altern	-2242
▁county	-2243
▁allowed	-2244
▁subject	-2245
▁expected	-2246
outh	-2247
rodu	-2248
▁mem	-2249
▁tran	-2250
▁labor	-2251
▁artist	-2252
▁democr	-2253
▁notice	-2254
▁resort	-2255
▁intervention	-2256
▁mary	-2257
▁sleep	-2258
▁title	-2259
▁princi	-2260
▁attempt	-2261
▁education	-2262
▁definitely	-2263
read	-2264
▁pan	-2265
▁pet	-2266
light	-2267
▁circ	-2268
▁vers	-2269
▁clean	-2270
▁emerg	-2271
▁sense	-2272
▁turned	-2273
▁discover	-2274
▁established	-2275
de	-2276
ili	-2277
ply	-2278
ague	-2279
▁led	-2280
▁note	-2281
▁pool	-2282
▁swim	-2283
▁grass	-2284
▁lived	-2285
itution	-2286
▁determ	-2287
▁secret	-2288
▁twenty	-2289
▁article	-2290
▁remains	-2291
▁included	-2292
▁opportun	-2293
▁emb	-2294
▁glo	-2295
ental	-2296
▁conv	-2297
▁kept	-2298
▁trust	-2299
▁reform	-2300
▁exactly	-2301
▁football	-2302
of	-2303
gust	-2304
oming	-2305
▁host	-2306
▁audit	-2307
▁former	-2308
▁legisl	-2309
▁brought	-2310
▁quarter	-2311
▁proposed	-2312
▁recently	-2313
oe	-2314
aps	-2315
for	-2316
ket	-2317
oph	-2318
▁25	-2319
▁bi	-2320
▁ju	-2321
▁bay	-2322
▁firm	-2323
▁sett	-2324
▁trip	-2325
▁subst	-2326
▁nobody	-2327
▁complex	-2328
▁opportunity	-2329
su	-2330
▁dut	-2331
▁ess	-2332
▁sam	-2333
ician	-2334
▁bott	-2335
▁match	-2336
▁produced	-2337
▁developed	-2338
▁association	-2339
▁30	-2340
▁my	-2341
fact	-2342
like	-2343
▁nar	-2344
▁rad	-2345
izing	-2346
orney	-2347
▁2000	-2348
▁cand	-2349
▁outd	-2350
▁suit	-2351
ughter	-2352
▁stage	-2353
▁coming	-2354
▁statue	-2355
▁yellow	-2356
▁attract	-2357
▁attorney	-2358
▁resident	-2359
ba	-2360
ode	-2361
olf	-2362
▁km	-2363
aged	-2364
rest	-2365
▁answ	-2366
▁condu	-2367
▁expla	-2368
▁range	-2369
li	-2370
aste	-2371
back	-2372
iced	-2373
▁fly	-2374
ously	-2375
▁mart	-2376
▁save	-2377
ipment	-2378
urance	-2379
vision	-2380
▁named	-2381
▁trade	-2382
▁afford	-2383
▁retire	-2384
▁collect	-2385
▁journal	-2386
▁relation	-2387
▁response	-2388
▁50	-2389
▁na	-2390
▁ton	-2391
▁cele	-2392
▁died	-2393
▁gain	-2394
▁sant	-2395
▁seat	-2396
▁flower	-2397
▁worked	-2398
▁knowledge	-2399
▁ur	-2400
anced	-2401
▁hear	-2402
▁none	-2403
▁path	-2404
▁limit	-2405
▁thank	-2406
▁tried	-2407
▁dressed	-2408
▁improve	-2409
▁attention	-2410
▁emergency	-2411
iety	-2412
▁100	-2413
aking	-2414
asion	-2415
▁pred	-2416
▁scul	-2417
▁trou	-2418
verage	-2419
▁avoid	-2420
▁cloth	-2421
▁david	-2422
▁julius	-2423
▁multip	-2424
▁window	-2425
▁quickly	-2426
▁generally	-2427
▁necessary	-2428
ico	-2429
oss	-2430
ude	-2431
hood	-2432
▁afr	-2433
▁ban	-2434
▁cop	-2435
▁ran	-2436
inese	-2437
▁extra	-2438
▁regul	-2439
▁italian	-2440
▁function	-2441
lace	-2442
▁rap	-2443
ially	-2444
itted	-2445
▁hosp	-2446
▁unit	-2447
▁assum	-2448
▁exhib	-2449
▁micro	-2450
▁happen	-2451
▁remark	-2452
▁natural	-2453
bb	-2454
ada	-2455
gth	-2456
haps	-2457
medi	-2458
rant	-2459
▁los	-2460
▁mos	-2461
anese	-2462
▁down	-2463
atever	-2464
▁advert	-2465
▁expert	-2466
▁profit	-2467
▁winter	-2468
▁ability	-2469
▁chinese	-2470
▁conserv	-2471
▁perhaps	-2472
▁contract	-2473
▁hospital	-2474
▁whatever	-2475
bel	-2476
oted	-2477
stly	-2478
▁poi	-2479
▁swe	-2480
▁sym	-2481
▁manu	-2482
▁march	-2483
▁royal	-2484
▁nearby	-2485
ological	-2486
▁element	-2487
▁alternative	-2488
acy	-2489
ett	-2490
nam	-2491
▁hy	-2492
iled	-2493
oint	-2494
uted	-2495
▁fla	-2496
▁ver	-2497
▁gall	-2498
▁calif	-2499
▁louis	-2500
▁belief	-2501
▁doctor	-2502
▁option	-2503
▁poirot	-2504
▁william	-2505
▁maintain	-2506
▁cho	-2507
▁ded	-2508
▁fix	-2509
▁sex	-2510
cience	-2511
▁explo	-2512
▁speak	-2513
igation	-2514
▁charge	-2515
▁growth	-2516
▁society	-2517
▁towards	-2518
▁restrict	-2519
▁southern	-2520
▁spending	-2521
▁christian	-2522
▁equipment	-2523
▁increased	-2524
▁successful	-2525
▁dy	-2526
ceed	-2527
head	-2528
reat	-2529
▁bey	-2530
▁fan	-2531
▁han	-2532
▁sad	-2533
▁cold	-2534
▁dece	-2535
▁deep	-2536
▁poll	-2537
▁rain	-2538
▁greek	-2539
▁neigh	-2540
▁phone	-2541
▁destro	-2542
▁gather	-2543
▁simple	-2544
▁introdu	-2545
▁western	-2546
▁household	-2547
▁published	-2548
key	-2549
lim	-2550
▁imm	-2551
ornia	-2552
▁army	-2553
▁gate	-2554
▁guid	-2555
▁scen	-2556
▁adrin	-2557
▁owner	-2558
▁surpr	-2559
olution	-2560
▁basket	-2561
▁conduct	-2562
▁weather	-2563
▁election	-2564
▁multiple	-2565
▁influence	-2566
▁recommend	-2567
▁background	-2568
▁television	-2569
ca	-2570
lier	-2571
▁bon	-2572
board	-2573
▁clim	-2574
▁corn	-2575
▁kill	-2576
▁size	-2577
▁china	-2578
▁dress	-2579
▁voice	-2580
▁beyond	-2581
▁career	-2582
▁immedi	-2583
▁sector	-2584
▁covered	-2585
▁outdoor	-2586
▁watched	-2587
▁internet	-2588
▁location	-2589
▁provides	-2590
▁terrible	-2591
▁establish	-2592
xim	-2593
▁ly	-2594
▁tom	-2595
▁sale	-2596
▁eastern	-2597
▁initial	-2598
▁mission	-2599
▁favorite	-2600
▁originally	-2601
umn	-2602
uary	-2603
▁bow	-2604
▁cio	-2605
▁ign	-2606
bling	-2607
inion	-2608
▁task	-2609
▁wear	-2610
lethor	-2611
▁battle	-2612
▁demonst	-2613
▁encoura	-2614
▁leading	-2615
▁medical	-2616
▁neighbor	-2617
▁extremely	-2618
▁operation	-2619
▁retirement	-2620
▁particularly	-2621
ban	-2622
room	-2623
wide	-2624
▁fer	-2625
▁ful	-2626
ander	-2627
orter	-2628
▁date	-2629
▁alone	-2630
▁glass	-2631
raction	-2632
▁august	-2633
▁camera	-2634
▁cathed	-2635
▁empire	-2636
▁riding	-2637
▁saying	-2638
▁average	-2639
▁brother	-2640
▁limited	-2641
▁remained	-2642
▁interested	-2643
ai	-2644
ham	-2645
▁ep	-2646
irty	-2647
rote	-2648
▁der	-2649
▁din	-2650
▁gar	-2651
inger	-2652
uated	-2653
▁2001	-2654
▁dram	-2655
▁slow	-2656
▁wish	-2657
▁aware	-2658
▁paris	-2659
▁wrote	-2660
▁correct	-2661
▁expense	-2662
▁reported	-2663
▁inglethor	-2664
▁conservative	-2665
▁administration	-2666
▁lu	-2667
▁ti	-2668
sequ	-2669
▁fast	-2670
▁inte	-2671
▁safe	-2672
▁judge	-2673
▁serve	-2674
▁affect	-2675
▁excell	-2676
▁changed	-2677
▁destroy	-2678
▁growing	-2679
▁install	-2680
▁opinion	-2681
▁primary	-2682
▁japanese	-2683
▁manufact	-2684
▁thinking	-2685
▁assistance	-2686
▁inglethorp	-2687
▁participant	-2688
unk	-2689
▁shr	-2690
rated	-2691
▁male	-2692
▁paid	-2693
▁sword	-2694
▁express	-2695
▁respect	-2696
▁supposed	-2697
▁california	-2698
▁responsibility	-2699
zz	-2700
gic	-2701
iant	-2702
inct	-2703
reci	-2704
▁ang	-2705
▁enh	-2706
▁pas	-2707
▁mine	-2708
▁rail	-2709
▁tomb	-2710
▁indeed	-2711
▁master	-2712
▁police	-2713
▁robert	-2714
▁simply	-2715
▁wealth	-2716
▁regular	-2717
▁revenue	-2718
▁believed	-2719
▁facility	-2720
▁shopping	-2721
▁frequently	-2722
▁increasing	-2723
ox	-2724
oud	-2725
ura	-2726
adem	-2727
▁dor	-2728
▁fee	-2729
▁inn	-2730
▁ven	-2731
▁aust	-2732
▁vote	-2733
▁asset	-2734
▁write	-2735
▁ensure	-2736
▁handle	-2737
▁nearly	-2738
▁propos	-2739
▁seemed	-2740
▁defending	-2741
▁assessment	-2742
ga	-2743
ob	-2744
vey	-2745
teen	-2746
▁pul	-2747
iring	-2748
▁susp	-2749
▁wild	-2750
action	-2751
▁basis	-2752
▁earth	-2753
▁motor	-2754
ference	-2755
▁connect	-2756
▁challenge	-2757
go	-2758
ked	-2759
▁60	-2760
ends	-2761
itar	-2762
▁adj	-2763
▁eat	-2764
▁gun	-2765
▁ham	-2766
▁ram	-2767
▁veh	-2768
▁huge	-2769
▁blood	-2770
▁magaz	-2771
▁instru	-2772
ky	-2773
iny	-2774
ney	-2775
ula	-2776
▁ib	-2777
ding	-2778
more	-2779
▁guide	-2780
▁india	-2781
▁medium	-2782
▁senior	-2783
▁transp	-2784
▁convers	-2785
▁science	-2786
▁version	-2787
▁compared	-2788
▁magazine	-2789
▁cathedral	-2790
urs	-2791
▁aw	-2792
▁cas	-2793
▁fra	-2794
▁sole	-2795
▁minor	-2796
▁closed	-2797
▁nature	-2798
▁largest	-2799
▁beginning	-2800
▁construct	-2801
▁principle	-2802
cast	-2803
rupt	-2804
ught	-2805
▁wal	-2806
scape	-2807
▁mach	-2808
▁dance	-2809
▁gradu	-2810
▁mater	-2811
▁medic	-2812
▁academ	-2813
▁spring	-2814
▁finally	-2815
▁directed	-2816
▁reduction	-2817
▁accounting	-2818
ara	-2819
gal	-2820
mit	-2821
ray	-2822
cise	-2823
erve	-2824
▁hon	-2825
▁jan	-2826
▁nov	-2827
▁oct	-2828
▁pra	-2829
ester	-2830
rance	-2831
▁bush	-2832
▁ener	-2833
▁gone	-2834
▁user	-2835
ortion	-2836
▁frank	-2837
▁novel	-2838
▁oppos	-2839
▁reduce	-2840
▁screen	-2841
▁reading	-2842
▁setting	-2843
▁trouble	-2844
▁strategy	-2845
▁excellent	-2846
▁religious	-2847
yz	-2848
isc	-2849
rit	-2850
▁bag	-2851
▁cit	-2852
▁1996	-2853
▁bike	-2854
▁union	-2855
▁network	-2856
▁produce	-2857
▁variety	-2858
▁daughter	-2859
▁associated	-2860
▁discussion	-2861
▁eventually	-2862
▁significantly	-2863
▁box	-2864
▁epa	-2865
▁fru	-2866
▁spl	-2867
▁sud	-2868
estic	-2869
▁dang	-2870
▁sits	-2871
▁upon	-2872
▁absol	-2873
▁catch	-2874
▁heavy	-2875
▁touch	-2876
▁crimin	-2877
▁moving	-2878
▁threat	-2879
▁appreci	-2880
▁billion	-2881
▁finding	-2882
▁smaller	-2883
▁insurance	-2884
▁independent	-2885
itz	-2886
ream	-2887
▁lin	-2888
▁mex	-2889
▁nom	-2890
asant	-2891
labor	-2892
▁bird	-2893
▁june	-2894
▁slate	-2895
▁worry	-2896
▁bridge	-2897
▁stayed	-2898
▁impress	-2899
▁partner	-2900
▁reflect	-2901
▁entrance	-2902
▁movement	-2903
▁northern	-2904
bin	-2905
eme	-2906
odd	-2907
▁ul	-2908
apon	-2909
▁loss	-2910
▁tool	-2911
▁autom	-2912
▁brief	-2913
▁newsp	-2914
▁decade	-2915
▁failed	-2916
▁passed	-2917
▁volume	-2918
▁weapon	-2919
▁prevent	-2920
▁spanish	-2921
▁vehicle	-2922
▁entertain	-2923
▁attraction	-2924
gg	-2925
vant	-2926
▁deg	-2927
▁nap	-2928
▁beat	-2929
▁fell	-2930
▁phil	-2931
▁added	-2932
▁indic	-2933
▁liber	-2934
▁sight	-2935
▁bought	-2936
▁contra	-2937
▁female	-2938
▁proced	-2939
▁evening	-2940
▁customer	-2941
▁electron	-2942
▁material	-2943
▁straight	-2944
▁newspaper	-2945
▁basketball	-2946
▁relationship	-2947
stic	-2948
▁vir	-2949
avior	-2950
pping	-2951
▁dave	-2952
▁fran	-2953
▁luck	-2954
▁mist	-2955
▁prem	-2956
▁rare	-2957
▁soft	-2958
ulated	-2959
▁climb	-2960
▁answer	-2961
▁commer	-2962
▁forest	-2963
▁george	-2964
▁highly	-2965
▁paying	-2966
▁feeling	-2967
▁fishing	-2968
ae	-2969
▁on	-2970
▁gas	-2971
▁gro	-2972
▁mix	-2973
▁sev	-2974
▁tal	-2975
▁unc	-2976
▁van	-2977
▁1999	-2978
▁amaz	-2979
▁imag	-2980
▁link	-2981
▁magn	-2982
▁incor	-2983
▁specie	-2984
▁absolute	-2985
▁behavior	-2986
▁criminal	-2987
▁historical	-2988
▁regulatory	-2989
ini	-2990
reh	-2991
ager	-2992
bled	-2993
erty	-2994
▁and	-2995
▁cry	-2996
▁eth	-2997
▁ice	-2998
▁lif	-2999
eline	-3000
phone	-3001
rence	-3002
▁arab	-3003
▁rela	-3004
imated	-3005
▁brand	-3006
▁scene	-3007
▁annual	-3008
▁disapp	-3009
▁jacket	-3010
▁progress	-3011
we	-3012
▁vot	-3013
efore	-3014
▁disp	-3015
▁loan	-3016
▁sens	-3017
▁spir	-3018
▁wine	-3019
▁relax	-3020
▁caused	-3021
▁column	-3022
▁create	-3023
▁clothes	-3024
▁gallery	-3025
▁critical	-3026
▁instance	-3027
▁previous	-3028
▁proposal	-3029
▁starting	-3030
▁administr	-3031
▁certainly	-3032
▁suggested	-3033
▁therefore	-3034
aded	-3035
usal	-3036
▁eld	-3037
▁soc	-3038
▁ult	-3039
▁duty	-3040
▁pink	-3041
▁ship	-3042
▁shot	-3043
▁adult	-3044
▁ready	-3045
▁topic	-3046
▁celebr	-3047
▁mostly	-3048
▁concept	-3049
▁offering	-3050
▁relative	-3051
▁continued	-3052
▁objective	-3053
ha	-3054
mo	-3055
dom	-3056
ania	-3057
west	-3058
ender	-3059
▁adop	-3060
▁defe	-3061
▁gent	-3062
▁basic	-3063
▁craft	-3064
▁murder	-3065
▁select	-3066
▁enjoyed	-3067
▁theater	-3068
▁audience	-3069
▁electric	-3070
▁entirely	-3071
▁requires	-3072
▁separate	-3073
▁efficient	-3074
▁providing	-3075
▁regarding	-3076
▁sculpture	-3077
ici	-3078
ons	-3079
zen	-3080
iday	-3081
reed	-3082
▁193	-3083
▁gam	-3084
lined	-3085
▁baby	-3086
▁mill	-3087
▁rise	-3088
▁yard	-3089
inated	-3090
▁quiet	-3091
▁candid	-3092
▁castle	-3093
▁double	-3094
▁imposs	-3095
▁soccer	-3096
▁survey	-3097
▁thirty	-3098
▁content	-3099
▁reached	-3100
▁writing	-3101
▁property	-3102
▁potential	-3103
▁corporation	-3104
asc	-3105
ril	-3106
▁scr	-3107
▁tim	-3108
ashion	-3109
▁accom	-3110
▁alien	-3111
▁asian	-3112
▁clock	-3113
▁elder	-3114
▁liter	-3115
▁sched	-3116
▁energy	-3117
▁giving	-3118
▁target	-3119
▁earlier	-3120
▁message	-3121
▁outcome	-3122
▁stopped	-3123
▁directly	-3124
▁recorded	-3125
▁swimming	-3126
▁everybody	-3127
▁typically	-3128
▁instrument	-3129
▁previously	-3130
▁immediately	-3131
ael	-3132
rel	-3133
ateg	-3134
mber	-3135
▁cer	-3136
▁dro	-3137
▁jes	-3138
▁lay	-3139
▁rul	-3140
tered	-3141
▁cash	-3142
▁lose	-3143
▁teen	-3144
▁trib	-3145
▁drink	-3146
▁freed	-3147
▁whose	-3148
▁eating	-3149
▁theory	-3150
▁defense	-3151
▁fashion	-3152
▁greater	-3153
▁involve	-3154
▁soldier	-3155
▁consumer	-3156
▁existing	-3157
▁intended	-3158
▁initially	-3159
▁representation	-3160
cked	-3161
▁doub	-3162
▁qual	-3163
change	-3164
▁ended	-3165
▁enter	-3166
lection	-3167
▁announ	-3168
▁formed	-3169
▁league	-3170
▁experien	-3171
▁transport	-3172
▁responsible	-3173
▁x	-3174
ule	-3175
▁pu	-3176
tain	-3177
wise	-3178
▁cow	-3179
▁hun	-3180
▁kal	-3181
onent	-3182
▁farm	-3183
▁golf	-3184
▁gray	-3185
▁hang	-3186
▁leaf	-3187
▁tend	-3188
usalem	-3189
▁categ	-3190
▁image	-3191
▁italy	-3192
▁muslim	-3193
▁orange	-3194
▁unique	-3195
▁weight	-3196
▁compreh	-3197
▁forward	-3198
▁machine	-3199
▁planned	-3200
▁contains	-3201
▁situated	-3202
▁jerusalem	-3203
▁publication	-3204
▁recommendation	-3205
bal	-3206
▁di	-3207
rend	-3208
force	-3209
using	-3210
▁debt	-3211
▁hate	-3212
▁hind	-3213
▁hous	-3214
▁jean	-3215
▁push	-3216
▁skin	-3217
▁surv	-3218
▁warm	-3219
antage	-3220
▁equal	-3221
▁radio	-3222
▁easily	-3223
▁expand	-3224
▁opened	-3225
▁sudden	-3226
▁useful	-3227
spective	-3228
▁grantee	-3229
▁russian	-3230
▁internal	-3231
▁impossible	-3232
▁environmental	-3233
cl	-3234
he	-3235
bol	-3236
cil	-3237
uba	-3238
▁40	-3239
abit	-3240
ibly	-3241
look	-3242
ober	-3243
▁mis	-3244
▁reb	-3245
▁rid	-3246
▁rol	-3247
gment	-3248
icket	-3249
iscal	-3250
▁1990	-3251
▁2002	-3252
▁april	-3253
▁decor	-3254
▁fresh	-3255
▁learn	-3256
▁shown	-3257
▁trial	-3258
▁truly	-3259
▁beside	-3260
▁decide	-3261
▁guitar	-3262
▁hanson	-3263
▁helped	-3264
▁native	-3265
▁weekend	-3266
▁december	-3267
▁democrat	-3268
▁purchase	-3269
▁speaking	-3270
▁candidate	-3271
▁dedicated	-3272
ays	-3273
▁gh	-3274
eror	-3275
mark	-3276
▁192	-3277
▁psy	-3278
▁sac	-3279
allas	-3280
itude	-3281
▁bomb	-3282
▁folk	-3283
▁wait	-3284
iation	-3285
▁chose	-3286
▁shore	-3287
▁skill	-3288
▁anyway	-3289
▁appeal	-3290
▁killed	-3291
▁larger	-3292
▁unlike	-3293
▁walked	-3294
▁camping	-3295
▁clothing	-3296
▁governor	-3297
▁identify	-3298
▁monument	-3299
▁extensive	-3300
▁procedure	-3301
▁absolutely	-3302
sa	-3303
edy	-3304
ker	-3305
nes	-3306
▁hi	-3307
▁ko	-3308
agon	-3309
ffic	-3310
icip	-3311
icit	-3312
uing	-3313
▁ber	-3314
house	-3315
iliar	-3316
iture	-3317
riage	-3318
▁1998	-3319
▁bron	-3320
▁capt	-3321
▁edge	-3322
▁fram	-3323
▁sept	-3324
▁thus	-3325
▁chief	-3326
▁confl	-3327
▁psych	-3328
▁spect	-3329
▁degree	-3330
▁editor	-3331
▁exclus	-3332
▁filled	-3333
▁fiscal	-3334
▁narrow	-3335
▁prison	-3336
▁anymore	-3337
▁driving	-3338
▁october	-3339
▁waiting	-3340
▁finished	-3341
▁occasion	-3342
▁producer	-3343
▁conference	-3344
▁foundation	-3345
▁appropriate	-3346
▁institution	-3347
▁communication	-3348
gu	-3349
▁bir	-3350
▁nav	-3351
▁und	-3352
▁vac	-3353
▁1997	-3354
▁insp	-3355
▁penn	-3356
▁scot	-3357
▁text	-3358
ension	-3359
▁guard	-3360
▁spain	-3361
iciency	-3362
▁actual	-3363
▁compar	-3364
▁corner	-3365
▁dallas	-3366
▁dinner	-3367
▁howard	-3368
▁supply	-3369
▁freedom	-3370
▁painted	-3371
oo	-3372
met	-3373
▁ft	-3374
▁ol	-3375
aped	-3376
ario	-3377
izen	-3378
▁cro	-3379
▁wed	-3380
▁wel	-3381
antly	-3382
▁feed	-3383
▁fest	-3384
▁hell	-3385
▁jama	-3386
ishing	-3387
▁fully	-3388
▁rapid	-3389
▁rural	-3390
▁strol	-3391
▁raised	-3392
▁married	-3393
▁baseball	-3394
▁religion	-3395
▁advantage	-3396
▁completed	-3397
▁evaluation	-3398
▁generation	-3399
▁participate	-3400
▁id	-3401
▁bob	-3402
▁len	-3403
▁mel	-3404
▁saf	-3405
icted	-3406
▁calc	-3407
▁cave	-3408
▁cool	-3409
▁kent	-3410
▁actor	-3411
▁explor	-3412
▁seated	-3413
▁showed	-3414
▁spirit	-3415
▁charles	-3416
▁hearing	-3417
▁michael	-3418
▁respond	-3419
▁traffic	-3420
▁discount	-3421
▁european	-3422
▁followed	-3423
▁unfortun	-3424
▁treatment	-3425
▁wonderful	-3426
zy	-3427
ado	-3428
iab	-3429
loc	-3430
nic	-3431
▁va	-3432
eech	-3433
fort	-3434
▁but	-3435
▁row	-3436
▁tro	-3437
antic	-3438
cious	-3439
luded	-3440
▁1995	-3441
▁flex	-3442
▁grew	-3443
▁harm	-3444
▁kong	-3445
▁draft	-3446
▁liked	-3447
▁print	-3448
▁throw	-3449
▁aspect	-3450
▁speech	-3451
▁emperor	-3452
▁release	-3453
▁younger	-3454
▁returned	-3455
▁highlight	-3456
▁september	-3457
▁contribution	-3458
▁conversation	-3459
▁representative	-3460
da	-3461
ji	-3462
urb	-3463
▁21	-3464
chan	-3465
enth	-3466
walk	-3467
▁bye	-3468
▁sor	-3469
iment	-3470
▁bath	-3471
▁budd	-3472
▁coff	-3473
▁hong	-3474
▁libr	-3475
▁nine	-3476
▁shar	-3477
▁funny	-3478
▁meant	-3479
▁slave	-3480
▁truth	-3481
▁belong	-3482
▁border	-3483
▁desert	-3484
▁forced	-3485
▁integr	-3486
▁shrine	-3487
▁writer	-3488
▁council	-3489
▁officer	-3490
▁appeared	-3491
▁substant	-3492
▁concerned	-3493
▁described	-3494
▁destroyed	-3495
▁commercial	-3496
▁electronic	-3497
▁advertising	-3498
▁application	-3499
▁improvement	-3500
ka	-3501
rid	-3502
cean	-3503
▁500	-3504
▁cup	-3505
▁die	-3506
▁hop	-3507
▁via	-3508
▁busy	-3509
▁mont	-3510
▁sund	-3511
▁vide	-3512
liance	-3513
▁accur	-3514
▁daily	-3515
▁irish	-3516
▁ocean	-3517
▁queen	-3518
▁stood	-3519
▁scient	-3520
▁dancing	-3521
▁creating	-3522
▁agreement	-3523
▁discussed	-3524
▁interview	-3525
▁primarily	-3526
▁percentage	-3527
azz	-3528
lam	-3529
lin	-3530
nel	-3531
iest	-3532
ones	-3533
▁era	-3534
▁hom	-3535
▁lit	-3536
▁now	-3537
▁omb	-3538
▁bear	-3539
▁cafe	-3540
▁cert	-3541
▁impl	-3542
▁tall	-3543
▁satis	-3544
▁score	-3545
▁affair	-3546
▁engage	-3547
▁interp	-3548
▁singer	-3549
▁slight	-3550
▁studio	-3551
▁victor	-3552
▁wooden	-3553
▁achieve	-3554
▁biggest	-3555
▁citizen	-3556
▁distrib	-3557
▁founded	-3558
▁willing	-3559
▁festival	-3560
▁transform	-3561
▁performing	-3562
▁restriction	-3563
▁surrounding	-3564
▁architecture	-3565
▁neighborhood	-3566
dp	-3567
ago	-3568
ano	-3569
▁rh	-3570
ette	-3571
▁gal	-3572
▁burn	-3573
▁cart	-3574
▁empt	-3575
▁feat	-3576
▁seek	-3577
▁shut	-3578
enture	-3579
making	-3580
oulder	-3581
▁birth	-3582
▁entry	-3583
▁fifty	-3584
▁mouth	-3585
▁agreed	-3586
▁choose	-3587
▁gentle	-3588
▁issued	-3589
▁symbol	-3590
▁enhance	-3591
▁meaning	-3592
▁portion	-3593
▁detailed	-3594
▁employer	-3595
▁politics	-3596
▁presence	-3597
▁sidewalk	-3598
▁protection	-3599
▁sufficient	-3600
lv	-3601
cip	-3602
col	-3603
ein	-3604
ena	-3605
sel	-3606
anch	-3607
rier	-3608
▁bul	-3609
arant	-3610
▁ange	-3611
▁bare	-3612
▁inqu	-3613
▁mort	-3614
entive	-3615
▁doubt	-3616
▁lunch	-3617
▁stick	-3618
▁trend	-3619
▁veget	-3620
▁bottle	-3621
▁virgin	-3622
▁balance	-3623
▁exhibit	-3624
▁january	-3625
▁teacher	-3626
▁carrying	-3627
▁category	-3628
▁conflict	-3629
▁pleasant	-3630
▁pressure	-3631
▁corporate	-3632
▁direction	-3633
▁essential	-3634
▁screening	-3635
▁discovered	-3636
reg	-3637
inal	-3638
port	-3639
site	-3640
▁alt	-3641
▁inj	-3642
▁lew	-3643
▁mac	-3644
▁obv	-3645
▁ped	-3646
▁rue	-3647
▁sar	-3648
▁sem	-3649
▁tor	-3650
erved	-3651
▁chem	-3652
▁exer	-3653
▁lawn	-3654
▁pant	-3655
porary	-3656
▁block	-3657
▁cheap	-3658
▁rough	-3659
▁thorn	-3660
issance	-3661
▁assert	-3662
▁bother	-3663
▁bright	-3664
▁joined	-3665
▁plenty	-3666
▁sunday	-3667
▁ticket	-3668
▁african	-3669
▁appears	-3670
▁leaving	-3671
▁organiz	-3672
▁serious	-3673
▁argument	-3674
▁cultural	-3675
▁distance	-3676
▁domestic	-3677
▁historic	-3678
▁determine	-3679
▁otherwise	-3680
▁technique	-3681
oh	-3682
ta	-3683
wr	-3684
▁ast	-3685
▁dry	-3686
▁ski	-3687
▁acid	-3688
▁bono	-3689
▁dish	-3690
▁kore	-3691
▁meal	-3692
▁evalu	-3693
▁noted	-3694
▁theme	-3695
▁caught	-3696
▁golden	-3697
▁launch	-3698
▁stated	-3699
▁angeles	-3700
▁england	-3701
▁focused	-3702
▁library	-3703
▁reduced	-3704
▁apparent	-3705
▁shoulder	-3706
▁competition	-3707
▁constructed	-3708
▁sho	-3709
▁tok	-3710
igned	-3711
▁anti	-3712
▁fant	-3713
▁fear	-3714
▁flat	-3715
▁iron	-3716
▁peak	-3717
▁pers	-3718
▁rand	-3719
mitted	-3720
▁dream	-3721
▁occup	-3722
▁tough	-3723
▁upper	-3724
▁video	-3725
▁attend	-3726
▁chapel	-3727
▁global	-3728
▁martin	-3729
▁patter	-3730
▁amazing	-3731
▁counsel	-3732
▁decline	-3733
▁elderly	-3734
▁guarant	-3735
▁kingdom	-3736
▁overall	-3737
▁frequent	-3738
▁incorpor	-3739
▁somebody	-3740
▁strategic	-3741
▁legislation	-3742
▁0	-3743
▁i	-3744
din	-3745
gen	-3746
iza	-3747
pal	-3748
▁22	-3749
cket	-3750
iler	-3751
rian	-3752
▁fat	-3753
▁gdp	-3754
▁haw	-3755
elled	-3756
▁chic	-3757
▁copy	-3758
▁goth	-3759
▁paul	-3760
▁rena	-3761
▁repe	-3762
▁weak	-3763
▁merch	-3764
▁photo	-3765
▁plain	-3766
▁shall	-3767
▁spoke	-3768
▁adjust	-3769
▁advice	-3770
▁commit	-3771
▁listen	-3772
▁search	-3773
▁distinct	-3774
▁division	-3775
▁drinking	-3776
▁apartment	-3777
▁performed	-3778
▁provision	-3779
▁determined	-3780
▁renaissance	-3781
enn	-3782
tch	-3783
▁fu	-3784
▁ww	-3785
etic	-3786
onto	-3787
pass	-3788
▁oil	-3789
▁rom	-3790
▁she	-3791
▁toy	-3792
▁drum	-3793
▁hurt	-3794
▁july	-3795
▁summ	-3796
▁vega	-3797
▁jesus	-3798
▁kitch	-3799
▁smith	-3800
▁flight	-3801
▁sister	-3802
▁unless	-3803
▁concent	-3804
▁possess	-3805
▁reality	-3806
▁suppose	-3807
▁accident	-3808
▁attractive	-3809
▁connection	-3810
▁photograph	-3811
▁recognized	-3812
▁engineering	-3813
▁experienced	-3814
▁congressional	-3815
now	-3816
ris	-3817
uct	-3818
▁191	-3819
▁abb	-3820
▁esc	-3821
▁hen	-3822
▁mat	-3823
▁rat	-3824
laced	-3825
▁dism	-3826
▁thom	-3827
▁util	-3828
▁wage	-3829
▁bench	-3830
▁ibiza	-3831
▁starr	-3832
▁twice	-3833
isition	-3834
▁elimin	-3835
▁jewish	-3836
▁talent	-3837
▁highest	-3838
▁leather	-3839
▁offered	-3840
▁website	-3841
▁marriage	-3842
▁november	-3843
▁outdoors	-3844
▁relevant	-3845
▁scenario	-3846
▁transfer	-3847
▁encourage	-3848
▁estimated	-3849
▁incentive	-3850
▁politician	-3851
▁entertainment	-3852
ij	-3853
ely	-3854
put	-3855
aret	-3856
oper	-3857
rugg	-3858
unte	-3859
ultan	-3860
▁cell	-3861
▁mall	-3862
▁vast	-3863
ritory	-3864
▁imper	-3865
▁metal	-3866
▁shoot	-3867
▁stake	-3868
▁worse	-3869
▁active	-3870
▁length	-3871
▁memory	-3872
▁mosque	-3873
▁normal	-3874
▁strugg	-3875
▁journey	-3876
▁massive	-3877
▁testing	-3878
▁victory	-3879
▁volunte	-3880
▁fighting	-3881
▁physical	-3882
▁solution	-3883
▁territory	-3884
af	-3885
boy	-3886
han	-3887
pan	-3888
coln	-3889
otic	-3890
rial	-3891
▁dad	-3892
▁feb	-3893
cycle	-3894
icate	-3895
place	-3896
▁ille	-3897
▁pier	-3898
▁rank	-3899
▁remo	-3900
▁scar	-3901
▁stew	-3902
▁subs	-3903
▁apply	-3904
▁carol	-3905
▁fraud	-3906
▁immig	-3907
▁negot	-3908
▁comedy	-3909
▁damage	-3910
▁benefic	-3911
▁counter	-3912
▁lincoln	-3913
▁package	-3914
▁pattern	-3915
▁strange	-3916
▁stretch	-3917
▁anywhere	-3918
▁collabor	-3919
▁egyptian	-3920
▁exchange	-3921
▁positive	-3922
▁addressed	-3923
▁surrounded	-3924
pet	-3925
▁33	-3926
▁py	-3927
lied	-3928
mosp	-3929
pted	-3930
rate	-3931
urer	-3932
▁egg	-3933
▁fit	-3934
▁hyp	-3935
▁irs	-3936
▁lux	-3937
▁pil	-3938
▁pun	-3939
ensus	-3940
isode	-3941
ublin	-3942
▁bell	-3943
▁elig	-3944
▁roof	-3945
▁surf	-3946
▁tiny	-3947
elling	-3948
lusion	-3949
▁advis	-3950
▁ahead	-3951
▁raise	-3952
▁scale	-3953
▁urban	-3954
▁waste	-3955
▁atmosp	-3956
▁dublin	-3957
▁finger	-3958
▁gothic	-3959
▁harbor	-3960
▁manner	-3961
▁safety	-3962
▁satisf	-3963
▁seeing	-3964
▁silver	-3965
▁spread	-3966
▁sultan	-3967
▁talked	-3968
▁carried	-3969
▁episode	-3970
▁liberal	-3971
▁managed	-3972
▁richard	-3973
▁visited	-3974
▁contrast	-3975
▁familiar	-3976
▁referred	-3977
▁continues	-3978
▁featuring	-3979
▁guideline	-3980
▁revolution	-3981
▁acquisition	-3982
▁effectively	-3983
▁possibility	-3984
hi	-3985
ota	-3986
sec	-3987
▁70	-3988
▁90	-3989
veal	-3990
what	-3991
wood	-3992
▁mcc	-3993
▁mob	-3994
▁nin	-3995
aging	-3996
burgh	-3997
enced	-3998
iable	-3999
iform	-4000
right	-4001
ruary	-4002
verse	-4003
▁1980	-4004
▁alle	-4005
holder	-4006
▁divid	-4007
▁empty	-4008
▁phase	-4009
▁shape	-4010
▁taste	-4011
ription	-4012
▁carved	-4013
▁contem	-4014
▁marble	-4015
▁placed	-4016
▁reveal	-4017
▁shared	-4018
▁status	-4019
▁thanks	-4020
▁unable	-4021
▁chapter	-4022
▁comfort	-4023
▁crucial	-4024
▁jumping	-4025
▁noticed	-4026
▁refused	-4027
▁succeed	-4028
▁winning	-4029
▁commonly	-4030
▁february	-4031
▁improved	-4032
▁musician	-4033
▁realized	-4034
▁sleeping	-4035
▁violence	-4036
▁landscape	-4037
▁operating	-4038
▁presented	-4039
▁professor	-4040
▁impressive	-4041
▁rulemaking	-4042
▁perspective	-4043
irm	-4044
nis	-4045
▁mc	-4046
ford	-4047
sylv	-4048
time	-4049
▁byz	-4050
▁cig	-4051
▁gay	-4052
▁pia	-4053
atest	-4054
erate	-4055
▁alex	-4056
▁blow	-4057
▁dole	-4058
▁fasc	-4059
▁forg	-4060
▁hero	-4061
▁hide	-4062
▁hole	-4063
▁pound	-4064
▁santa	-4065
▁scott	-4066
▁skate	-4067
imately	-4068
▁breath	-4069
▁byzant	-4070
▁coffee	-4071
▁fourth	-4072
▁legend	-4073
▁picked	-4074
▁worksh	-4075
▁anticip	-4076
▁austral	-4077
▁chicago	-4078
▁contact	-4079
▁selling	-4080
▁typical	-4081
▁uniform	-4082
▁accepted	-4083
▁decrease	-4084
▁greatest	-4085
▁observed	-4086
▁pennsylv	-4087
▁schedule	-4088
▁broadcast	-4089
▁dangerous	-4090
▁secretary	-4091
▁importance	-4092
▁manufacturing	-4093
▁unfortunately	-4094
ev	-4095
berg	-4096
raid	-4097
▁tol	-4098
▁wit	-4099
adian	-4100
itute	-4101
ondon	-4102
rofit	-4103
▁1992	-4104
▁2010	-4105
▁corp	-4106
▁hone	-4107
illing	-4108
▁bound	-4109
▁canal	-4110
▁fruit	-4111
▁genre	-4112
▁guest	-4113
▁honor	-4114
▁stren	-4115
▁surpl	-4116
▁illust	-4117
▁london	-4118
▁mexico	-4119
▁perman	-4120
▁sexual	-4121
▁termin	-4122
▁arrived	-4123
▁housing	-4124
▁proceed	-4125
▁accurate	-4126
▁perfectly	-4127
▁supported	-4128
▁regardless	-4129
▁pennsylvania	-4130
▁organizational	-4131
gd	-4132
ten	-4133
soft	-4134
some	-4135
▁dig	-4136
▁upd	-4137
ipped	-4138
while	-4139
▁coat	-4140
▁doro	-4141
▁gift	-4142
▁holy	-4143
▁jury	-4144
▁meat	-4145
▁salt	-4146
▁virt	-4147
▁welf	-4148
▁delay	-4149
▁ferry	-4150
▁giant	-4151
▁peter	-4152
▁afraid	-4153
▁branch	-4154
▁burden	-4155
▁buying	-4156
▁centre	-4157
▁daniel	-4158
▁device	-4159
▁discus	-4160
▁lesson	-4161
▁mainly	-4162
▁proper	-4163
▁signed	-4164
▁drawing	-4165
▁finance	-4166
▁kentuck	-4167
▁kitchen	-4168
▁serving	-4169
▁surplus	-4170
▁welfare	-4171
▁exercise	-4172
▁negative	-4173
▁powerful	-4174
▁software	-4175
▁somewhat	-4176
▁microsoft	-4177
▁apparently	-4178
▁democratic	-4179
▁exclusively	-4180
ola	-4181
sey	-4182
ulf	-4183
▁26	-4184
aker	-4185
oned	-4186
ront	-4187
▁atl	-4188
▁lat	-4189
▁syn	-4190
▁www	-4191
amber	-4192
anged	-4193
astic	-4194
isted	-4195
oking	-4196
▁auth	-4197
▁rome	-4198
▁rose	-4199
▁turk	-4200
▁vand	-4201
▁wave	-4202
ifying	-4203
▁dozen	-4204
▁hindu	-4205
▁islam	-4206
▁speed	-4207
▁steel	-4208
▁overse	-4209
▁compete	-4210
▁explore	-4211
▁musical	-4212
▁predict	-4213
▁protest	-4214
▁putting	-4215
▁sharing	-4216
▁approxim	-4217
▁selected	-4218
▁suddenly	-4219
▁conducted	-4220
▁selection	-4221
▁efficiency	-4222
▁leadership	-4223
▁destination	-4224
▁flexibility	-4225
▁substantial	-4226
bon	-4227
com	-4228
eel	-4229
ida	-4230
rig	-4231
wer	-4232
zza	-4233
▁23	-4234
▁pm	-4235
burg	-4236
case	-4237
ease	-4238
olar	-4239
▁ack	-4240
ading	-4241
ellig	-4242
ville	-4243
▁acre	-4244
▁bicy	-4245
▁diss	-4246
▁fool	-4247
▁pair	-4248
▁plat	-4249
▁serf	-4250
▁shoe	-4251
▁thor	-4252
▁unus	-4253
▁newsw	-4254
▁pover	-4255
▁recip	-4256
▁scout	-4257
▁susan	-4258
▁upset	-4259
▁worst	-4260
▁africa	-4261
▁bottom	-4262
▁circum	-4263
▁compla	-4264
▁depend	-4265
▁fortun	-4266
▁obtain	-4267
▁reader	-4268
▁clearly	-4269
▁command	-4270
▁compens	-4271
▁disease	-4272
▁entered	-4273
▁inspect	-4274
▁privacy	-4275
▁carolina	-4276
▁intellig	-4277
▁investig	-4278
▁strength	-4279
▁thorough	-4280
▁pollution	-4281
▁technical	-4282
▁assumption	-4283
▁definition	-4284
▁ultimately	-4285
▁consistently	-4286
▁approximately	-4287
▁investigation	-4288
▁understanding	-4289
my	-4290
ald	-4291
bby	-4292
eal	-4293
eld	-4294
emy	-4295
raw	-4296
rom	-4297
icul	-4298
sman	-4299
▁189	-4300
▁ath	-4301
▁bol	-4302
▁odd	-4303
▁sin	-4304
▁sup	-4305
▁una	-4306
annel	-4307
stein	-4308
▁eleg	-4309
▁flor	-4310
▁meas	-4311
▁onto	-4312
▁plus	-4313
▁maxim	-4314
mission	-4315
ologist	-4316
ovation	-4317
▁easier	-4318
▁madrid	-4319
▁online	-4320
▁piazza	-4321
▁priest	-4322
▁prince	-4323
▁sample	-4324
▁accompl	-4325
▁channel	-4326
▁claimed	-4327
▁consequ	-4328
▁consult	-4329
▁crowded	-4330
▁highway	-4331
▁poverty	-4332
▁scholar	-4333
▁subsequ	-4334
▁worried	-4335
▁becoming	-4336
▁changing	-4337
▁coverage	-4338
▁guidance	-4339
▁newsweek	-4340
▁overlook	-4341
▁replaced	-4342
▁vacation	-4343
▁recipient	-4344
▁comprehensive	-4345
▁implementation	-4346
urd	-4347
▁27	-4348
▁et	-4349
adel	-4350
ader	-4351
aked	-4352
alty	-4353
ingu	-4354
▁lab	-4355
▁tig	-4356
acity	-4357
insky	-4358
▁2016	-4359
▁calm	-4360
▁emph	-4361
▁glad	-4362
▁gore	-4363
▁heat	-4364
▁moon	-4365
▁wing	-4366
ighter	-4367
nament	-4368
▁blank	-4369
▁blond	-4370
▁broke	-4371
▁cheer	-4372
▁cliff	-4373
▁faced	-4374
▁grown	-4375
▁loved	-4376
▁satur	-4377
▁bronze	-4378
▁napole	-4379
▁please	-4380
▁reward	-4381
▁russia	-4382
iability	-4383
▁academy	-4384
▁bicycle	-4385
▁defined	-4386
▁happens	-4387
▁affected	-4388
▁medicare	-4389
▁prepared	-4390
▁relatively	-4391
arm	-4392
ave	-4393
ipe	-4394
nie	-4395
adow	-4396
anta	-4397
east	-4398
race	-4399
road	-4400
tery	-4401
uine	-4402
agger	-4403
aming	-4404
arian	-4405
aster	-4406
uracy	-4407
▁1994	-4408
▁bass	-4409
▁core	-4410
▁parl	-4411
ricult	-4412
▁agent	-4413
▁alloc	-4414
▁conqu	-4415
▁fixed	-4416
▁forth	-4417
▁prime	-4418
▁prosp	-4419
▁scand	-4420
▁stair	-4421
▁thick	-4422
▁carter	-4423
▁disney	-4424
▁encoun	-4425
▁explan	-4426
▁poland	-4427
▁prohib	-4428
▁sought	-4429
▁subsid	-4430
▁helping	-4431
▁israeli	-4432
▁madeira	-4433
▁neither	-4434
▁singing	-4435
▁agricult	-4436
▁approval	-4437
▁extended	-4438
▁interior	-4439
▁napoleon	-4440
▁reducing	-4441
▁regional	-4442
▁scotland	-4443
▁classical	-4444
▁committed	-4445
▁volunteer	-4446
▁consistent	-4447
▁industrial	-4448
▁supporting	-4449
mas	-4450
ues	-4451
emey	-4452
raft	-4453
▁lee	-4454
▁bull	-4455
▁hunt	-4456
▁join	-4457
▁merc	-4458
▁pine	-4459
▁vice	-4460
emeyer	-4461
stance	-4462
▁abuse	-4463
▁advoc	-4464
▁cabin	-4465
▁cerem	-4466
▁decla	-4467
▁enemy	-4468
▁laugh	-4469
▁moral	-4470
▁quant	-4471
ternoon	-4472
▁dealer	-4473
▁debate	-4474
▁depict	-4475
▁disclo	-4476
▁monica	-4477
▁oldest	-4478
▁promot	-4479
▁scared	-4480
▁thomas	-4481
atically	-4482
▁engaged	-4483
▁jamaica	-4484
▁learned	-4485
▁seeking	-4486
▁tourism	-4487
▁abortion	-4488
▁canadian	-4489
▁feedback	-4490
▁opposite	-4491
▁possibly	-4492
▁provider	-4493
▁afternoon	-4494
▁interpret	-4495
▁reference	-4496
▁uncertain	-4497
▁atmosphere	-4498
▁conclusion	-4499
▁identified	-4500
▁introduced	-4501
▁settlement	-4502
▁vandemeyer	-4503
▁challenging	-4504
▁circumstance	-4505
▁specifically	-4506
box	-4507
kin	-4508
oty	-4509
rad	-4510
▁35	-4511
laim	-4512
▁dod	-4513
▁ens	-4514
▁mah	-4515
▁tun	-4516
iated	-4517
olved	-4518
▁jane	-4519
▁rope	-4520
▁tent	-4521
ointed	-4522
▁habit	-4523
▁minim	-4524
▁panel	-4525
▁proud	-4526
▁trail	-4527
inburgh	-4528
▁archae	-4529
▁beauty	-4530
▁emphas	-4531
▁facade	-4532
▁flying	-4533
▁renown	-4534
▁senate	-4535
▁adopted	-4536
▁chamber	-4537
▁failure	-4538
▁fifteen	-4539
▁genuine	-4540
▁mandate	-4541
▁totally	-4542
▁turning	-4543
▁capacity	-4544
▁learning	-4545
▁restored	-4546
▁gentleman	-4547
▁occasionally	-4548
▁appropriation	-4549
▁accountability	-4550
bul	-4551
ria	-4552
usi	-4553
▁29	-4554
▁ox	-4555
ilty	-4556
ixon	-4557
uous	-4558
▁ash	-4559
▁ire	-4560
▁nur	-4561
▁1970	-4562
▁2004	-4563
▁chos	-4564
▁deem	-4565
▁desk	-4566
▁drop	-4567
▁enth	-4568
writer	-4569
▁bunch	-4570
▁chain	-4571
▁chick	-4572
▁colon	-4573
▁faith	-4574
▁nixon	-4575
▁opera	-4576
▁owned	-4577
▁prize	-4578
▁resem	-4579
▁ruler	-4580
▁sixty	-4581
▁storm	-4582
▁theat	-4583
▁usual	-4584
▁voter	-4585
▁columb	-4586
▁conven	-4587
▁cooper	-4588
▁farmer	-4589
▁promin	-4590
▁relief	-4591
▁remind	-4592
▁secure	-4593
▁widely	-4594
entially	-4595
▁contest	-4596
▁hunting	-4597
▁johnson	-4598
▁penalty	-4599
▁realize	-4600
▁smiling	-4601
▁spectac	-4602
▁tonight	-4603
▁underst	-4604
▁occurred	-4605
▁slightly	-4606
▁edinburgh	-4607
▁appearance	-4608
▁appreciate	-4609
▁compliance	-4610
▁journalist	-4611
▁tournament	-4612
▁productivity	-4613
▁administrator	-4614
gl	-4615
to	-4616
yo	-4617
aly	-4618
ato	-4619
oma	-4620
uge	-4621
usc	-4622
▁28	-4623
▁iv	-4624
▁om	-4625
gain	-4626
isan	-4627
izes	-4628
life	-4629
yard	-4630
▁cav	-4631
▁cin	-4632
▁hid	-4633
▁ken	-4634
▁kil	-4635
▁log	-4636
▁obl	-4637
eland	-4638
▁2015	-4639
▁beer	-4640
▁cris	-4641
▁pray	-4642
▁stup	-4643
astery	-4644
▁aband	-4645
▁alter	-4646
▁chart	-4647
▁decre	-4648
▁domin	-4649
▁fount	-4650
▁franc	-4651
▁rider	-4652
▁shock	-4653
▁sugar	-4654
ception	-4655
iveness	-4656
▁acknow	-4657
▁arrest	-4658
▁broken	-4659
▁census	-4660
▁detect	-4661
▁facing	-4662
▁funded	-4663
▁gotten	-4664
▁guilty	-4665
▁stream	-4666
▁factory	-4667
▁monitor	-4668
▁steward	-4669
▁eligible	-4670
▁fountain	-4671
▁gathered	-4672
▁horrible	-4673
▁renowned	-4674
▁surprise	-4675
▁treasure	-4676
▁intention	-4677
▁monastery	-4678
▁mortality	-4679
▁physician	-4680
▁combination	-4681
▁electricity	-4682
▁documentation	-4683
uk	-4684
ipa	-4685
ita	-4686
mon	-4687
off	-4688
the	-4689
▁80	-4690
fall	-4691
oing	-4692
ript	-4693
▁fur	-4694
▁pac	-4695
ieval	-4696
osing	-4697
ulate	-4698
▁2008	-4699
▁brad	-4700
▁bust	-4701
▁clar	-4702
▁rent	-4703
▁send	-4704
▁soph	-4705
enever	-4706
insula	-4707
▁analy	-4708
▁drama	-4709
▁fewer	-4710
▁henry	-4711
▁jones	-4712
▁memor	-4713
▁reput	-4714
▁shift	-4715
▁smart	-4716
▁boiler	-4717
▁boring	-4718
▁canada	-4719
▁chosen	-4720
▁expend	-4721
▁export	-4722
▁finish	-4723
▁indoor	-4724
▁resist	-4725
▁smiled	-4726
▁solely	-4727
▁splend	-4728
▁strike	-4729
▁tennis	-4730
▁concert	-4731
▁mistake	-4732
▁trading	-4733
▁annually	-4734
▁approved	-4735
▁colorado	-4736
▁declined	-4737
▁employed	-4738
▁gambling	-4739
▁incident	-4740
▁involves	-4741
▁magnific	-4742
▁medieval	-4743
▁merchant	-4744
▁priority	-4745
▁register	-4746
▁visiting	-4747
▁whenever	-4748
▁alongside	-4749
▁announced	-4750
▁christmas	-4751
▁delivered	-4752
▁peninsula	-4753
▁everywhere	-4754
▁represented	-4755
▁installation	-4756
iy	-4757
kn	-4758
fri	-4759
its	-4760
lym	-4761
uit	-4762
▁ah	-4763
▁gp	-4764
racy	-4765
▁all	-4766
▁gon	-4767
▁joy	-4768
▁map	-4769
icing	-4770
water	-4771
▁code	-4772
▁cuba	-4773
▁emot	-4774
▁gang	-4775
▁kick	-4776
▁pill	-4777
▁ruin	-4778
▁viet	-4779
arette	-4780
coming	-4781
iament	-4782
unning	-4783
▁aimed	-4784
▁error	-4785
▁gross	-4786
▁plane	-4787
▁sanct	-4788
▁uncon	-4789
▁valid	-4790
itation	-4791
▁allows	-4792
▁asking	-4793
▁boston	-4794
▁fairly	-4795
▁formal	-4796
▁gained	-4797
▁reject	-4798
▁strict	-4799
▁transl	-4800
▁yester	-4801
▁fiction	-4802
▁railway	-4803
▁scandal	-4804
▁telling	-4805
▁unified	-4806
▁witness	-4807
▁acquired	-4808
▁competed	-4809
▁consists	-4810
▁defeated	-4811
▁engineer	-4812
▁friendly	-4813
▁handling	-4814
▁lawrence	-4815
▁cigarette	-4816
▁communist	-4817
▁yesterday	-4818
▁parliament	-4819
▁reasonable	-4820
▁remarkable	-4821
▁expectation	-4822
▁implemented	-4823
▁additionally	-4824
▁contemporary	-4825
▁independence	-4826
12	-4827
va	-4828
aic	-4829
eff	-4830
exp	-4831
rap	-4832
▁ow	-4833
▁oz	-4834
alle	-4835
elve	-4836
iana	-4837
well	-4838
▁asc	-4839
▁fgd	-4840
▁fro	-4841
▁ira	-4842
▁pig	-4843
▁tie	-4844
▁uns	-4845
▁wil	-4846
adays	-4847
enger	-4848
istan	-4849
▁barb	-4850
▁earn	-4851
▁furn	-4852
▁hung	-4853
▁poet	-4854
▁pose	-4855
▁thin	-4856
icious	-4857
▁depos	-4858
▁flood	-4859
▁forty	-4860
▁grace	-4861
▁ideal	-4862
▁ought	-4863
▁trium	-4864
▁wrest	-4865
ishment	-4866
▁buried	-4867
▁desire	-4868
▁driver	-4869
▁ethnic	-4870
▁expans	-4871
▁finest	-4872
▁incred	-4873
▁invent	-4874
▁manual	-4875
▁poison	-4876
▁portug	-4877
▁random	-4878
▁rising	-4879
▁slowly	-4880
▁twelve	-4881
▁anybody	-4882
▁britain	-4883
▁costume	-4884
▁depends	-4885
▁deserve	-4886
▁devoted	-4887
▁enthusi	-4888
▁illegal	-4889
▁imagine	-4890
▁keeping	-4891
▁observe	-4892
▁opening	-4893
▁showing	-4894
▁creation	-4895
▁determin	-4896
▁minister	-4897
▁nowadays	-4898
▁saturday	-4899
▁expressed	-4900
▁accessible	-4901
▁exhibition	-4902
▁motorcycle	-4903
▁profession	-4904
▁researcher	-4905
▁skateboard	-4906
▁expenditure	-4907
▁explanation	-4908
▁presidential	-4909
ari	-4910
gia	-4911
hor	-4912
lah	-4913
pse	-4914
ses	-4915
tle	-4916
zar	-4917
▁75	-4918
alia	-4919
cker	-4920
illy	-4921
itan	-4922
lock	-4923
ogue	-4924
orth	-4925
rane	-4926
zing	-4927
▁beg	-4928
▁iii	-4929
▁inh	-4930
▁jim	-4931
▁mir	-4932
▁wet	-4933
stone	-4934
usion	-4935
▁1960	-4936
▁bern	-4937
▁crop	-4938
▁dirt	-4939
▁flag	-4940
▁jazz	-4941
▁leon	-4942
▁lind	-4943
▁rebu	-4944
▁stad	-4945
▁cream	-4946
▁disag	-4947
▁intel	-4948
▁jewel	-4949
▁paint	-4950
▁shook	-4951
▁simpl	-4952
▁troop	-4953
▁applic	-4954
▁attrib	-4955
▁extent	-4956
▁fundam	-4957
▁handed	-4958
▁purple	-4959
▁recall	-4960
▁temper	-4961
▁victim	-4962
▁advance	-4963
▁airport	-4964
▁bargain	-4965
▁carrier	-4966
▁chicken	-4967
▁ireland	-4968
▁portray	-4969
▁prepare	-4970
▁triumph	-4971
▁unusual	-4972
▁accuracy	-4973
▁allowing	-4974
▁chairman	-4975
▁chemical	-4976
▁colorful	-4977
▁enjoying	-4978
▁maryland	-4979
▁sentence	-4980
▁virginia	-4981
▁adventure	-4982
▁allowance	-4983
▁recording	-4984
▁requested	-4985
▁statewide	-4986
▁vegetable	-4987
▁beneficial	-4988
▁comparison	-4989
▁expression	-4990
▁reputation	-4991
▁reliability	-4992
▁championship	-4993
▁administrative	-4994
▁interpretation	-4995
fa	-4996
ais	-4997
ios	-4998
iro	-4999
uis	-5000
zed	-5001
▁24	-5002
▁48	-5003
▁ic	-5004
ache	-5005
cery	-5006
orce	-5007
▁ade	-5008
▁alf	-5009
▁kar	-5010
▁pad	-5011
▁pow	-5012
▁rob	-5013
▁unp	-5014
lying	-5015
ommod	-5016
ordin	-5017
rison	-5018
ssion	-5019
uable	-5020
▁1993	-5021
▁dust	-5022
▁forb	-5023
▁pull	-5024
▁sacr	-5025
▁vary	-5026
▁vine	-5027
▁cable	-5028
▁debut	-5029
▁diver	-5030
▁innoc	-5031
▁magic	-5032
▁pursu	-5033
▁saved	-5034
▁smile	-5035
▁wheel	-5036
▁withd	-5037
▁conver	-5038
▁friday	-5039
▁missed	-5040
▁planet	-5041
▁pulled	-5042
▁runner	-5043
▁terror	-5044
▁venice	-5045
▁aggress	-5046
▁authent	-5047
▁enforce	-5048
▁germany	-5049
▁greatly	-5050
▁plastic	-5051
▁striped	-5052
▁theatre	-5053
▁accommod	-5054
▁charming	-5055
▁investor	-5056
▁lewinsky	-5057
▁medicine	-5058
▁teaching	-5059
▁byzantine	-5060
▁confident	-5061
▁diversity	-5062
▁explained	-5063
▁designated	-5064
▁developing	-5065
▁processing	-5066
▁competitive	-5067
▁stewardship	-5068
▁transportation	-5069
sm	-5070
ona	-5071
ancy	-5072
asty	-5073
ched	-5074
lete	-5075
onic	-5076
rich	-5077
▁188	-5078
▁300	-5079
▁ada	-5080
▁amb	-5081
▁anx	-5082
▁fal	-5083
▁jac	-5084
▁mud	-5085
▁pic	-5086
▁rig	-5087
▁sav	-5088
annon	-5089
guard	-5090
iance	-5091
immer	-5092
▁1950	-5093
▁asia	-5094
▁bout	-5095
▁clin	-5096
▁isol	-5097
▁ring	-5098
▁sequ	-5099
▁tier	-5100
▁wolf	-5101
urally	-5102
▁alive	-5103
▁buddh	-5104
▁drawn	-5105
▁fifth	-5106
▁hired	-5107
▁noise	-5108
▁pitch	-5109
▁smoke	-5110
▁youth	-5111
uration	-5112
▁assume	-5113
▁denied	-5114
▁earned	-5115
▁height	-5116
▁jersey	-5117
▁losing	-5118
▁mechan	-5119
▁mosaic	-5120
▁orient	-5121
▁outfit	-5122
▁refers	-5123
▁retain	-5124
▁delight	-5125
▁explain	-5126
▁healthy	-5127
▁holiday	-5128
▁ordered	-5129
▁precise	-5130
▁replace	-5131
▁dramatic	-5132
▁imperial	-5133
▁peaceful	-5134
▁platform	-5135
▁scottish	-5136
▁traveler	-5137
▁valuable	-5138
▁collected	-5139
▁enjoyable	-5140
▁guarantee	-5141
▁prominent	-5142
▁recognize	-5143
▁traveling	-5144
▁difficulty	-5145
▁scientific	-5146
▁demonstration	-5147
▁establishment	-5148
ko	-5149
yn	-5150
ipp	-5151
orb	-5152
▁ny	-5153
agan	-5154
igan	-5155
lymp	-5156
▁400	-5157
▁pit	-5158
▁rum	-5159
ached	-5160
aling	-5161
craft	-5162
point	-5163
▁anse	-5164
▁bond	-5165
▁coal	-5166
▁crus	-5167
▁fond	-5168
▁hire	-5169
▁lean	-5170
▁ohio	-5171
▁pope	-5172
▁purs	-5173
▁seed	-5174
▁sust	-5175
▁tale	-5176
▁ward	-5177
ocracy	-5178
▁brain	-5179
▁chest	-5180
▁click	-5181
▁coach	-5182
▁frust	-5183
▁grade	-5184
▁joint	-5185
▁mixed	-5186
▁olymp	-5187
▁plate	-5188
▁sorry	-5189
▁swing	-5190
▁trump	-5191
▁uncle	-5192
attered	-5193
ography	-5194
ression	-5195
▁compos	-5196
▁crisis	-5197
▁cruise	-5198
▁dining	-5199
▁forget	-5200
▁merely	-5201
▁rarely	-5202
▁voting	-5203
▁becomes	-5204
▁besides	-5205
▁careful	-5206
▁cutting	-5207
▁dislike	-5208
▁edition	-5209
▁elected	-5210
▁examine	-5211
▁interim	-5212
▁jackson	-5213
▁operate	-5214
▁raising	-5215
▁retired	-5216
▁constant	-5217
▁featured	-5218
▁fortress	-5219
▁identity	-5220
▁inspired	-5221
▁invasion	-5222
▁managing	-5223
▁romantic	-5224
▁basically	-5225
▁describes	-5226
▁indicated	-5227
▁permanent	-5228
▁signature	-5229
▁southwest	-5230
▁substance	-5231
▁microphone	-5232
▁represents	-5233
▁understood	-5234
▁achievement	-5235
▁countryside	-5236
▁fundamental	-5237
▁magnificent	-5238
▁increasingly	-5239
che	-5240
ext	-5241
oly	-5242
rep	-5243
sov	-5244
uce	-5245
vin	-5246
vis	-5247
acle	-5248
book	-5249
chal	-5250
pher	-5251
rior	-5252
sion	-5253
▁bos	-5254
▁lod	-5255
▁mun	-5256
▁tan	-5257
▁tip	-5258
▁vib	-5259
ework	-5260
ifice	-5261
ifies	-5262
imony	-5263
umber	-5264
▁2007	-5265
▁coin	-5266
▁dear	-5267
▁dial	-5268
▁joke	-5269
▁loud	-5270
▁nile	-5271
▁nipa	-5272
▁nonp	-5273
▁nurs	-5274
▁shel	-5275
▁sick	-5276
asting	-5277
rating	-5278
ursday	-5279
vation	-5280
▁amend	-5281
▁assem	-5282
▁awful	-5283
▁breed	-5284
▁cloud	-5285
▁flour	-5286
▁hersh	-5287
▁label	-5288
▁nurse	-5289
▁revol	-5290
▁steph	-5291
▁sweet	-5292
▁bigger	-5293
▁depart	-5294
▁estate	-5295
▁fought	-5296
▁latest	-5297
▁rating	-5298
▁shaped	-5299
▁winner	-5300
▁classic	-5301
▁closely	-5302
▁disappe	-5303
▁divided	-5304
▁dropped	-5305
▁ignored	-5306
▁largely	-5307
▁mexican	-5308
▁turkish	-5309
▁warrior	-5310
▁academic	-5311
▁attended	-5312
▁graduate	-5313
▁measured	-5314
▁remarked	-5315
▁reporter	-5316
▁splendid	-5317
▁suggests	-5318
▁thursday	-5319
▁component	-5320
▁contained	-5321
▁fantastic	-5322
▁framework	-5323
▁gathering	-5324
▁northwest	-5325
▁remaining	-5326
▁residence	-5327
▁competitor	-5328
▁literature	-5329
▁comfortable	-5330
▁consequence	-5331
▁spectacular	-5332
▁constitution	-5333
40	-5334
yl	-5335
awa	-5336
isb	-5337
ito	-5338
nth	-5339
oid	-5340
wan	-5341
▁45	-5342
▁ax	-5343
▁ec	-5344
oked	-5345
▁arc	-5346
▁bou	-5347
▁cha	-5348
▁oak	-5349
▁umb	-5350
known	-5351
sight	-5352
▁2014	-5353
▁bowl	-5354
▁buck	-5355
▁mini	-5356
▁myth	-5357
▁palm	-5358
▁proc	-5359
▁vest	-5360
▁whis	-5361
active	-5362
ancing	-5363
endish	-5364
erning	-5365
ranean	-5366
ternal	-5367
▁after	-5368
▁contr	-5369
▁cycle	-5370
▁derry	-5371
▁ghost	-5372
▁latin	-5373
▁lying	-5374
▁motiv	-5375
▁olive	-5376
▁pride	-5377
▁recon	-5378
▁slope	-5379
inating	-5380
▁analyz	-5381
▁assass	-5382
▁brings	-5383
▁cowboy	-5384
▁hardly	-5385
▁intrig	-5386
▁korean	-5387
▁lively	-5388
▁repair	-5389
ographer	-5390
▁applied	-5391
▁arrange	-5392
▁assumed	-5393
▁climate	-5394
▁francis	-5395
▁grocery	-5396
▁killing	-5397
▁passing	-5398
▁pointed	-5399
▁stadium	-5400
▁visible	-5401
▁wealthy	-5402
▁welcome	-5403
▁worship	-5404
▁achieved	-5405
▁bankrupt	-5406
▁distingu	-5407
▁judgment	-5408
▁cavendish	-5409
▁concluded	-5410
▁elsewhere	-5411
▁indicates	-5412
▁intellect	-5413
▁preferred	-5414
▁surprised	-5415
▁testimony	-5416
▁employment	-5417
▁proportion	-5418
▁intelligence	-5419
aka	-5420
sen	-5421
▁ou	-5422
eing	-5423
emor	-5424
olic	-5425
rete	-5426
rose	-5427
sing	-5428
vard	-5429
▁202	-5430
▁cot	-5431
▁lip	-5432
▁pir	-5433
▁ray	-5434
ighth	-5435
orrow	-5436
ropol	-5437
▁cock	-5438
▁dome	-5439
▁leap	-5440
▁lion	-5441
▁lord	-5442
▁mask	-5443
▁more	-5444
▁nose	-5445
▁sung	-5446
▁twin	-5447
lahoma	-5448
▁abbey	-5449
▁adequ	-5450
▁cinem	-5451
▁demol	-5452
▁graph	-5453
▁meter	-5454
▁newly	-5455
▁ozone	-5456
ropical	-5457
▁albert	-5458
▁avenue	-5459
▁carpet	-5460
▁casino	-5461
▁combat	-5462
▁danger	-5463
▁defeat	-5464
▁horror	-5465
▁mailer	-5466
▁pocket	-5467
▁proven	-5468
▁salary	-5469
▁severe	-5470
▁avoided	-5471
▁capture	-5472
▁conclud	-5473
▁cooking	-5474
▁elegant	-5475
▁evident	-5476
▁florida	-5477
▁insight	-5478
▁mercury	-5479
▁recover	-5480
▁supreme	-5481
▁unaware	-5482
▁unknown	-5483
▁aircraft	-5484
▁climbing	-5485
▁composed	-5486
▁covering	-5487
▁creature	-5488
▁launched	-5489
▁oklahoma	-5490
▁opponent	-5491
▁properly	-5492
▁reaction	-5493
▁tomorrow	-5494
▁economist	-5495
▁personnel	-5496
▁supporter	-5497
▁celebrated	-5498
▁concerning	-5499
▁considering	-5500
▁consumption	-5501
▁compensation	-5502
▁presentation	-5503
▁concentration	-5504
▁consideration	-5505
▁characteristic	-5506
asy	-5507
ete	-5508
eur	-5509
gar	-5510
iot	-5511
sco	-5512
war	-5513
▁os	-5514
cher	-5515
fish	-5516
heim	-5517
iker	-5518
ouri	-5519
stal	-5520
whel	-5521
▁cub	-5522
▁dil	-5523
▁gap	-5524
▁haz	-5525
▁nit	-5526
▁spa	-5527
▁tel	-5528
▁vin	-5529
front	-5530
nthia	-5531
renna	-5532
tyard	-5533
▁cuis	-5534
▁evil	-5535
▁file	-5536
▁gran	-5537
▁jord	-5538
▁math	-5539
▁myst	-5540
▁neat	-5541
▁pole	-5542
friend	-5543
rovers	-5544
▁anton	-5545
▁apart	-5546
▁beard	-5547
▁brick	-5548
▁compl	-5549
▁cried	-5550
▁dutch	-5551
▁integ	-5552
▁kosov	-5553
▁lined	-5554
▁ordin	-5555
▁pream	-5556
▁sharp	-5557
▁treas	-5558
▁trick	-5559
▁venue	-5560
▁veter	-5561
▁where	-5562
eration	-5563
iterion	-5564
ulating	-5565
▁marked	-5566
▁racing	-5567
▁regist	-5568
▁retail	-5569
▁shadow	-5570
▁silent	-5571
▁stared	-5572
▁turkey	-5573
▁vrenna	-5574
▁alright	-5575
▁artwork	-5576
▁capable	-5577
▁coastal	-5578
▁context	-5579
▁cynthia	-5580
▁falling	-5581
▁georgia	-5582
▁illness	-5583
▁knowing	-5584
▁scenery	-5585
▁session	-5586
▁settled	-5587
▁staying	-5588
▁balanced	-5589
▁bringing	-5590
▁improper	-5591
▁repeated	-5592
▁republic	-5593
▁teenager	-5594
▁attempted	-5595
▁carefully	-5596
▁courtyard	-5597
▁criterion	-5598
▁meanwhile	-5599
▁preserved	-5600
▁seriously	-5601
▁similarly	-5602
▁fascinating	-5603
▁implication	-5604
ax	-5605
nn	-5606
oto	-5607
uer	-5608
ault	-5609
gged	-5610
greg	-5611
ilit	-5612
rase	-5613
rass	-5614
▁bug	-5615
▁ceo	-5616
▁lic	-5617
▁mut	-5618
▁ong	-5619
▁tea	-5620
▁unh	-5621
▁wow	-5622
ifted	-5623
odded	-5624
oring	-5625
piece	-5626
▁2009	-5627
▁anth	-5628
▁bart	-5629
▁boot	-5630
▁impe	-5631
▁kiss	-5632
▁monk	-5633
▁rang	-5634
▁rein	-5635
▁vend	-5636
ipping	-5637
irline	-5638
ometer	-5639
▁angry	-5640
▁eager	-5641
▁enorm	-5642
▁forum	-5643
▁fried	-5644
▁lucky	-5645
▁mayor	-5646
▁reign	-5647
▁steve	-5648
▁strip	-5649
▁tokyo	-5650
▁tribe	-5651
▁venet	-5652
iration	-5653
itative	-5654
▁borrow	-5655
▁convin	-5656
▁eighty	-5657
▁excess	-5658
▁greece	-5659
▁ignore	-5660
▁latter	-5661
▁listed	-5662
▁mental	-5663
▁nodded	-5664
▁parade	-5665
▁phrase	-5666
▁stroll	-5667
▁weekly	-5668
▁charged	-5669
▁cuisine	-5670
▁deficit	-5671
▁dismiss	-5672
▁earning	-5673
▁equally	-5674
▁obvious	-5675
▁ongoing	-5676
▁rapidly	-5677
▁roughly	-5678
▁routine	-5679
▁smoking	-5680
▁statute	-5681
▁subsidy	-5682
▁vibrant	-5683
ittington	-5684
▁ceremony	-5685
▁commemor	-5686
▁creative	-5687
▁declared	-5688
▁examined	-5689
▁metropol	-5690
▁missouri	-5691
▁preamble	-5692
▁prisoner	-5693
▁resulted	-5694
▁superior	-5695
▁withdraw	-5696
▁achieving	-5697
▁alexander	-5698
▁australia	-5699
▁authentic	-5700
▁colleague	-5701
▁involving	-5702
▁listening	-5703
▁purchased	-5704
▁requiring	-5705
▁sensitive	-5706
▁somewhere	-5707
▁addressing	-5708
▁commitment	-5709
▁controvers	-5710
▁encouraged	-5711
▁engagement	-5712
▁experiment	-5713
▁recommended	-5714
▁transaction	-5715
▁whittington	-5716
▁modification	-5717
▁certification	-5718
bi	-5719
fo	-5720
mn	-5721
sk	-5722
law	-5723
oir	-5724
rey	-5725
▁31	-5726
▁36	-5727
▁nh	-5728
▁uk	-5729
anda	-5730
bble	-5731
bean	-5732
card	-5733
kins	-5734
ocol	-5735
ooth	-5736
rain	-5737
roll	-5738
viet	-5739
▁150	-5740
▁190	-5741
▁fel	-5742
▁hou	-5743
▁lam	-5744
▁nox	-5745
▁org	-5746
▁pub	-5747
▁rit	-5748
▁spr	-5749
▁voc	-5750
rates	-5751
uting	-5752
▁2011	-5753
▁arth	-5754
▁jail	-5755
▁jeff	-5756
▁mike	-5757
▁neck	-5758
▁obsc	-5759
▁plot	-5760
▁pump	-5761
▁serb	-5762
▁taxi	-5763
enance	-5764
ensity	-5765
spread	-5766
▁accum	-5767
▁brill	-5768
▁conce	-5769
▁expos	-5770
▁frame	-5771
▁harsh	-5772
▁humor	-5773
▁rival	-5774
▁sunny	-5775
▁swift	-5776
▁tired	-5777
▁trace	-5778
▁alfred	-5779
▁arrive	-5780
▁barely	-5781
▁defend	-5782
▁elabor	-5783
▁hidden	-5784
▁illino	-5785
▁jordan	-5786
▁michel	-5787
▁modest	-5788
▁roller	-5789
▁surely	-5790
▁airline	-5791
▁atlanta	-5792
▁damaged	-5793
▁funchal	-5794
▁granted	-5795
▁helpful	-5796
▁houston	-5797
▁leonard	-5798
▁mediter	-5799
▁missing	-5800
▁passage	-5801
▁seventh	-5802
▁seventy	-5803
▁studied	-5804
▁treated	-5805
▁veteran	-5806
▁advanced	-5807
▁expanded	-5808
▁utilized	-5809
▁associate	-5810
▁exception	-5811
▁mandatory	-5812
▁obviously	-5813
▁preparing	-5814
▁sanctuary	-5815
▁submitted	-5816
▁telephone	-5817
▁workforce	-5818
▁contribute	-5819
▁discussing	-5820
▁maintained	-5821
▁educational	-5822
▁enforcement	-5823
▁legislative	-5824
▁agricultural	-5825
▁architectural	-5826
▁mediterranean	-5827
bc	-5828
wa	-5829
bly	-5830
bra	-5831
ero	-5832
kee	-5833
rim	-5834
agas	-5835
ante	-5836
etch	-5837
hand	-5838
oken	-5839
oupe	-5840
▁186	-5841
▁dun	-5842
▁fab	-5843
▁nic	-5844
▁por	-5845
▁sha	-5846
▁tox	-5847
isite	-5848
quake	-5849
▁2005	-5850
▁craw	-5851
▁cycl	-5852
▁inch	-5853
▁kans	-5854
▁laid	-5855
▁nest	-5856
▁quiz	-5857
▁roll	-5858
▁spin	-5859
icking	-5860
▁alley	-5861
▁boast	-5862
▁celeb	-5863
▁charl	-5864
▁crash	-5865
▁embar	-5866
▁encom	-5867
▁flyer	-5868
▁knock	-5869
▁naked	-5870
▁proof	-5871
▁pyram	-5872
▁recru	-5873
▁shade	-5874
▁sixth	-5875
▁slide	-5876
▁spons	-5877
▁straw	-5878
▁stuck	-5879
▁tight	-5880
▁wound	-5881
▁diving	-5882
▁driven	-5883
▁harder	-5884
▁hiking	-5885
▁injury	-5886
▁knight	-5887
▁lately	-5888
▁philos	-5889
▁pirate	-5890
▁proved	-5891
▁refuge	-5892
▁reluct	-5893
▁soviet	-5894
▁switch	-5895
▁writes	-5896
▁athlete	-5897
▁awarded	-5898
▁beneath	-5899
▁ceiling	-5900
▁curious	-5901
▁divorce	-5902
▁facilit	-5903
▁figured	-5904
▁heavily	-5905
▁intense	-5906
▁minimal	-5907
▁nursing	-5908
▁reserve	-5909
▁violent	-5910
▁warning	-5911
▁disagree	-5912
▁everyday	-5913
▁exposure	-5914
▁informed	-5915
▁michigan	-5916
▁minority	-5917
▁moreover	-5918
▁ordinary	-5919
▁overwhel	-5920
▁treasury	-5921
▁amendment	-5922
▁immigrant	-5923
▁marketing	-5924
▁naturally	-5925
▁scientist	-5926
▁strolling	-5927
▁affordable	-5928
▁continuing	-5929
▁convenient	-5930
▁earthquake	-5931
▁inspection	-5932
▁subsequent	-5933
▁widespread	-5934
▁celebration	-5935
▁maintenance	-5936
▁stakeholder	-5937
▁demonstrated	-5938
▁incorporated	-5939
▁intellectual	-5940
▁representing	-5941
▁significance	-5942
▁participation	-5943
aii	-5944
bar	-5945
hen	-5946
amic	-5947
iary	-5948
iate	-5949
isse	-5950
uese	-5951
uled	-5952
▁aer	-5953
▁gig	-5954
▁hub	-5955
▁kir	-5956
▁mig	-5957
▁mow	-5958
▁ske	-5959
▁vul	-5960
eller	-5961
ifact	-5962
inian	-5963
opoly	-5964
prise	-5965
rella	-5966
shire	-5967
under	-5968
▁1944	-5969
▁bure	-5970
▁diam	-5971
▁fill	-5972
▁flav	-5973
▁gpra	-5974
▁jose	-5975
▁kath	-5976
▁obst	-5977
▁orch	-5978
▁rely	-5979
▁wire	-5980
▁wise	-5981
ibbean	-5982
rative	-5983
▁aside	-5984
▁enact	-5985
▁fired	-5986
▁indig	-5987
▁malay	-5988
▁plaza	-5989
▁renew	-5990
▁scary	-5991
▁solid	-5992
▁stark	-5993
▁tiger	-5994
▁truck	-5995
▁unexp	-5996
▁argued	-5997
▁arthur	-5998
▁assign	-5999
▁banned	-6000
▁enjoys	-6001
▁exclud	-6002
▁fabric	-6003
▁faster	-6004
▁hammer	-6005
▁hawaii	-6006
▁helmet	-6007
▁insist	-6008
▁malays	-6009
▁palais	-6010
▁rennie	-6011
▁sacred	-6012
▁souven	-6013
▁treaty	-6014
▁vendor	-6015
▁calling	-6016
▁colored	-6017
▁confirm	-6018
▁minimum	-6019
▁natalia	-6020
▁privile	-6021
▁publish	-6022
▁pyramid	-6023
▁senator	-6024
▁survive	-6025
▁sweater	-6026
scription	-6027
▁artifact	-6028
▁catholic	-6029
▁engaging	-6030
▁homeland	-6031
▁illinois	-6032
▁planting	-6033
▁reaching	-6034
▁umbrella	-6035
▁abandoned	-6036
▁advertise	-6037
▁attending	-6038
▁caribbean	-6039
▁economics	-6040
▁encompass	-6041
▁evolution	-6042
▁furniture	-6043
▁happening	-6044
▁nonprofit	-6045
▁organized	-6046
▁performer	-6047
▁practical	-6048
▁southeast	-6049
▁successor	-6050
▁enterprise	-6051
▁nomination	-6052
▁portuguese	-6053
▁simulation	-6054
▁suggestion	-6055
▁surprising	-6056
▁maintaining	-6057
can	-6058
cca	-6059
gue	-6060
los	-6061
ora	-6062
rum	-6063
sie	-6064
▁32	-6065
▁37	-6066
▁55	-6067
▁ky	-6068
▁pp	-6069
ctic	-6070
esis	-6071
iche	-6072
odox	-6073
oner	-6074
orca	-6075
utor	-6076
▁hey	-6077
▁usa	-6078
▁wan	-6079
cover	-6080
ingly	-6081
otype	-6082
oured	-6083
ushed	-6084
▁1989	-6085
▁gest	-6086
▁heel	-6087
▁iran	-6088
▁lane	-6089
▁peer	-6090
▁pond	-6091
▁pupp	-6092
▁ramp	-6093
▁root	-6094
▁soil	-6095
▁ster	-6096
▁sulf	-6097
▁tone	-6098
chanan	-6099
▁canoe	-6100
▁crown	-6101
▁inner	-6102
▁knife	-6103
▁parad	-6104
▁robin	-6105
▁rocky	-6106
▁sandy	-6107
▁sauce	-6108
▁split	-6109
▁stall	-6110
▁wagon	-6111
▁weigh	-6112
▁append	-6113
▁bullet	-6114
▁cinema	-6115
▁colony	-6116
▁consol	-6117
▁exceed	-6118
▁mccain	-6119
▁monday	-6120
▁norman	-6121
▁sather	-6122
▁stable	-6123
▁stress	-6124
aneously	-6125
▁actress	-6126
▁antique	-6127
▁blanket	-6128
▁cheaper	-6129
▁compare	-6130
▁confess	-6131
▁indiana	-6132
▁islamic	-6133
▁missile	-6134
▁mystery	-6135
▁notable	-6136
▁removed	-6137
▁shelter	-6138
▁vietnam	-6139
▁buchanan	-6140
▁concrete	-6141
▁contrary	-6142
▁describe	-6143
▁exciting	-6144
▁explains	-6145
▁franklin	-6146
▁monopoly	-6147
▁pleasure	-6148
▁reviewed	-6149
▁souvenir	-6150
▁williams	-6151
▁decorated	-6152
▁democracy	-6153
▁graduated	-6154
▁historian	-6155
▁kilometer	-6156
▁paperwork	-6157
▁protected	-6158
▁regularly	-6159
▁resulting	-6160
▁capability	-6161
▁disclosure	-6162
▁influenced	-6163
▁innovation	-6164
▁restricted	-6165
▁appreciated	-6166
▁introduction	-6167
▁manufacturer	-6168
▁successfully	-6169
50	-6170
arn	-6171
ege	-6172
ige	-6173
ima	-6174
lan	-6175
lay	-6176
rub	-6177
▁49	-6178
▁jr	-6179
▁pc	-6180
bbed	-6181
cont	-6182
erto	-6183
iber	-6184
load	-6185
raph	-6186
▁800	-6187
▁kim	-6188
▁mit	-6189
▁ott	-6190
▁rhy	-6191
▁unt	-6192
▁wid	-6193
ashed	-6194
▁1972	-6195
▁amid	-6196
▁bale	-6197
▁buff	-6198
▁chew	-6199
▁duck	-6200
▁fuel	-6201
▁matt	-6202
▁nick	-6203
▁pure	-6204
▁silk	-6205
▁tank	-6206
itable	-6207
laimed	-6208
stream	-6209
▁abund	-6210
▁admit	-6211
▁adopt	-6212
▁adorn	-6213
▁angel	-6214
▁annoy	-6215
▁argue	-6216
▁bread	-6217
▁cazar	-6218
▁colla	-6219
▁exter	-6220
▁femin	-6221
▁grasp	-6222
▁hated	-6223
▁incur	-6224
▁kansa	-6225
▁noble	-6226
▁plano	-6227
▁punch	-6228
▁quote	-6229
▁ratio	-6230
▁shell	-6231
▁shout	-6232
▁texan	-6233
▁toxic	-6234
▁trash	-6235
achment	-6236
▁acting	-6237
▁breast	-6238
▁fellow	-6239
▁inland	-6240
▁jumped	-6241
▁mobile	-6242
▁pedest	-6243
▁permit	-6244
▁pillar	-6245
▁refuse	-6246
▁regret	-6247
▁ritual	-6248
▁summit	-6249
▁sunset	-6250
▁taught	-6251
▁causing	-6252
▁derived	-6253
▁forever	-6254
▁hanging	-6255
▁persian	-6256
▁relaxed	-6257
▁stephen	-6258
▁univers	-6259
▁appendix	-6260
▁captured	-6261
▁donation	-6262
▁enormous	-6263
▁formerly	-6264
▁handsome	-6265
▁honestly	-6266
▁kentucky	-6267
▁rejected	-6268
▁terminal	-6269
▁tropical	-6270
▁discovery	-6271
▁expansion	-6272
▁interrupt	-6273
▁nominated	-6274
▁statistic	-6275
▁constantly	-6276
▁officially	-6277
▁personally	-6278
▁supplement	-6279
▁anticipated	-6280
▁instruction	-6281
▁methodology	-6282
▁residential	-6283
▁specialized	-6284
▁distribution	-6285
▁economically	-6286
▁photographer	-6287
▁effectiveness	-6288
▁participating	-6289
gn	-6290
ux	-6291
cue	-6292
ila	-6293
iry	-6294
oop	-6295
ugg	-6296
▁wt	-6297
aled	-6298
ethe	-6299
fast	-6300
oral	-6301
path	-6302
rect	-6303
resh	-6304
rick	-6305
vada	-6306
very	-6307
▁bid	-6308
▁ble	-6309
▁dal	-6310
▁dim	-6311
▁hip	-6312
▁que	-6313
▁ron	-6314
▁rot	-6315
▁rub	-6316
▁unw	-6317
inter	-6318
order	-6319
oster	-6320
rogen	-6321
wards	-6322
▁2012	-6323
▁belt	-6324
▁clan	-6325
▁clue	-6326
▁cush	-6327
▁gear	-6328
▁grin	-6329
▁moor	-6330
▁soul	-6331
▁swed	-6332
▁tail	-6333
▁tied	-6334
▁tues	-6335
lining	-6336
umbent	-6337
▁bible	-6338
▁blade	-6339
▁cheek	-6340
▁cloak	-6341
▁curve	-6342
▁downt	-6343
▁eleph	-6344
▁endor	-6345
▁fails	-6346
▁globe	-6347
▁lobby	-6348
▁marry	-6349
▁pilot	-6350
▁roger	-6351
▁scope	-6352
▁scrut	-6353
▁stiff	-6354
▁stron	-6355
▁utter	-6356
▁vital	-6357
▁bengal	-6358
▁campus	-6359
▁cancer	-6360
▁closer	-6361
▁cotton	-6362
▁fallen	-6363
▁guided	-6364
▁hitler	-6365
▁honest	-6366
▁hoping	-6367
▁kosovo	-6368
▁praise	-6369
▁racial	-6370
▁spouse	-6371
▁submit	-6372
▁throne	-6373
▁tunnel	-6374
▁valued	-6375
▁formula	-6376
▁inhabit	-6377
▁lacking	-6378
▁letting	-6379
▁ottoman	-6380
▁painter	-6381
▁pension	-6382
▁promise	-6383
▁pushing	-6384
▁rebuilt	-6385
▁replied	-6386
▁skilled	-6387
▁surface	-6388
▁terrace	-6389
▁venture	-6390
▁wedding	-6391
▁whereas	-6392
iguration	-6393
▁admitted	-6394
▁announce	-6395
▁attacked	-6396
▁attitude	-6397
▁buddhist	-6398
▁ensuring	-6399
▁landmark	-6400
▁moderate	-6401
▁regarded	-6402
▁struggle	-6403
▁stunning	-6404
▁venetian	-6405
▁weakness	-6406
▁workshop	-6407
▁acknowled	-6408
▁celebrity	-6409
▁embarrass	-6410
▁encounter	-6411
▁identical	-6412
▁immediate	-6413
▁incumbent	-6414
▁institute	-6415
▁louisiana	-6416
▁permitted	-6417
▁principal	-6418
▁controlled	-6419
▁integrated	-6420
▁positioned	-6421
▁punishment	-6422
▁songwriter	-6423
▁integration	-6424
▁involvement	-6425
▁necessarily	-6426
▁quarterback	-6427
▁temperature	-6428
▁underground	-6429
▁establishing	-6430
do	-6431
cul	-6432
emp	-6433
ipt	-6434
lem	-6435
mak	-6436
oda	-6437
rog	-6438
ros	-6439
sch	-6440
uze	-6441
▁34	-6442
▁cd	-6443
▁si	-6444
▁ug	-6445
abil	-6446
azzo	-6447
ello	-6448
gery	-6449
omed	-6450
omet	-6451
vest	-6452
▁aci	-6453
▁alp	-6454
▁cnn	-6455
▁jam	-6456
▁luc	-6457
▁nut	-6458
▁pin	-6459
▁pom	-6460
▁tab	-6461
▁tin	-6462
▁vic	-6463
acent	-6464
erity	-6465
essel	-6466
ipper	-6467
ockey	-6468
ugawa	-6469
▁1941	-6470
▁1958	-6471
▁2006	-6472
▁batt	-6473
▁brew	-6474
▁cant	-6475
▁cher	-6476
▁dame	-6477
▁dock	-6478
▁duke	-6479
▁elev	-6480
▁flaw	-6481
▁fulf	-6482
▁irre	-6483
▁jung	-6484
▁marc	-6485
▁milk	-6486
▁navy	-6487
▁orth	-6488
▁pale	-6489
▁peel	-6490
▁rabb	-6491
▁rear	-6492
▁rice	-6493
▁rode	-6494
▁slim	-6495
▁subt	-6496
▁unre	-6497
▁zone	-6498
atched	-6499
makers	-6500
ructed	-6501
▁armed	-6502
▁cance	-6503
▁catal	-6504
▁crazy	-6505
▁cuban	-6506
▁disci	-6507
▁dying	-6508
▁fence	-6509
▁genus	-6510
▁ineff	-6511
▁macau	-6512
▁medal	-6513
▁proph	-6514
▁prove	-6515
▁tripp	-6516
chester	-6517
istical	-6518
▁absurd	-6519
▁andrew	-6520
▁argent	-6521
▁button	-6522
▁comply	-6523
▁dating	-6524
▁escape	-6525
▁excite	-6526
▁fright	-6527
▁haired	-6528
▁joseph	-6529
▁minnes	-6530
▁offset	-6531
▁output	-6532
▁polish	-6533
▁shield	-6534
▁string	-6535
▁surren	-6536
▁volunt	-6537
▁assault	-6538
▁comprom	-6539
▁density	-6540
▁indoors	-6541
▁maximum	-6542
▁opposed	-6543
▁passion	-6544
▁pleased	-6545
▁premium	-6546
▁profile	-6547
▁promote	-6548
▁ranking	-6549
▁receipt	-6550
▁ridicul	-6551
▁shorter	-6552
▁speaker	-6553
▁updated	-6554
▁useless	-6555
▁utility	-6556
▁adjacent	-6557
▁answered	-6558
▁breaking	-6559
▁bustling	-6560
▁columbia	-6561
▁confused	-6562
▁elephant	-6563
▁entering	-6564
▁exterior	-6565
▁jamaican	-6566
▁observer	-6567
▁occupied	-6568
▁orthodox	-6569
▁reliable	-6570
▁resemble	-6571
▁suffered	-6572
▁throwing	-6573
▁tokugawa	-6574
▁assessing	-6575
▁converted	-6576
▁criticism	-6577
▁eliminate	-6578
▁examining	-6579
▁exploring	-6580
▁formation	-6581
▁guitarist	-6582
▁premature	-6583
▁privilege	-6584
▁receiving	-6585
▁sacrifice	-6586
▁worldwide	-6587
▁kentuckian	-6588
▁preference	-6589
▁productive	-6590
▁observation	-6591
▁uncertainty	-6592
▁christianity	-6593
▁civilization	-6594
▁historically	-6595
10	-6596
ja	-6597
pm	-6598
ani	-6599
ded	-6600
tha	-6601
▁bh	-6602
born	-6603
eman	-6604
mond	-6605
nedy	-6606
ying	-6607
▁amp	-6608
▁aqu	-6609
▁bat	-6610
▁fda	-6611
▁fen	-6612
▁his	-6613
▁ina	-6614
▁joe	-6615
▁jun	-6616
▁lav	-6617
▁lik	-6618
▁obt	-6619
▁pap	-6620
▁rac	-6621
▁sel	-6622
▁vig	-6623
▁wiz	-6624
▁wra	-6625
▁wtp	-6626
achus	-6627
anion	-6628
cling	-6629
egean	-6630
eness	-6631
erman	-6632
field	-6633
icide	-6634
iffer	-6635
istol	-6636
istry	-6637
oning	-6638
sters	-6639
▁1979	-6640
▁1988	-6641
▁bork	-6642
▁clij	-6643
▁dict	-6644
▁diet	-6645
▁exqu	-6646
▁feas	-6647
▁hamp	-6648
▁horn	-6649
▁jess	-6650
▁pile	-6651
▁terr	-6652
▁torn	-6653
▁tune	-6654
eimmer	-6655
idated	-6656
urning	-6657
▁accus	-6658
▁altar	-6659
▁bauer	-6660
▁begun	-6661
▁boris	-6662
▁deity	-6663
▁demon	-6664
▁holly	-6665
▁istan	-6666
▁korea	-6667
▁multi	-6668
▁museo	-6669
▁navig	-6670
▁nepal	-6671
▁nobel	-6672
▁popul	-6673
▁scarf	-6674
▁stamp	-6675
▁swung	-6676
▁weird	-6677
▁yield	-6678
inction	-6679
quarter	-6680
▁aegean	-6681
▁buddha	-6682
▁confir	-6683
▁eighth	-6684
▁enable	-6685
▁format	-6686
▁fresco	-6687
▁marvel	-6688
▁metric	-6689
▁mirror	-6690
▁poorly	-6691
▁remote	-6692
▁shower	-6693
▁simult	-6694
▁stupid	-6695
▁sulfur	-6696
▁unfair	-6697
▁vision	-6698
▁vulner	-6699
▁cabinet	-6700
▁chatter	-6701
▁favored	-6702
▁founder	-6703
▁handled	-6704
▁hasting	-6705
▁heading	-6706
▁hitting	-6707
▁invited	-6708
▁kennedy	-6709
▁nowhere	-6710
▁pacific	-6711
▁persist	-6712
▁praised	-6713
▁quietly	-6714
▁tuesday	-6715
▁assigned	-6716
▁depicted	-6717
▁external	-6718
▁innocent	-6719
▁istanbul	-6720
▁normally	-6721
▁obtained	-6722
▁organism	-6723
▁revision	-6724
▁suitable	-6725
▁unlikely	-6726
▁victoria	-6727
▁assurance	-6728
▁clijsters	-6729
▁companion	-6730
▁depending	-6731
▁elaborate	-6732
▁existence	-6733
▁expertise	-6734
▁financing	-6735
▁impressed	-6736
▁improving	-6737
▁massachus	-6738
▁minnesota	-6739
▁observing	-6740
▁publicity	-6741
▁scheduled	-6742
▁succeeded	-6743
▁surrender	-6744
▁virtually	-6745
▁applicable	-6746
▁excitement	-6747
▁extraordin	-6748
▁guaranteed	-6749
▁intriguing	-6750
▁martinique	-6751
▁opposition	-6752
▁popularity	-6753
▁prohibited	-6754
▁prosperity	-6755
▁visibility	-6756
▁arrangement	-6757
▁complicated	-6758
▁description	-6759
▁hersheimmer	-6760
▁influential	-6761
▁scholarship	-6762
▁implementing	-6763
▁classification	-6764
70	-6765
aa	-6766
cco	-6767
lon	-6768
oca	-6769
ogy	-6770
omy	-6771
uel	-6772
▁95	-6773
▁cm	-6774
▁fo	-6775
▁ip	-6776
▁nu	-6777
enda	-6778
etts	-6779
ines	-6780
ista	-6781
olve	-6782
omin	-6783
onna	-6784
ophy	-6785
oque	-6786
rait	-6787
rast	-6788
reak	-6789
sted	-6790
suit	-6791
vana	-6792
wick	-6793
▁180	-6794
▁fox	-6795
▁hud	-6796
▁jar	-6797
▁jur	-6798
▁lad	-6799
▁lag	-6800
▁nba	-6801
▁orn	-6802
▁rib	-6803
▁tub	-6804
ardin	-6805
ateur	-6806
berry	-6807
esque	-6808
eting	-6809
icion	-6810
rency	-6811
unded	-6812
▁1984	-6813
▁1991	-6814
▁2003	-6815
▁bite	-6816
▁chee	-6817
▁finn	-6818
▁fold	-6819
▁gand	-6820
▁gary	-6821
▁gaul	-6822
▁hood	-6823
▁icon	-6824
▁quit	-6825
▁rick	-6826
▁semi	-6827
▁stem	-6828
▁tape	-6829
▁thro	-6830
▁till	-6831
▁tong	-6832
ounced	-6833
▁arrow	-6834
▁blame	-6835
▁boost	-6836
▁cater	-6837
▁drove	-6838
▁drunk	-6839
▁flash	-6840
▁grove	-6841
▁hello	-6842
▁inapp	-6843
▁input	-6844
▁legit	-6845
▁opted	-6846
▁patri	-6847
▁persu	-6848
▁salam	-6849
▁sheet	-6850
▁skirt	-6851
▁sweat	-6852
▁sweep	-6853
▁trunk	-6854
▁usage	-6855
▁vivid	-6856
▁vocal	-6857
agonist	-6858
imental	-6859
oration	-6860
ruption	-6861
▁hazard	-6862
▁hiring	-6863
▁housed	-6864
▁intric	-6865
▁lovely	-6866
▁luxury	-6867
▁morris	-6868
▁presum	-6869
▁reagan	-6870
▁repeat	-6871
▁smooth	-6872
▁stance	-6873
▁steady	-6874
▁suburb	-6875
▁turtle	-6876
▁vessel	-6877
▁viewed	-6878
▁viewer	-6879
standing	-6880
▁accused	-6881
▁baroque	-6882
▁bedroom	-6883
▁bombing	-6884
▁bradley	-6885
▁briefly	-6886
▁broader	-6887
▁charity	-6888
▁crystal	-6889
▁cushion	-6890
▁deliber	-6891
▁deposit	-6892
▁drummer	-6893
▁farther	-6894
▁millenn	-6895
▁paralle	-6896
▁premier	-6897
▁reconst	-6898
▁shannon	-6899
▁sixteen	-6900
▁summary	-6901
▁suspect	-6902
▁alliance	-6903
▁arranged	-6904
▁attached	-6905
▁bathroom	-6906
▁checking	-6907
▁cleaning	-6908
▁colonial	-6909
▁crossing	-6910
▁currency	-6911
▁designer	-6912
▁evaluate	-6913
▁excluded	-6914
▁explicit	-6915
▁hastings	-6916
▁lifetime	-6917
▁nitrogen	-6918
▁portrait	-6919
▁railroad	-6920
▁retrofit	-6921
▁sunlight	-6922
▁survived	-6923
▁appealing	-6924
▁assistant	-6925
▁confirmed	-6926
▁exquisite	-6927
▁incorrect	-6928
▁installed	-6929
▁introduce	-6930
▁oversight	-6931
▁passenger	-6932
▁qualified	-6933
▁adjustment	-6934
▁demolished	-6935
▁eliminated	-6936
▁impression	-6937
▁obligation	-6938
▁projection	-6939
▁protecting	-6940
▁transition	-6941
▁communicate	-6942
▁documentary	-6943
▁headquarter	-6944
▁immigration	-6945
▁masterpiece	-6946
▁participated	-6947
▁massachusetts	-6948
▁archaeological	-6949
▁transformation	-6950
gi	-6951
hr	-6952
aki	-6953
iev	-6954
ikh	-6955
isy	-6956
mar	-6957
non	-6958
pit	-6959
▁43	-6960
▁96	-6961
▁gy	-6962
care	-6963
ella	-6964
grim	-6965
iloh	-6966
keep	-6967
lore	-6968
name	-6969
omer	-6970
phin	-6971
rage	-6972
trol	-6973
ucle	-6974
▁ate	-6975
▁dip	-6976
▁dyn	-6977
▁gov	-6978
▁hes	-6979
▁jaw	-6980
▁jet	-6981
▁ker	-6982
▁piz	-6983
▁sab	-6984
▁ted	-6985
▁une	-6986
▁vba	-6987
▁zoo	-6988
haust	-6989
inity	-6990
leans	-6991
maker	-6992
opher	-6993
ropri	-6994
undit	-6995
▁beef	-6996
▁bour	-6997
▁cler	-6998
▁exit	-6999
▁fate	-7000
▁fist	-7001
▁grey	-7002
▁knee	-7003
▁load	-7004
▁lone	-7005
▁lung	-7006
▁mild	-7007
▁nave	-7008
▁pitt	-7009
▁poem	-7010
▁roth	-7011
▁wool	-7012
▁wore	-7013
▁zeal	-7014
hammed	-7015
nesday	-7016
orious	-7017
ushing	-7018
▁basil	-7019
▁cairo	-7020
▁consp	-7021
▁couch	-7022
▁donor	-7023
▁flame	-7024
▁glory	-7025
▁hoped	-7026
▁inher	-7027
▁kyoto	-7028
▁lewis	-7029
▁maker	-7030
▁monet	-7031
▁nucle	-7032
▁occas	-7033
▁porch	-7034
▁showc	-7035
▁silly	-7036
▁spear	-7037
▁steep	-7038
▁surge	-7039
diction	-7040
▁attest	-7041
▁ceased	-7042
▁conrad	-7043
▁exists	-7044
▁greuze	-7045
▁intent	-7046
▁linked	-7047
▁motion	-7048
▁ninety	-7049
▁pepper	-7050
▁picnic	-7051
▁prayer	-7052
▁pundit	-7053
▁ramses	-7054
▁reserv	-7055
▁shiloh	-7056
▁spoken	-7057
▁summar	-7058
▁varied	-7059
▁adorned	-7060
▁amateur	-7061
▁bowling	-7062
▁discipl	-7063
▁excited	-7064
▁exhaust	-7065
▁fantasy	-7066
▁graphic	-7067
▁infrast	-7068
▁offense	-7069
▁orchest	-7070
▁orleans	-7071
▁pilgrim	-7072
▁qualify	-7073
▁rolling	-7074
▁sailing	-7075
▁sustain	-7076
▁utterly	-7077
▁boundary	-7078
▁crusader	-7079
▁disaster	-7080
▁earnings	-7081
▁enhanced	-7082
▁equipped	-7083
▁florence	-7084
▁folklore	-7085
▁geograph	-7086
▁goodness	-7087
▁mohammed	-7088
▁parallel	-7089
▁princess	-7090
▁relating	-7091
▁relaxing	-7092
▁revealed	-7093
▁showcase	-7094
▁starring	-7095
▁striking	-7096
▁unfunded	-7097
▁assertion	-7098
▁breakfast	-7099
▁competing	-7100
▁convinced	-7101
▁depicting	-7102
▁responded	-7103
▁returning	-7104
▁temporary	-7105
▁wednesday	-7106
▁approached	-7107
▁bankruptcy	-7108
▁chatterbox	-7109
▁contractor	-7110
▁documented	-7111
▁evaluating	-7112
▁litigation	-7113
▁occasional	-7114
▁remembered	-7115
▁thoroughly	-7116
▁exceptional	-7117
▁measurement	-7118
▁potentially	-7119
▁statistical	-7120
▁considerable	-7121
▁governmental	-7122
▁traditionally	-7123
▁infrastructure	-7124
▁simultaneously	-7125
dy	-7126
bed	-7127
cas	-7128
eav	-7129
gus	-7130
isk	-7131
osh	-7132
▁00	-7133
▁41	-7134
▁65	-7135
▁by	-7136
▁gi	-7137
▁ku	-7138
▁sq	-7139
▁wo	-7140
acht	-7141
cony	-7142
iano	-7143
iner	-7144
into	-7145
leep	-7146
mand	-7147
sque	-7148
▁182	-7149
▁187	-7150
▁ali	-7151
▁ark	-7152
▁bod	-7153
▁cfo	-7154
▁dud	-7155
▁ibm	-7156
▁kay	-7157
▁lev	-7158
▁lon	-7159
▁lub	-7160
▁sed	-7161
▁wax	-7162
▁wis	-7163
aside	-7164
ented	-7165
▁1920	-7166
▁1966	-7167
▁1983	-7168
▁ally	-7169
▁bund	-7170
▁chan	-7171
▁chen	-7172
▁conj	-7173
▁cute	-7174
▁fame	-7175
▁ging	-7176
▁gosh	-7177
▁hike	-7178
▁lock	-7179
▁menu	-7180
▁perm	-7181
▁prol	-7182
▁recy	-7183
▁repl	-7184
▁tack	-7185
▁tusc	-7186
▁ugly	-7187
▁utah	-7188
▁vent	-7189
ellite	-7190
employ	-7191
encing	-7192
ocaust	-7193
olving	-7194
▁adapt	-7195
▁align	-7196
▁brook	-7197
▁caput	-7198
▁dirty	-7199
▁essay	-7200
▁fancy	-7201
▁hurry	-7202
▁linda	-7203
▁loose	-7204
▁lover	-7205
▁lyric	-7206
▁musee	-7207
▁notre	-7208
▁overt	-7209
▁parag	-7210
▁perth	-7211
▁rebel	-7212
▁teeth	-7213
leyball	-7214
▁absorb	-7215
▁addict	-7216
▁adding	-7217
▁agenda	-7218
▁apache	-7219
▁asleep	-7220
▁astron	-7221
▁attire	-7222
▁balear	-7223
▁cheese	-7224
▁circus	-7225
▁concur	-7226
▁dorcas	-7227
▁excuse	-7228
▁exotic	-7229
▁gandhi	-7230
▁gender	-7231
▁havana	-7232
▁hiding	-7233
▁impose	-7234
▁johnny	-7235
▁locked	-7236
▁nevada	-7237
▁overly	-7238
▁preced	-7239
▁regime	-7240
▁reside	-7241
▁ruined	-7242
▁tested	-7243
▁throat	-7244
▁trader	-7245
▁visual	-7246
▁analyst	-7247
▁burning	-7248
▁constit	-7249
▁dealing	-7250
▁digital	-7251
▁dispute	-7252
▁dynasty	-7253
▁emotion	-7254
▁envelop	-7255
▁erected	-7256
▁jewelry	-7257
▁lasting	-7258
▁malisse	-7259
▁monarch	-7260
▁monthly	-7261
▁parking	-7262
▁seaside	-7263
▁sharply	-7264
▁shortly	-7265
▁touched	-7266
▁adequate	-7267
▁advisory	-7268
▁advocate	-7269
▁combined	-7270
▁composer	-7271
▁discoura	-7272
▁focusing	-7273
▁formally	-7274
▁isolated	-7275
▁leonardo	-7276
▁matching	-7277
▁memorial	-7278
▁opposing	-7279
▁oriented	-7280
▁overseas	-7281
▁performs	-7282
▁quantity	-7283
▁resolved	-7284
▁sculpted	-7285
▁traveled	-7286
▁unemploy	-7287
▁vineyard	-7288
▁complaint	-7289
▁demanding	-7290
▁editorial	-7291
▁expanding	-7292
▁francisco	-7293
▁holocaust	-7294
▁integrity	-7295
▁satellite	-7296
▁aggressive	-7297
▁classified	-7298
▁confidence	-7299
▁decreasing	-7300
▁depression	-7301
▁incredibly	-7302
▁monitoring	-7303
▁plantation	-7304
▁practicing	-7305
▁purchasing	-7306
▁renovation	-7307
▁unexpected	-7308
▁volleyball	-7309
▁determining	-7310
▁encountered	-7311
▁essentially	-7312
▁examination	-7313
▁exploration	-7314
▁picturesque	-7315
▁headquarters	-7316
▁metropolitan	-7317
▁institutional	-7318
▁technological	-7319
86	-7320
bs	-7321
agg	-7322
anc	-7323
azi	-7324
gon	-7325
isp	-7326
iti	-7327
pay	-7328
sim	-7329
tic	-7330
▁ey	-7331
▁il	-7332
▁ja	-7333
▁kl	-7334
airs	-7335
aken	-7336
bage	-7337
bour	-7338
dess	-7339
elon	-7340
lest	-7341
rake	-7342
rena	-7343
ruck	-7344
tail	-7345
wara	-7346
▁cob	-7347
▁fbi	-7348
▁fcc	-7349
▁fid	-7350
▁gab	-7351
▁gau	-7352
▁gol	-7353
▁jol	-7354
▁mas	-7355
▁raj	-7356
▁roy	-7357
▁zen	-7358
ament	-7359
bbing	-7360
ching	-7361
endar	-7362
ghold	-7363
icane	-7364
isure	-7365
orous	-7366
orted	-7367
raint	-7368
ribly	-7369
sburg	-7370
umbai	-7371
urban	-7372
utant	-7373
utive	-7374
▁1987	-7375
▁alan	-7376
▁ariz	-7377
▁cake	-7378
▁cete	-7379
▁dign	-7380
▁fake	-7381
▁fema	-7382
▁fert	-7383
▁fier	-7384
▁gord	-7385
▁halt	-7386
▁helm	-7387
▁hurr	-7388
▁inev	-7389
▁maid	-7390
▁mira	-7391
▁nato	-7392
▁pall	-7393
▁pent	-7394
▁puzz	-7395
▁raid	-7396
▁succ	-7397
▁trek	-7398
▁trem	-7399
▁ware	-7400
▁what	-7401
stairs	-7402
weight	-7403
▁alleg	-7404
▁aller	-7405
▁barbe	-7406
▁bless	-7407
▁cohen	-7408
▁crack	-7409
▁dense	-7410
▁devil	-7411
▁dimin	-7412
▁email	-7413
▁false	-7414
▁hobby	-7415
▁penny	-7416
▁ruled	-7417
▁simon	-7418
▁spice	-7419
▁threw	-7420
▁tonic	-7421
redient	-7422
▁abroad	-7423
▁affirm	-7424
▁betray	-7425
▁burned	-7426
▁circle	-7427
▁consec	-7428
▁costly	-7429
▁decent	-7430
▁edward	-7431
▁eleven	-7432
▁extrav	-7433
▁flavor	-7434
▁foster	-7435
▁garage	-7436
▁guadel	-7437
▁intact	-7438
▁lesser	-7439
▁margin	-7440
▁merger	-7441
▁minded	-7442
▁monkey	-7443
▁mumbai	-7444
▁ornate	-7445
▁palest	-7446
▁rapier	-7447
▁rooney	-7448
▁signal	-7449
▁skiing	-7450
▁struck	-7451
▁superb	-7452
▁unrest	-7453
▁waited	-7454
▁yearly	-7455
▁yelled	-7456
▁anxious	-7457
▁backing	-7458
▁balcony	-7459
▁bearing	-7460
▁ceramic	-7461
▁checked	-7462
▁continu	-7463
▁convert	-7464
▁diamond	-7465
▁diverse	-7466
▁enacted	-7467
▁fortune	-7468
▁garbage	-7469
▁goddess	-7470
▁inquiry	-7471
▁leisure	-7472
▁madonna	-7473
▁mansion	-7474
▁meticul	-7475
▁neglect	-7476
▁obscure	-7477
▁printed	-7478
▁pulling	-7479
▁resting	-7480
▁silence	-7481
▁slavery	-7482
▁trained	-7483
▁animated	-7484
▁arrested	-7485
▁boutique	-7486
▁cardinal	-7487
▁disorder	-7488
▁downtown	-7489
▁feasible	-7490
▁feminist	-7491
▁follower	-7492
▁forecast	-7493
▁gingrich	-7494
▁harrison	-7495
▁operates	-7496
▁receives	-7497
▁studying	-7498
rimination	-7499
▁addiction	-7500
▁awareness	-7501
▁emotional	-7502
▁hurricane	-7503
▁prototype	-7504
▁reviewing	-7505
▁safeguard	-7506
▁suffering	-7507
▁suspicion	-7508
▁universal	-7509
▁voluntary	-7510
▁workplace	-7511
▁acceptable	-7512
▁accomplish	-7513
▁attributed	-7514
▁australian	-7515
▁convention	-7516
▁criticized	-7517
▁delightful	-7518
▁enthusiast	-7519
▁guadeloupe	-7520
▁ingredient	-7521
▁inhabitant	-7522
▁membership	-7523
▁questioned	-7524
▁stronghold	-7525
▁accumulated	-7526
▁efficiently	-7527
▁partnership	-7528
▁politically	-7529
▁progressive	-7530
▁restoration	-7531
▁conditioning	-7532
▁disappointed	-7533
▁respectively	-7534
▁advertisement	-7535
▁automatically	-7536
ih	-7537
ua	-7538
agn	-7539
cfa	-7540
cho	-7541
don	-7542
har	-7543
hou	-7544
lor	-7545
nut	-7546
top	-7547
▁01	-7548
▁68	-7549
afat	-7550
dict	-7551
down	-7552
ione	-7553
iser	-7554
just	-7555
oard	-7556
orge	-7557
post	-7558
real	-7559
▁176	-7560
▁250	-7561
▁caf	-7562
▁dat	-7563
▁dei	-7564
▁gle	-7565
▁gop	-7566
▁jog	-7567
▁kel	-7568
▁sic	-7569
▁sie	-7570
▁spo	-7571
▁uph	-7572
abled	-7573
anger	-7574
attoo	-7575
enous	-7576
erton	-7577
icial	-7578
impse	-7579
obile	-7580
rises	-7581
sieur	-7582
urbed	-7583
▁1986	-7584
▁amph	-7585
▁bone	-7586
▁cage	-7587
▁cite	-7588
▁cree	-7589
▁exem	-7590
▁fena	-7591
▁flew	-7592
▁hcfa	-7593
▁lift	-7594
▁nonf	-7595
▁pear	-7596
▁plea	-7597
▁pron	-7598
▁skip	-7599
▁todd	-7600
▁toss	-7601
▁trim	-7602
▁unch	-7603
▁unne	-7604
atable	-7605
atting	-7606
irable	-7607
soever	-7608
▁admir	-7609
▁anger	-7610
▁apple	-7611
▁boule	-7612
▁bount	-7613
▁candy	-7614
▁charm	-7615
▁fault	-7616
▁gagas	-7617
▁grave	-7618
▁hence	-7619
▁hesit	-7620
▁inacc	-7621
▁lodge	-7622
▁marsh	-7623
▁merit	-7624
▁pizza	-7625
▁prest	-7626
▁quint	-7627
▁relic	-7628
▁relie	-7629
▁renov	-7630
▁reply	-7631
▁shake	-7632
▁shark	-7633
▁snowy	-7634
▁twist	-7635
▁worsh	-7636
forward	-7637
itively	-7638
▁absent	-7639
▁advent	-7640
▁butter	-7641
▁endeav	-7642
▁extend	-7643
▁heaven	-7644
▁hunter	-7645
▁jesuit	-7646
▁lacked	-7647
▁legacy	-7648
▁medica	-7649
▁naples	-7650
▁needle	-7651
▁occurs	-7652
▁outlet	-7653
▁packed	-7654
▁philip	-7655
▁priced	-7656
▁puerto	-7657
▁remove	-7658
▁robust	-7659
▁scheme	-7660
▁sketch	-7661
▁tactic	-7662
▁tattoo	-7663
▁titled	-7664
▁underg	-7665
▁wished	-7666
▁wright	-7667
etheless	-7668
▁acquire	-7669
▁antonio	-7670
▁artific	-7671
▁auction	-7672
▁captain	-7673
▁carving	-7674
▁combine	-7675
▁crossed	-7676
▁cyclist	-7677
▁dolphin	-7678
▁gateway	-7679
▁glimpse	-7680
▁landing	-7681
▁locally	-7682
▁municip	-7683
▁palazzo	-7684
▁procure	-7685
▁prophet	-7686
▁royalty	-7687
▁shocked	-7688
▁stepped	-7689
▁suicide	-7690
▁surgery	-7691
isticated	-7692
▁envelope	-7693
▁explorer	-7694
▁indicate	-7695
▁judicial	-7696
▁monsieur	-7697
▁murdered	-7698
▁obstacle	-7699
▁rational	-7700
▁reflects	-7701
▁sequence	-7702
▁shooting	-7703
▁targeted	-7704
▁ultimate	-7705
▁upcoming	-7706
▁wildlife	-7707
▁admission	-7708
▁appointed	-7709
▁comprises	-7710
▁connected	-7711
▁decreased	-7712
▁dominated	-7713
▁fortunate	-7714
▁generated	-7715
▁initiated	-7716
▁intricate	-7717
▁investing	-7718
▁partially	-7719
▁portrayed	-7720
▁precisely	-7721
▁variation	-7722
▁viewpoint	-7723
▁attempting	-7724
▁comparable	-7725
▁elementary	-7726
▁inappropri	-7727
▁indigenous	-7728
▁millennium	-7729
▁pedestrian	-7730
▁reflecting	-7731
▁resistance	-7732
▁screenplay	-7733
▁specialist	-7734
▁struggling	-7735
▁whatsoever	-7736
▁beautifully	-7737
▁citizenship	-7738
▁distinction	-7739
▁impeachment	-7740
▁negotiation	-7741
▁nonetheless	-7742
▁operational	-7743
▁boilermakers	-7744
▁subsequently	-7745
▁collaboration	-7746
▁controversial	-7747
▁discrimination	-7748
▁straightforward	-7749
42	-7750
ek	-7751
rd	-7752
ya	-7753
chn	-7754
eli	-7755
esa	-7756
imp	-7757
isa	-7758
men	-7759
net	-7760
omo	-7761
uma	-7762
▁47	-7763
▁62	-7764
▁67	-7765
▁ak	-7766
▁es	-7767
▁xv	-7768
amin	-7769
etto	-7770
fare	-7771
gian	-7772
inai	-7773
itty	-7774
lord	-7775
omen	-7776
onym	-7777
rack	-7778
rove	-7779
thal	-7780
uent	-7781
zaar	-7782
▁179	-7783
▁185	-7784
▁600	-7785
▁eve	-7786
▁fet	-7787
▁kaz	-7788
▁mum	-7789
▁nep	-7790
▁pho	-7791
▁reh	-7792
▁rip	-7793
▁roc	-7794
▁tag	-7795
▁toe	-7796
▁yad	-7797
▁yep	-7798
abase	-7799
angel	-7800
ansas	-7801
avier	-7802
bacco	-7803
iably	-7804
icacy	-7805
itled	-7806
liest	-7807
otten	-7808
scent	-7809
▁1969	-7810
▁brah	-7811
▁casa	-7812
▁cass	-7813
▁caut	-7814
▁chop	-7815
▁coup	-7816
▁dumb	-7817
▁fare	-7818
▁fern	-7819
▁fled	-7820
▁hugh	-7821
▁iraq	-7822
▁juan	-7823
▁lush	-7824
▁nerv	-7825
▁pace	-7826
▁phen	-7827
▁pont	-7828
▁pork	-7829
▁prud	-7830
▁rico	-7831
▁thir	-7832
contin	-7833
idency	-7834
rained	-7835
sement	-7836
▁arena	-7837
▁badly	-7838
▁beast	-7839
▁blind	-7840
▁chase	-7841
▁chris	-7842
▁compr	-7843
▁davis	-7844
▁gorge	-7845
▁hatch	-7846
▁innov	-7847
▁jesse	-7848
▁loyal	-7849
▁metre	-7850
▁paula	-7851
▁rever	-7852
▁sinai	-7853
▁spell	-7854
▁squad	-7855
▁vault	-7856
ocolate	-7857
theless	-7858
▁bazaar	-7859
▁bureau	-7860
▁cannon	-7861
▁clever	-7862
▁donald	-7863
▁easter	-7864
▁forbid	-7865
▁gordon	-7866
▁grassy	-7867
▁hispan	-7868
▁hockey	-7869
▁insuff	-7870
▁jungle	-7871
▁lasted	-7872
▁lowest	-7873
▁muscle	-7874
▁patron	-7875
▁powell	-7876
▁preach	-7877
▁prosec	-7878
▁pushed	-7879
▁rabbit	-7880
▁rented	-7881
▁resign	-7882
▁suffer	-7883
▁tongue	-7884
▁unhapp	-7885
▁warner	-7886
▁wooded	-7887
atherine	-7888
ifferent	-7889
▁absence	-7890
▁amusing	-7891
▁arizona	-7892
▁chronic	-7893
▁conting	-7894
▁costing	-7895
▁desired	-7896
▁dialect	-7897
▁equival	-7898
▁escaped	-7899
▁fighter	-7900
▁gesture	-7901
▁injured	-7902
▁martial	-7903
▁nervous	-7904
▁olympic	-7905
▁pursued	-7906
▁tobacco	-7907
▁adjusted	-7908
▁atlantic	-7909
▁barbecue	-7910
▁basement	-7911
▁birthday	-7912
▁calendar	-7913
▁confront	-7914
▁database	-7915
▁executed	-7916
▁fragment	-7917
▁impacted	-7918
▁imported	-7919
▁mainland	-7920
▁medicaid	-7921
▁merchand	-7922
▁province	-7923
▁reviewer	-7924
▁suburban	-7925
▁sunglass	-7926
▁supplier	-7927
▁unnecess	-7928
▁attacking	-7929
▁automated	-7930
▁biography	-7931
▁boulevard	-7932
▁certified	-7933
▁chocolate	-7934
▁coastline	-7935
▁conscious	-7936
▁consuming	-7937
▁detective	-7938
▁discusses	-7939
▁exclusive	-7940
▁execution	-7941
▁forgotten	-7942
▁hollywood	-7943
▁northeast	-7944
▁paragraph	-7945
▁secondary	-7946
▁specialty	-7947
▁suspected	-7948
▁terrorist	-7949
▁waterfall	-7950
▁accusation	-7951
▁allocation	-7952
▁counseling	-7953
▁girlfriend	-7954
▁laboratory	-7955
▁prevention	-7956
▁proceeding	-7957
▁prosperous	-7958
▁submission	-7959
▁suggesting	-7960
▁accommodate	-7961
▁contributed	-7962
▁destruction	-7963
▁indifferent	-7964
▁interrupted	-7965
▁personality	-7966
▁protagonist	-7967
▁announcement	-7968
▁experiencing	-7969
▁nevertheless	-7970
▁revolutionary	-7971
▁sophisticated	-7972
fl	-7973
mi	-7974
wn	-7975
▁q	-7976
ala	-7977
alf	-7978
alo	-7979
eem	-7980
iva	-7981
mat	-7982
rev	-7983
rob	-7984
sin	-7985
vas	-7986
vre	-7987
▁38	-7988
▁56	-7989
▁97	-7990
▁hh	-7991
▁od	-7992
arre	-7993
fire	-7994
glas	-7995
idal	-7996
inge	-7997
pack	-7998
phia	-7999
pson	-8000
rist	-8001
span	-8002
ture	-8003
uble	-8004
xual	-8005
▁700	-8006
▁axe	-8007
▁bam	-8008
▁cod	-8009
▁dio	-8010
▁dot	-8011
▁duc	-8012
▁las	-8013
▁liv	-8014
▁mam	-8015
▁nag	-8016
▁nbc	-8017
▁neu	-8018
▁ree	-8019
▁slo	-8020
▁von	-8021
apore	-8022
athan	-8023
iracy	-8024
itzer	-8025
ousin	-8026
spond	-8027
utory	-8028
visor	-8029
▁1000	-8030
▁1978	-8031
▁aged	-8032
▁amen	-8033
▁anne	-8034
▁braz	-8035
▁bree	-8036
▁caes	-8037
▁celt	-8038
▁cord	-8039
▁dean	-8040
▁deck	-8041
▁dull	-8042
▁glow	-8043
▁greg	-8044
▁gulf	-8045
▁herb	-8046
▁karf	-8047
▁lith	-8048
▁mere	-8049
▁outs	-8050
▁poly	-8051
▁seaf	-8052
▁sigh	-8053
▁solo	-8054
▁spar	-8055
▁stee	-8056
▁stir	-8057
▁tort	-8058
▁visa	-8059
▁weed	-8060
▁zero	-8061
ection	-8062
erable	-8063
iceman	-8064
ifting	-8065
lessly	-8066
racted	-8067
regard	-8068
▁aging	-8069
▁barry	-8070
▁choir	-8071
▁delhi	-8072
▁disco	-8073
▁dread	-8074
▁enclo	-8075
▁escal	-8076
▁flank	-8077
▁incom	-8078
▁jacob	-8079
▁laund	-8080
▁manip	-8081
▁monte	-8082
▁mower	-8083
▁optim	-8084
▁outer	-8085
▁paved	-8086
▁porto	-8087
▁puppy	-8088
▁reass	-8089
▁recre	-8090
▁risky	-8091
▁shrug	-8092
▁snack	-8093
▁spark	-8094
▁stunt	-8095
▁there	-8096
▁unfam	-8097
▁voted	-8098
▁wayne	-8099
cession	-8100
imation	-8101
▁aboard	-8102
▁accent	-8103
▁arafat	-8104
▁burial	-8105
▁carbon	-8106
▁cousin	-8107
▁drawer	-8108
▁filter	-8109
▁fixing	-8110
▁forbes	-8111
▁forgot	-8112
▁harass	-8113
▁hypoth	-8114
▁infant	-8115
▁lifted	-8116
▁locate	-8117
▁martha	-8118
▁newest	-8119
▁notion	-8120
▁outlay	-8121
▁parish	-8122
▁poetry	-8123
▁pursue	-8124
▁ranked	-8125
▁script	-8126
▁shinto	-8127
▁steven	-8128
▁subway	-8129
▁undert	-8130
▁xavier	-8131
adelphia	-8132
iliation	-8133
▁artisan	-8134
▁beating	-8135
▁belongs	-8136
▁closing	-8137
▁disgust	-8138
▁distant	-8139
▁douglas	-8140
▁exagger	-8141
▁existed	-8142
▁forment	-8143
▁further	-8144
▁gaining	-8145
▁grabbed	-8146
▁imposed	-8147
▁license	-8148
▁nuclear	-8149
▁patrick	-8150
▁recruit	-8151
▁refresh	-8152
▁secured	-8153
▁surpass	-8154
▁unhappy	-8155
▁wanting	-8156
▁whisper	-8157
▁wrapped	-8158
istically	-8159
▁artistic	-8160
▁basilica	-8161
▁convince	-8162
▁deserted	-8163
▁dividend	-8164
▁eighteen	-8165
▁generate	-8166
▁imposing	-8167
▁instinct	-8168
▁literary	-8169
▁modified	-8170
▁particle	-8171
▁pointing	-8172
▁promoted	-8173
▁publicly	-8174
▁pursuing	-8175
▁reserved	-8176
▁severely	-8177
▁strongly	-8178
▁allocated	-8179
▁conquered	-8180
▁correctly	-8181
▁dismissed	-8182
▁frequency	-8183
▁indicator	-8184
▁pollutant	-8185
▁populated	-8186
▁satisfied	-8187
▁scorecard	-8188
▁shoreline	-8189
▁spiritual	-8190
▁sponsored	-8191
▁statutory	-8192
▁acceptance	-8193
▁automobile	-8194
▁calculated	-8195
▁collecting	-8196
▁correspond	-8197
▁decorative	-8198
▁delivering	-8199
▁facilitate	-8200
▁incredible	-8201
▁limitation	-8202
▁meaningful	-8203
▁nationwide	-8204
▁reflection	-8205
▁romanesque	-8206
▁supervisor	-8207
▁supposedly	-8208
▁unfamiliar	-8209
▁vegetation	-8210
▁acknowledge	-8211
▁beneficiary	-8212
▁disappeared	-8213
▁enhancement	-8214
▁highlighted	-8215
▁merchandise	-8216
▁qualitative	-8217
▁recognition	-8218
▁insufficient	-8219
▁investigator	-8220
▁philadelphia	-8221
▁satisfaction	-8222
▁transmission	-8223
▁configuration	-8224
▁distinguished	-8225
▁constitutional	-8226
80	-8227
sr	-8228
zo	-8229
eon	-8230
ges	-8231
how	-8232
ias	-8233
lyn	-8234
ois	-8235
oul	-8236
phe	-8237
roe	-8238
saw	-8239
spe	-8240
thy	-8241
ulg	-8242
▁53	-8243
▁54	-8244
▁59	-8245
▁88	-8246
▁99	-8247
▁dh	-8248
▁dw	-8249
▁mi	-8250
▁pt	-8251
anne	-8252
awak	-8253
away	-8254
cest	-8255
eted	-8256
etta	-8257
fman	-8258
imil	-8259
olas	-8260
oria	-8261
phis	-8262
riel	-8263
rust	-8264
sect	-8265
umin	-8266
utes	-8267
▁120	-8268
▁170	-8269
▁bak	-8270
▁bot	-8271
▁bri	-8272
▁bun	-8273
▁ced	-8274
▁dub	-8275
▁flu	-8276
▁kat	-8277
▁lak	-8278
▁lap	-8279
▁nas	-8280
▁rud	-8281
▁rug	-8282
▁sew	-8283
▁shu	-8284
▁upr	-8285
▁vet	-8286
▁yan	-8287
anyon	-8288
ateau	-8289
bally	-8290
eteen	-8291
itage	-8292
mandu	-8293
organ	-8294
payer	-8295
plane	-8296
print	-8297
storm	-8298
tical	-8299
umble	-8300
utral	-8301
▁1940	-8302
▁1952	-8303
▁1962	-8304
▁1982	-8305
▁aviv	-8306
▁bald	-8307
▁barn	-8308
▁bias	-8309
▁bolt	-8310
▁cale	-8311
▁frow	-8312
▁gram	-8313
▁hint	-8314
▁lyon	-8315
▁ment	-8316
▁mood	-8317
▁rude	-8318
▁shep	-8319
▁soap	-8320
▁stom	-8321
▁subc	-8322
▁toll	-8323
▁wake	-8324
▁wale	-8325
▁wher	-8326
▁wrap	-8327
bridge	-8328
burger	-8329
estyle	-8330
lastic	-8331
ounded	-8332
ursion	-8333
▁angle	-8334
▁brave	-8335
▁coord	-8336
▁ethic	-8337
▁faint	-8338
▁filed	-8339
▁idiot	-8340
▁imply	-8341
▁logic	-8342
▁metap	-8343
▁mound	-8344
▁nonex	-8345
▁panor	-8346
▁perce	-8347
▁plaid	-8348
▁ptole	-8349
▁ridge	-8350
▁rigid	-8351
▁siege	-8352
▁smell	-8353
▁spare	-8354
▁vinci	-8355
▁virus	-8356
▁yadda	-8357
itivity	-8358
unction	-8359
▁abbrev	-8360
▁backed	-8361
▁bounty	-8362
▁brazil	-8363
▁bundle	-8364
▁canyon	-8365
▁casual	-8366
▁compat	-8367
▁cooked	-8368
▁dagger	-8369
▁deemed	-8370
▁deeply	-8371
▁dispos	-8372
▁domain	-8373
▁franco	-8374
▁fundra	-8375
▁harlem	-8376
▁headed	-8377
▁hughes	-8378
▁laying	-8379
▁pestic	-8380
▁prompt	-8381
▁revers	-8382
▁spends	-8383
▁walker	-8384
▁warned	-8385
ointment	-8386
▁advised	-8387
▁alleged	-8388
▁arrival	-8389
▁chasing	-8390
▁coroner	-8391
▁delayed	-8392
▁descend	-8393
▁ethical	-8394
▁evolved	-8395
▁gabriel	-8396
▁halfway	-8397
▁hillary	-8398
▁lawsuit	-8399
▁leaning	-8400
▁lengthy	-8401
▁neutral	-8402
▁notably	-8403
▁recycle	-8404
▁seafood	-8405
▁settler	-8406
▁shifted	-8407
▁shouted	-8408
▁sounded	-8409
▁tractor	-8410
▁tuition	-8411
▁utilize	-8412
▁virtual	-8413
▁accompan	-8414
▁advocacy	-8415
▁airplane	-8416
▁analyzed	-8417
▁assassin	-8418
▁assembly	-8419
▁assuming	-8420
▁auditing	-8421
▁circular	-8422
▁compound	-8423
▁darkness	-8424
▁evolving	-8425
▁extravag	-8426
▁flexible	-8427
▁generous	-8428
▁heritage	-8429
▁hispanic	-8430
▁homeless	-8431
▁imagined	-8432
▁inquired	-8433
▁insisted	-8434
▁invested	-8435
▁malaysia	-8436
▁modeling	-8437
▁phenomen	-8438
▁prospect	-8439
▁referral	-8440
▁strictly	-8441
▁taxpayer	-8442
▁tendency	-8443
▁thirteen	-8444
▁variable	-8445
▁wherever	-8446
▁affection	-8447
▁automatic	-8448
▁belonging	-8449
▁catherine	-8450
▁commented	-8451
▁comparing	-8452
▁disregard	-8453
▁greenspan	-8454
▁lifestyle	-8455
▁narrative	-8456
▁orchestra	-8457
▁ownership	-8458
▁pesticide	-8459
▁predicted	-8460
▁projected	-8461
▁promotion	-8462
▁reluctant	-8463
▁singapore	-8464
▁staircase	-8465
▁stretched	-8466
▁wrestling	-8467
▁accountant	-8468
▁artificial	-8469
▁commentary	-8470
▁conducting	-8471
▁conspiracy	-8472
▁conviction	-8473
▁disability	-8474
▁equivalent	-8475
▁formentera	-8476
▁innovative	-8477
▁instructor	-8478
▁negotiated	-8479
▁perception	-8480
▁periodical	-8481
▁possession	-8482
▁reasonably	-8483
▁ridiculous	-8484
▁agriculture	-8485
▁controlling	-8486
▁distributed	-8487
▁electronics	-8488
▁furthermore	-8489
▁outstanding	-8490
▁permanently	-8491
▁procurement	-8492
▁shareholder	-8493
▁transformed	-8494
▁translation	-8495
▁unfortunate	-8496
▁unnecessary	-8497
▁availability	-8498
▁overwhelming	-8499
▁verification	-8500
jo	-8501
nd	-8502
po	-8503
ps	-8504
asm	-8505
boo	-8506
dam	-8507
eat	-8508
has	-8509
ido	-8510
iga	-8511
inf	-8512
not	-8513
owa	-8514
ran	-8515
ras	-8516
thm	-8517
zer	-8518
▁84	-8519
▁az	-8520
▁cp	-8521
▁hm	-8522
▁ry	-8523
anim	-8524
anor	-8525
atty	-8526
bell	-8527
bted	-8528
char	-8529
gent	-8530
imon	-8531
loyd	-8532
mate	-8533
quet	-8534
wart	-8535
▁abc	-8536
▁aic	-8537
▁arl	-8538
▁bik	-8539
▁biz	-8540
▁bru	-8541
▁edg	-8542
▁hug	-8543
▁mae	-8544
▁neo	-8545
▁raw	-8546
▁rod	-8547
▁rut	-8548
▁sne	-8549
▁tul	-8550
▁was	-8551
angle	-8552
armed	-8553
aving	-8554
erald	-8555
igger	-8556
neath	-8557
night	-8558
rychn	-8559
scrib	-8560
▁1930	-8561
▁1945	-8562
▁1953	-8563
▁1974	-8564
▁2017	-8565
▁bean	-8566
▁carl	-8567
▁chin	-8568
▁cruc	-8569
▁dorm	-8570
▁eric	-8571
▁ferv	-8572
▁fict	-8573
▁gisb	-8574
▁grab	-8575
▁haul	-8576
▁heir	-8577
▁hond	-8578
▁iowa	-8579
▁lamb	-8580
▁maus	-8581
▁murm	-8582
▁muss	-8583
▁nazi	-8584
▁pour	-8585
▁quar	-8586
▁reim	-8587
▁robe	-8588
▁rush	-8589
▁scor	-8590
▁spur	-8591
▁stan	-8592
▁stro	-8593
▁tuba	-8594
▁whip	-8595
dinand	-8596
iverse	-8597
seeing	-8598
wealth	-8599
▁alert	-8600
▁alike	-8601
▁bloom	-8602
▁bluff	-8603
▁brass	-8604
▁cedar	-8605
▁chuck	-8606
▁comic	-8607
▁craig	-8608
▁crete	-8609
▁eater	-8610
▁fleet	-8611
▁flute	-8612
▁hawai	-8613
▁infer	-8614
▁larry	-8615
▁layer	-8616
▁luxor	-8617
▁luxur	-8618
▁milan	-8619
▁pregn	-8620
▁reloc	-8621
▁sadly	-8622
▁snake	-8623
▁steam	-8624
▁stupa	-8625
▁swamp	-8626
▁tends	-8627
▁unple	-8628
▁witch	-8629
ceptive	-8630
related	-8631
troller	-8632
▁admire	-8633
▁ancest	-8634
▁bamboo	-8635
▁banana	-8636
▁carlos	-8637
▁cataly	-8638
▁cattle	-8639
▁clinic	-8640
▁cultiv	-8641
▁define	-8642
▁divide	-8643
▁explod	-8644
▁fierce	-8645
▁incons	-8646
▁lavish	-8647
▁mathem	-8648
▁mature	-8649
▁melaka	-8650
▁nestor	-8651
▁outlaw	-8652
▁posted	-8653
▁prepar	-8654
▁quoted	-8655
▁rebell	-8656
▁revolt	-8657
▁rhythm	-8658
▁scenic	-8659
▁sicily	-8660
▁sitcom	-8661
▁tomato	-8662
▁wilson	-8663
rychnine	-8664
▁adviser	-8665
▁allergy	-8666
▁annette	-8667
▁anxiety	-8668
▁balloon	-8669
▁bearded	-8670
▁browser	-8671
▁caution	-8672
▁chewing	-8673
▁complet	-8674
▁emerged	-8675
▁enlight	-8676
▁follows	-8677
▁glanced	-8678
▁granite	-8679
▁harvard	-8680
▁hotline	-8681
▁invader	-8682
▁laundry	-8683
▁lowered	-8684
▁mineral	-8685
▁monster	-8686
▁organic	-8687
▁outlook	-8688
▁payroll	-8689
▁readily	-8690
▁restore	-8691
▁reverse	-8692
▁revised	-8693
▁simpler	-8694
▁stuffed	-8695
▁superst	-8696
▁swedish	-8697
▁swiftly	-8698
▁tenness	-8699
▁toddler	-8700
▁trigger	-8701
▁uncover	-8702
▁arriving	-8703
▁asserted	-8704
▁centered	-8705
▁columbus	-8706
▁conquest	-8707
▁defender	-8708
▁demanded	-8709
▁earliest	-8710
▁edgerton	-8711
▁endeavor	-8712
▁entitled	-8713
▁ignoring	-8714
▁listened	-8715
▁mandrake	-8716
▁nineteen	-8717
▁olympics	-8718
▁overcome	-8719
▁petition	-8720
▁predomin	-8721
▁promised	-8722
▁reminder	-8723
▁shortage	-8724
▁sweeping	-8725
▁talented	-8726
▁universe	-8727
▁villager	-8728
▁wrestler	-8729
ologically	-8730
▁byzantium	-8731
▁commander	-8732
▁departure	-8733
▁displayed	-8734
▁evaluated	-8735
▁excursion	-8736
▁ferdinand	-8737
▁finishing	-8738
▁kathmandu	-8739
▁literally	-8740
▁objection	-8741
▁offensive	-8742
▁policeman	-8743
▁producing	-8744
▁renovated	-8745
▁requester	-8746
▁scattered	-8747
▁afterwards	-8748
▁bauerstein	-8749
▁collective	-8750
▁compromise	-8751
▁constraint	-8752
▁consultant	-8753
▁containing	-8754
▁phenomenon	-8755
▁prediction	-8756
▁preferable	-8757
▁registered	-8758
▁salamander	-8759
▁strychnine	-8760
▁underneath	-8761
▁unpleasant	-8762
▁attestation	-8763
▁calculation	-8764
▁collaborate	-8765
▁comptroller	-8766
▁consecutive	-8767
▁distinctive	-8768
▁encompasses	-8769
▁extensively	-8770
▁inspiration	-8771
▁intelligent	-8772
▁legislature	-8773
▁nationalist	-8774
▁overlooking	-8775
▁willingness	-8776
▁administered	-8777
▁commonwealth	-8778
▁dramatically	-8779
▁thoughtfully	-8780
▁determination	-8781
▁extraordinary	-8782
▁inappropriate	-8783
30	-8784
34	-8785
fp	-8786
wi	-8787
aco	-8788
add	-8789
cod	-8790
ela	-8791
hal	-8792
iar	-8793
log	-8794
oli	-8795
osa	-8796
phy	-8797
rak	-8798
ska	-8799
urf	-8800
wau	-8801
▁39	-8802
▁46	-8803
▁58	-8804
▁71	-8805
▁72	-8806
▁98	-8807
▁mt	-8808
▁sr	-8809
▁sz	-8810
▁ze	-8811
ador	-8812
agle	-8813
bler	-8814
boat	-8815
dale	-8816
gate	-8817
iard	-8818
ifle	-8819
inee	-8820
mine	-8821
ogun	-8822
oric	-8823
pany	-8824
qual	-8825
rous	-8826
scar	-8827
uten	-8828
zare	-8829
▁156	-8830
▁bin	-8831
▁cef	-8832
▁fwi	-8833
▁gim	-8834
▁hay	-8835
▁nan	-8836
▁nod	-8837
▁nun	-8838
▁riv	-8839
▁sid	-8840
▁tap	-8841
▁vel	-8842
arted	-8843
chair	-8844
eling	-8845
icity	-8846
namic	-8847
oleum	-8848
osity	-8849
ounce	-8850
ovitz	-8851
rical	-8852
scope	-8853
thian	-8854
worth	-8855
▁1968	-8856
▁1977	-8857
▁2013	-8858
▁abst	-8859
▁alph	-8860
▁bang	-8861
▁bent	-8862
▁berg	-8863
▁cane	-8864
▁clut	-8865
▁cott	-8866
▁diox	-8867
▁doom	-8868
▁dump	-8869
▁ease	-8870
▁fork	-8871
▁fred	-8872
▁gaze	-8873
▁hale	-8874
▁lazy	-8875
▁liqu	-8876
▁lump	-8877
▁mete	-8878
▁milo	-8879
▁nich	-8880
▁obse	-8881
▁pony	-8882
▁reed	-8883
▁reop	-8884
▁rust	-8885
▁sher	-8886
▁slam	-8887
▁sour	-8888
▁stor	-8889
▁tear	-8890
▁tire	-8891
▁unhe	-8892
▁unve	-8893
▁vern	-8894
▁wick	-8895
▁worn	-8896
advant	-8897
agogue	-8898
angelo	-8899
apping	-8900
atient	-8901
culiar	-8902
ennial	-8903
father	-8904
uccess	-8905
waukee	-8906
zzling	-8907
▁acted	-8908
▁activ	-8909
▁adher	-8910
▁aicpa	-8911
▁aired	-8912
▁aston	-8913
▁belly	-8914
▁biker	-8915
▁botan	-8916
▁buyer	-8917
▁cited	-8918
▁civic	-8919
▁crane	-8920
▁embra	-8921
▁excel	-8922
▁fairy	-8923
▁fatal	-8924
▁greco	-8925
▁incon	-8926
▁intim	-8927
▁newer	-8928
▁oxide	-8929
▁pharm	-8930
▁piano	-8931
▁retro	-8932
▁rubin	-8933
▁skept	-8934
▁spray	-8935
▁stere	-8936
▁taxed	-8937
▁unaff	-8938
▁wider	-8939
angular	-8940
icating	-8941
osexual	-8942
versely	-8943
▁banner	-8944
▁blouse	-8945
▁breeze	-8946
▁deeper	-8947
▁dental	-8948
▁donkey	-8949
▁gaming	-8950
▁geomet	-8951
▁hungry	-8952
▁hurdle	-8953
▁hypocr	-8954
▁insign	-8955
▁intake	-8956
▁invite	-8957
▁jardin	-8958
▁kicked	-8959
▁labour	-8960
▁landed	-8961
▁maroon	-8962
▁mystic	-8963
▁parole	-8964
▁pierre	-8965
▁pistol	-8966
▁potter	-8967
▁preval	-8968
▁regent	-8969
▁rubber	-8970
▁saddle	-8971
▁seized	-8972
▁sevent	-8973
▁shogun	-8974
▁sphere	-8975
▁struct	-8976
▁thrill	-8977
▁timber	-8978
▁tranqu	-8979
▁trauma	-8980
▁turner	-8981
▁unanim	-8982
▁unsure	-8983
▁update	-8984
▁wizard	-8985
▁worthy	-8986
▁yorker	-8987
▁alexand	-8988
▁altered	-8989
▁archive	-8990
▁assured	-8991
▁barrier	-8992
▁ceremon	-8993
▁circuit	-8994
▁counted	-8995
▁crafted	-8996
▁creates	-8997
▁cunning	-8998
▁dissent	-8999
▁dynamic	-9000
▁easiest	-9001
▁exposed	-9002
▁farming	-9003
▁filling	-9004
▁foolish	-9005
▁genetic	-9006
▁immense	-9007
▁indones	-9008
▁jogging	-9009
▁knocked	-9010
▁laborer	-9011
▁logical	-9012
▁lottery	-9013
▁magical	-9014
▁montana	-9015
▁nominee	-9016
▁pertain	-9017
▁pottery	-9018
▁propose	-9019
▁seattle	-9020
▁segment	-9021
▁skating	-9022
▁sympath	-9023
▁tornado	-9024
▁transit	-9025
▁tribute	-9026
▁viewing	-9027
▁warrant	-9028
stitution	-9029
uccessful	-9030
▁arkansas	-9031
▁assisted	-9032
▁backpack	-9033
▁chatting	-9034
▁commerce	-9035
▁complain	-9036
▁dudovitz	-9037
▁faithful	-9038
▁financed	-9039
▁globally	-9040
▁hardware	-9041
▁hawaiian	-9042
▁highland	-9043
▁interven	-9044
▁mallorca	-9045
▁mistress	-9046
▁overtime	-9047
▁pavement	-9048
▁peculiar	-9049
▁prepares	-9050
▁retained	-9051
▁scrutiny	-9052
▁securing	-9053
▁terribly	-9054
▁accompany	-9055
▁brilliant	-9056
▁childhood	-9057
▁container	-9058
▁declining	-9059
▁defensive	-9060
▁dependent	-9061
▁depiction	-9062
▁disadvant	-9063
▁discontin	-9064
▁emphasize	-9065
▁foreigner	-9066
▁gardening	-9067
▁genuinely	-9068
▁hamburger	-9069
▁hopefully	-9070
▁inconsist	-9071
▁maintains	-9072
▁mechanism	-9073
▁miniature	-9074
▁necessity	-9075
▁neglected	-9076
▁nightlife	-9077
▁promoting	-9078
▁recycling	-9079
▁snowboard	-9080
▁spectator	-9081
▁stability	-9082
▁synagogue	-9083
▁tennessee	-9084
▁wondering	-9085
▁accurately	-9086
▁anticipate	-9087
▁birthplace	-9088
▁discipline	-9089
▁explaining	-9090
▁flourished	-9091
▁permitting	-9092
▁philosophy	-9093
▁profitable	-9094
▁respondent	-9095
▁embarrassed	-9096
▁extravagant	-9097
▁fundraising	-9098
▁illustrates	-9099
▁incorporate	-9100
▁practically	-9101
▁probability	-9102
▁prospective	-9103
▁questioning	-9104
▁recognizing	-9105
▁streamlined	-9106
▁acknowledged	-9107
▁michelangelo	-9108
▁surprisingly	-9109
▁unsuccessful	-9110
▁characterized	-9111
▁specification	-9112
89	-9113
jm	-9114
vy	-9115
aga	-9116
ati	-9117
aug	-9118
aya	-9119
cia	-9120
iat	-9121
ika	-9122
oro	-9123
pta	-9124
rat	-9125
rie	-9126
rix	-9127
sps	-9128
urt	-9129
▁02	-9130
▁44	-9131
▁ie	-9132
▁wy	-9133
adio	-9134
bull	-9135
club	-9136
face	-9137
gage	-9138
gart	-9139
illo	-9140
iman	-9141
kest	-9142
laud	-9143
omic	-9144
othy	-9145
otte	-9146
pent	-9147
psed	-9148
pton	-9149
rade	-9150
uced	-9151
uman	-9152
vere	-9153
view	-9154
vity	-9155
zhou	-9156
▁160	-9157
▁175	-9158
▁cem	-9159
▁cum	-9160
▁dar	-9161
▁dum	-9162
▁ern	-9163
▁gee	-9164
▁gin	-9165
▁gri	-9166
▁gum	-9167
▁ile	-9168
▁jas	-9169
▁mol	-9170
▁nye	-9171
▁nyt	-9172
▁pud	-9173
▁sba	-9174
▁sna	-9175
▁tai	-9176
▁ups	-9177
▁vie	-9178
alous	-9179
anted	-9180
arium	-9181
astro	-9182
borne	-9183
matic	-9184
plate	-9185
ridge	-9186
ridor	-9187
▁1954	-9188
▁1981	-9189
▁adam	-9190
▁aunt	-9191
▁baff	-9192
▁balk	-9193
▁balt	-9194
▁bapt	-9195
▁bibl	-9196
▁bind	-9197
▁buzz	-9198
▁carn	-9199
▁dive	-9200
▁elli	-9201
▁flem	-9202
▁fuji	-9203
▁gour	-9204
▁guer	-9205
▁isle	-9206
▁jain	-9207
▁lamp	-9208
▁mast	-9209
▁polo	-9210
▁punk	-9211
▁quad	-9212
▁reun	-9213
▁salv	-9214
▁sejm	-9215
▁slip	-9216
▁stol	-9217
▁sull	-9218
▁sway	-9219
▁synd	-9220
▁tile	-9221
▁unin	-9222
▁unlo	-9223
▁usps	-9224
▁vacc	-9225
▁vamp	-9226
ashing	-9227
ective	-9228
idable	-9229
imeter	-9230
iosity	-9231
keeper	-9232
namese	-9233
taking	-9234
ulates	-9235
▁absor	-9236
▁ander	-9237
▁audio	-9238
▁backd	-9239
▁bened	-9240
▁berke	-9241
▁blend	-9242
▁bonus	-9243
▁bored	-9244
▁bride	-9245
▁clerk	-9246
▁comed	-9247
▁cruel	-9248
▁crypt	-9249
▁defer	-9250
▁depth	-9251
▁dough	-9252
▁dried	-9253
▁duomo	-9254
▁dusty	-9255
▁eagle	-9256
▁exped	-9257
▁gauve	-9258
▁hiker	-9259
▁horiz	-9260
▁illeg	-9261
▁inaug	-9262
▁juris	-9263
▁kelly	-9264
▁lithu	-9265
▁maria	-9266
▁mouse	-9267
▁patch	-9268
▁pearl	-9269
▁penet	-9270
▁phoen	-9271
▁react	-9272
▁salad	-9273
▁sheep	-9274
▁slack	-9275
▁spraw	-9276
▁tooth	-9277
▁uncom	-9278
▁yacht	-9279
factory	-9280
idation	-9281
itarian	-9282
umbling	-9283
▁acrose	-9284
▁agrees	-9285
▁argues	-9286
▁bandit	-9287
▁barber	-9288
▁barney	-9289
▁behalf	-9290
▁boxing	-9291
▁bubble	-9292
▁candle	-9293
▁castro	-9294
▁celtic	-9295
▁ceteau	-9296
▁correl	-9297
▁eatery	-9298
▁erotic	-9299
▁filing	-9300
▁firmly	-9301
▁gaulle	-9302
▁influx	-9303
▁kinder	-9304
▁louvre	-9305
▁marath	-9306
▁myster	-9307
▁plague	-9308
▁potato	-9309
▁poured	-9310
▁queens	-9311
▁rolled	-9312
▁scarce	-9313
▁scream	-9314
▁seller	-9315
▁severn	-9316
▁sovere	-9317
▁strait	-9318
▁strand	-9319
▁strive	-9320
▁tempor	-9321
lamation	-9322
ographic	-9323
▁aligned	-9324
▁analyze	-9325
▁applaud	-9326
▁austria	-9327
▁blowing	-9328
▁buffalo	-9329
▁builder	-9330
▁chateau	-9331
▁closest	-9332
▁consort	-9333
▁custody	-9334
▁disband	-9335
▁exploit	-9336
▁failing	-9337
▁frowned	-9338
▁happily	-9339
▁insurer	-9340
▁invoice	-9341
▁knowles	-9342
▁linking	-9343
▁marking	-9344
▁menorca	-9345
▁outline	-9346
▁prolong	-9347
▁renamed	-9348
▁renting	-9349
▁snapped	-9350
▁soluble	-9351
▁stewart	-9352
▁terrain	-9353
▁textile	-9354
▁trapped	-9355
▁tremend	-9356
▁tubacca	-9357
▁tuscany	-9358
▁walkway	-9359
▁washing	-9360
▁anderson	-9361
▁annoying	-9362
▁applying	-9363
▁attendee	-9364
▁backyard	-9365
▁belonged	-9366
▁breeding	-9367
▁charging	-9368
▁choosing	-9369
▁collapse	-9370
▁consumed	-9371
▁corridor	-9372
▁credited	-9373
▁emphasis	-9374
▁frontier	-9375
▁gigantic	-9376
▁graceful	-9377
▁kingston	-9378
▁limiting	-9379
▁metaphor	-9380
▁monarchy	-9381
▁outlined	-9382
▁palladio	-9383
▁precious	-9384
▁provence	-9385
▁spanning	-9386
▁staffing	-9387
▁troubled	-9388
▁upstairs	-9389
▁abundance	-9390
▁applicant	-9391
▁billboard	-9392
▁charlotte	-9393
▁coalition	-9394
▁collapsed	-9395
▁contested	-9396
▁convicted	-9397
▁countless	-9398
▁craftsman	-9399
▁expecting	-9400
▁fashioned	-9401
▁favorable	-9402
▁fisherman	-9403
▁hampshire	-9404
▁inventory	-9405
▁justified	-9406
▁luxurious	-9407
▁marvelous	-9408
▁mausoleum	-9409
▁milwaukee	-9410
▁prevented	-9411
▁respected	-9412
▁separated	-9413
▁specified	-9414
▁sustained	-9415
▁unchanged	-9416
▁unrelated	-9417
▁valuation	-9418
▁victorian	-9419
▁accordance	-9420
▁allegation	-9421
▁altogether	-9422
▁assignment	-9423
▁astronomer	-9424
▁attendance	-9425
▁bargaining	-9426
▁ceremonial	-9427
▁committing	-9428
▁complexity	-9429
▁continuous	-9430
▁contradict	-9431
▁deposition	-9432
▁describing	-9433
▁destroying	-9434
▁formidable	-9435
▁illustrate	-9436
▁journalism	-9437
▁liberation	-9438
▁overlooked	-9439
▁procedural	-9440
▁repeatedly	-9441
▁requesting	-9442
▁resembling	-9443
▁resolution	-9444
▁showcasing	-9445
▁vietnamese	-9446
▁waterfront	-9447
▁accompanied	-9448
▁accountable	-9449
▁affirmative	-9450
▁businessmen	-9451
▁christopher	-9452
▁comparative	-9453
▁composition	-9454
▁criticizing	-9455
▁demonstrate	-9456
▁discovering	-9457
▁encouraging	-9458
▁fashionable	-9459
▁financially	-9460
▁nationality	-9461
▁reservation	-9462
▁sensitivity	-9463
▁sightseeing	-9464
▁technically	-9465
▁transferred	-9466
▁breathtaking	-9467
▁commissioner	-9468
▁conventional	-9469
▁jurisdiction	-9470
▁meticulously	-9471
▁registration	-9472
▁unemployment	-9473
▁justification	-9474
▁predominantly	-9475
▁substantially	-9476
15	-9477
35	-9478
88	-9479
aj	-9480
dg	-9481
ho	-9482
kh	-9483
ms	-9484
sl	-9485
zi	-9486
chi	-9487
iac	-9488
lom	-9489
olo	-9490
ova	-9491
sse	-9492
tsa	-9493
vil	-9494
▁52	-9495
▁92	-9496
▁dj	-9497
▁fy	-9498
▁kr	-9499
▁lb	-9500
▁pb	-9501
▁uc	-9502
▁yu	-9503
aver	-9504
cano	-9505
ells	-9506
etan	-9507
foot	-9508
herd	-9509
iami	-9510
iani	-9511
ifix	-9512
iked	-9513
inqu	-9514
isle	-9515
mare	-9516
mill	-9517
otto	-9518
part	-9519
ptop	-9520
reau	-9521
robe	-9522
scra	-9523
umed	-9524
wife	-9525
word	-9526
▁184	-9527
▁asp	-9528
▁cbs	-9529
▁csr	-9530
▁eru	-9531
▁faa	-9532
▁gib	-9533
▁gla	-9534
▁kau	-9535
▁kes	-9536
▁kod	-9537
▁mwe	-9538
▁owe	-9539
▁pag	-9540
▁spy	-9541
▁sty	-9542
▁taj	-9543
▁tut	-9544
▁uso	-9545
▁voy	-9546
▁wag	-9547
▁wol	-9548
▁xiv	-9549
anian	-9550
bound	-9551
eding	-9552
elisk	-9553
ensor	-9554
erson	-9555
erted	-9556
ffman	-9557
fight	-9558
ilipp	-9559
imore	-9560
iyama	-9561
rable	-9562
reira	-9563
rimin	-9564
sense	-9565
state	-9566
urate	-9567
urity	-9568
urned	-9569
vised	-9570
▁1812	-9571
▁1900	-9572
▁1975	-9573
▁alab	-9574
▁beck	-9575
▁bold	-9576
▁butt	-9577
▁crew	-9578
▁drow	-9579
▁dune	-9580
▁eman	-9581
▁flee	-9582
▁ford	-9583
▁hail	-9584
▁holm	-9585
▁intr	-9586
▁khan	-9587
▁kirk	-9588
▁lana	-9589
▁lime	-9590
▁lott	-9591
▁mamm	-9592
▁mund	-9593
▁neph	-9594
▁noon	-9595
▁odds	-9596
▁oven	-9597
▁piet	-9598
▁pipe	-9599
▁prix	-9600
▁quay	-9601
▁reef	-9602
▁ritz	-9603
▁ruth	-9604
▁sabb	-9605
▁samp	-9606
▁shed	-9607
▁stab	-9608
▁stal	-9609
▁stim	-9610
▁tony	-9611
▁tram	-9612
▁tray	-9613
▁urge	-9614
▁vien	-9615
▁vish	-9616
▁wand	-9617
▁wend	-9618
allest	-9619
btedly	-9620
enheim	-9621
erving	-9622
estone	-9623
govern	-9624
ielder	-9625
illian	-9626
itious	-9627
ittany	-9628
levant	-9629
market	-9630
mental	-9631
ommate	-9632
roider	-9633
season	-9634
thouse	-9635
umbled	-9636
▁algar	-9637
▁apron	-9638
▁arist	-9639
▁arrog	-9640
▁baker	-9641
▁being	-9642
▁bland	-9643
▁booth	-9644
▁brake	-9645
▁brush	-9646
▁camel	-9647
▁cared	-9648
▁caval	-9649
▁crose	-9650
▁della	-9651
▁disse	-9652
▁drain	-9653
▁exile	-9654
▁fever	-9655
▁grill	-9656
▁gupta	-9657
▁henri	-9658
▁ignor	-9659
▁irrit	-9660
▁jimmy	-9661
▁joyce	-9662
▁kirby	-9663
▁mahal	-9664
▁maple	-9665
▁metro	-9666
▁miami	-9667
▁motif	-9668
▁nepdg	-9669
▁nhtsa	-9670
▁novak	-9671
▁oblig	-9672
▁oscar	-9673
▁palma	-9674
▁pause	-9675
▁pione	-9676
▁realm	-9677
▁repay	-9678
▁santo	-9679
▁scuba	-9680
▁shelf	-9681
▁sings	-9682
▁snork	-9683
▁spike	-9684
▁synth	-9685
▁tempt	-9686
▁theod	-9687
▁theor	-9688
▁thumb	-9689
▁toler	-9690
▁trent	-9691
▁undou	-9692
▁unity	-9693
▁zelon	-9694
angible	-9695
elihood	-9696
ificant	-9697
limited	-9698
scraper	-9699
▁advise	-9700
▁aerial	-9701
▁aggreg	-9702
▁andrea	-9703
▁autumn	-9704
▁ballet	-9705
▁beaten	-9706
▁caesar	-9707
▁caller	-9708
▁canvas	-9709
▁carrot	-9710
▁commod	-9711
▁copper	-9712
▁dancer	-9713
▁denver	-9714
▁devast	-9715
▁diplom	-9716
▁docket	-9717
▁endang	-9718
▁exempt	-9719
▁famine	-9720
▁freely	-9721
▁frozen	-9722
▁grande	-9723
▁hallow	-9724
▁hamlet	-9725
▁harmed	-9726
▁hosted	-9727
▁kannon	-9728
▁ladder	-9729
▁laptop	-9730
▁madame	-9731
▁marina	-9732
▁meteor	-9733
▁nathan	-9734
▁novice	-9735
▁oliver	-9736
▁openly	-9737
▁oppose	-9738
▁patent	-9739
▁posing	-9740
▁poster	-9741
▁quaint	-9742
▁raider	-9743
▁rental	-9744
▁segreg	-9745
▁sequel	-9746
▁sprink	-9747
▁tenure	-9748
▁theore	-9749
▁thrown	-9750
▁topham	-9751
▁undist	-9752
▁unused	-9753
▁violin	-9754
▁yankee	-9755
▁amenity	-9756
▁amongst	-9757
▁anthony	-9758
▁approve	-9759
▁barbara	-9760
▁bernini	-9761
▁bizarre	-9762
▁brewery	-9763
▁cartoon	-9764
▁categor	-9765
▁charlie	-9766
▁cleared	-9767
▁coaster	-9768
▁cobbled	-9769
▁compact	-9770
▁coordin	-9771
▁creator	-9772
▁curtain	-9773
▁dioxide	-9774
▁doorway	-9775
▁elastic	-9776
▁embrace	-9777
▁forming	-9778
▁fulfill	-9779
▁hoffman	-9780
▁insists	-9781
▁legally	-9782
▁mailing	-9783
▁obelisk	-9784
▁patriot	-9785
▁perched	-9786
▁philipp	-9787
▁phoenix	-9788
▁promulg	-9789
▁radical	-9790
▁rebuild	-9791
▁renewed	-9792
▁reorgan	-9793
▁replica	-9794
▁retreat	-9795
▁reveals	-9796
▁secular	-9797
▁servant	-9798
▁shallow	-9799
▁sponsor	-9800
▁stained	-9801
▁steeple	-9802
▁strateg	-9803
▁tension	-9804
▁unclear	-9805
▁vampire	-9806
▁volcano	-9807
▁wallace	-9808
▁winding	-9809
bursement	-9810
▁assessed	-9811
▁authored	-9812
▁avoiding	-9813
▁berkeley	-9814
▁bothered	-9815
▁brittany	-9816
▁canceled	-9817
▁carnival	-9818
▁carriage	-9819
▁catalyst	-9820
▁cautious	-9821
▁cheering	-9822
▁civilian	-9823
▁conclude	-9824
▁crucifix	-9825
▁deceased	-9826
▁deciding	-9827
▁downward	-9828
▁educated	-9829
▁elegance	-9830
▁emerging	-9831
▁examines	-9832
▁forehead	-9833
▁freezing	-9834
▁headline	-9835
▁hillside	-9836
▁landlord	-9837
▁lobbying	-9838
▁mandated	-9839
▁operated	-9840
▁preserve	-9841
▁protocol	-9842
▁recovery	-9843
▁residing	-9844
▁roommate	-9845
▁settling	-9846
▁shrugged	-9847
▁silently	-9848
▁smallest	-9849
▁stealing	-9850
▁thompson	-9851
▁assembled	-9852
▁assisting	-9853
▁baltimore	-9854
▁botanical	-9855
▁brazilian	-9856
▁cambridge	-9857
▁consensus	-9858
▁contacted	-9859
▁delicious	-9860
▁embroider	-9861
▁evaluator	-9862
▁exclaimed	-9863
▁excluding	-9864
▁exemption	-9865
▁extension	-9866
▁fictional	-9867
▁filmmaker	-9868
▁generator	-9869
▁gradually	-9870
▁integrate	-9871
▁isolation	-9872
▁legendary	-9873
▁limestone	-9874
▁malaysian	-9875
▁negotiate	-9876
▁nightclub	-9877
▁nightmare	-9878
▁obtaining	-9879
▁possessed	-9880
▁preceding	-9881
▁realistic	-9882
▁reasoning	-9883
▁rebellion	-9884
▁referring	-9885
▁resembles	-9886
▁screaming	-9887
▁searching	-9888
▁selecting	-9889
▁sentiment	-9890
▁sovereign	-9891
▁struggled	-9892
▁warehouse	-9893
▁biological	-9894
▁completion	-9895
▁comprehend	-9896
▁consisting	-9897
▁corruption	-9898
▁displaying	-9899
▁disposable	-9900
▁elasticity	-9901
▁federation	-9902
▁frustrated	-9903
▁indicating	-9904
▁inevitable	-9905
▁installing	-9906
▁instructed	-9907
▁irrelevant	-9908
▁monumental	-9909
▁mysterious	-9910
▁nationally	-9911
▁occurrence	-9912
▁positively	-9913
▁pronounced	-9914
▁protective	-9915
▁protestant	-9916
▁separation	-9917
▁skyscraper	-9918
▁strawberry	-9919
▁substitute	-9920
▁threatened	-9921
▁unaffected	-9922
▁worshipper	-9923
▁worthwhile	-9924
▁advancement	-9925
▁controversy	-9926
▁cooperation	-9927
▁distinguish	-9928
▁eligibility	-9929
▁identifying	-9930
▁imagination	-9931
▁interactive	-9932
▁investigate	-9933
▁nationalism	-9934
▁nonexchange	-9935
▁preparation	-9936
▁undoubtedly	-9937
▁worksharing	-9938
▁concentrated	-9939
▁evolutionary	-9940
▁illustration	-9941
▁prescription	-9942
▁archaeologist	-9943
▁insignificant	-9944
▁vulnerability	-9945
22	-9946
31	-9947
75	-9948
bu	-9949
eg	-9950
ki	-9951
ni	-9952
vd	-9953
vi	-9954
ws	-9955
yr	-9956
ars	-9957
ava	-9958
awn	-9959
bow	-9960
bye	-9961
car	-9962
fly	-9963
fra	-9964
gun	-9965
iki	-9966
imb	-9967
inn	-9968
mir	-9969
nik	-9970
oan	-9971
och	-9972
rer	-9973
roc	-9974
sky	-9975
uku	-9976
▁73	-9977
▁dc	-9978
▁eh	-9979
afel	-9980
aire	-9981
alan	-9982
anca	-9983
ando	-9984
andy	-9985
aska	-9986
atra	-9987
bast	-9988
bent	-9989
bock	-9990
chet	-9991
conn	-9992
emic	-9993
inis	-9994
ivan	-9995
iyre	-9996
izab	-9997
mere	-9998
nant	-9999
oker	-10000
olia	-10001
olta	-10002
ques	-10003
rell	-10004
thag	-10005
uana	-10006
utta	-10007
▁110	-10008
▁130	-10009
▁149	-10010
▁alc	-10011
▁bab	-10012
▁bee	-10013
▁bum	-10014
▁cul	-10015
▁dah	-10016
▁dit	-10017
▁dow	-10018
▁duo	-10019
▁egl	-10020
▁ein	-10021
▁enl	-10022
▁ggd	-10023
▁gio	-10024
▁hed	-10025
▁hut	-10026
▁hyd	-10027
▁kit	-10028
▁kle	-10029
▁kom	-10030
▁lyn	-10031
▁mys	-10032
▁nhh	-10033
▁oas	-10034
▁opm	-10035
▁rfp	-10036
▁ric	-10037
▁shi	-10038
▁sto	-10039
▁sue	-10040
▁tay	-10041
▁vat	-10042
▁who	-10043
▁yam	-10044
aceae	-10045
amine	-10046
araoh	-10047
arest	-10048
avian	-10049
child	-10050
comed	-10051
dling	-10052
etery	-10053
iator	-10054
isbee	-10055
onest	-10056
opard	-10057
owner	-10058
power	-10059
quito	-10060
table	-10061
ulent	-10062
unity	-10063
vable	-10064
zarek	-10065
▁1800	-10066
▁auto	-10067
▁beam	-10068
▁beau	-10069
▁bois	-10070
▁boom	-10071
▁brut	-10072
▁coll	-10073
▁cosm	-10074
▁damn	-10075
▁dare	-10076
▁deer	-10077
▁dent	-10078
▁deut	-10079
▁emig	-10080
▁flip	-10081
▁hank	-10082
▁inex	-10083
▁joan	-10084
▁knox	-10085
▁masc	-10086
▁mosc	-10087
▁muff	-10088
▁nema	-10089
▁oath	-10090
▁ombo	-10091
▁pest	-10092
▁pica	-10093
▁pind	-10094
▁plum	-10095
▁pomp	-10096
▁resc	-10097
▁ross	-10098
▁scam	-10099
▁sien	-10100
▁sore	-10101
▁thur	-10102
▁tore	-10103
▁tube	-10104
▁unav	-10105
▁unbe	-10106
▁unsp	-10107
▁unst	-10108
▁vila	-10109
▁vint	-10110
▁voth	-10111
▁warn	-10112
▁worm	-10113
▁zion	-10114
ailles	-10115
ainted	-10116
aneous	-10117
attery	-10118
ederal	-10119
esford	-10120
mother	-10121
olitan	-10122
orting	-10123
ouched	-10124
utical	-10125
veland	-10126
▁amiga	-10127
▁amuse	-10128
▁arise	-10129
▁aswan	-10130
▁basin	-10131
▁bloss	-10132
▁brace	-10133
▁brien	-10134
▁bronx	-10135
▁bruce	-10136
▁carav	-10137
▁chalk	-10138
▁chron	-10139
▁coinc	-10140
▁coron	-10141
▁creek	-10142
▁excav	-10143
▁exerc	-10144
▁guang	-10145
▁hyper	-10146
▁index	-10147
▁indul	-10148
▁inexp	-10149
▁iolta	-10150
▁islet	-10151
▁jerry	-10152
▁lifel	-10153
▁marie	-10154
▁midst	-10155
▁mural	-10156
▁naval	-10157
▁needy	-10158
▁niche	-10159
▁onion	-10160
▁osaka	-10161
▁perry	-10162
▁plotz	-10163
▁prado	-10164
▁purse	-10165
▁reich	-10166
▁roose	-10167
▁satan	-10168
▁scare	-10169
▁shame	-10170
▁shrub	-10171
▁sober	-10172
▁solic	-10173
▁spill	-10174
▁steak	-10175
▁stout	-10176
▁symph	-10177
▁terry	-10178
▁turin	-10179
▁unatt	-10180
▁urged	-10181
▁walsh	-10182
▁weary	-10183
▁wrist	-10184
fielder	-10185
izabeth	-10186
▁abrupt	-10187
▁alaska	-10188
▁allied	-10189
▁amidst	-10190
▁avoids	-10191
▁balkan	-10192
▁banker	-10193
▁barnes	-10194
▁barrel	-10195
▁barren	-10196
▁biased	-10197
▁breach	-10198
▁bypass	-10199
▁climax	-10200
▁conced	-10201
▁condem	-10202
▁deploy	-10203
▁devoid	-10204
▁eglise	-10205
▁embell	-10206
▁felipe	-10207
▁galile	-10208
▁gazing	-10209
▁ghetto	-10210
▁gifted	-10211
▁inflow	-10212
▁insect	-10213
▁lethal	-10214
▁magnet	-10215
▁mutual	-10216
▁pigeon	-10217
▁reconf	-10218
▁relies	-10219
▁respir	-10220
▁robber	-10221
▁rogers	-10222
▁serial	-10223
▁settle	-10224
▁sooner	-10225
▁stolen	-10226
▁tariff	-10227
▁taylor	-10228
▁therap	-10229
▁thread	-10230
▁timing	-10231
▁unjust	-10232
▁viking	-10233
▁walter	-10234
▁warmth	-10235
daughter	-10236
iniscent	-10237
▁adapted	-10238
▁admiral	-10239
▁amended	-10240
▁anthrop	-10241
▁applies	-10242
▁arguing	-10243
▁assumes	-10244
▁banking	-10245
▁catalog	-10246
▁clarify	-10247
▁convent	-10248
▁corrupt	-10249
▁cottage	-10250
▁cracked	-10251
▁cricket	-10252
▁crusade	-10253
▁declare	-10254
▁depicts	-10255
▁donated	-10256
▁energet	-10257
▁everton	-10258
▁feeding	-10259
▁fitting	-10260
▁frisbee	-10261
▁gambler	-10262
▁goodbye	-10263
▁grinned	-10264
▁habitat	-10265
▁harmful	-10266
▁harmony	-10267
▁herbert	-10268
▁honored	-10269
▁implies	-10270
▁intends	-10271
▁invaded	-10272
▁joining	-10273
▁laughed	-10274
▁lifting	-10275
▁lubbock	-10276
▁luckily	-10277
▁memphis	-10278
▁migrant	-10279
▁mindset	-10280
▁mixture	-10281
▁outrage	-10282
▁paradox	-10283
▁partial	-10284
▁pharaoh	-10285
▁planner	-10286
▁planted	-10287
▁ranging	-10288
▁resolve	-10289
▁revival	-10290
▁romance	-10291
▁scrutin	-10292
▁shopper	-10293
▁signing	-10294
▁skinned	-10295
▁somehow	-10296
▁sorbent	-10297
▁staring	-10298
▁startup	-10299
▁stomach	-10300
▁surfing	-10301
▁tallest	-10302
▁trustee	-10303
▁vintage	-10304
▁zealand	-10305
▁abundant	-10306
▁actively	-10307
▁alleyway	-10308
▁attracts	-10309
▁biblical	-10310
▁buddhism	-10311
▁calcutta	-10312
▁cemetery	-10313
▁cloister	-10314
▁comeback	-10315
▁commuter	-10316
▁confined	-10317
▁dictator	-10318
▁dissemin	-10319
▁elevated	-10320
▁enclosed	-10321
▁equation	-10322
▁eviction	-10323
▁explored	-10324
▁fujiwara	-10325
▁goldberg	-10326
▁homework	-10327
▁incurred	-10328
▁interpre	-10329
▁invented	-10330
▁laughing	-10331
▁marginal	-10332
▁mechanic	-10333
▁ministry	-10334
▁morality	-10335
▁mortgage	-10336
▁mosquito	-10337
▁muttered	-10338
▁nonsense	-10339
▁observes	-10340
▁outsider	-10341
▁overhead	-10342
▁printing	-10343
▁recalled	-10344
▁relieved	-10345
▁rollersk	-10346
▁searched	-10347
▁shepherd	-10348
▁shipping	-10349
▁spacious	-10350
▁spectrum	-10351
▁sullivan	-10352
▁thrilled	-10353
▁toxicity	-10354
▁uprising	-10355
▁vicinity	-10356
▁wardrobe	-10357
▁watering	-10358
▁welcomed	-10359
▁analyzing	-10360
▁argentine	-10361
▁attribute	-10362
▁balancing	-10363
▁benchmark	-10364
▁beresford	-10365
▁boyfriend	-10366
▁chemistry	-10367
▁cleveland	-10368
▁compelled	-10369
▁confusion	-10370
▁curiosity	-10371
▁dishonest	-10372
▁dominican	-10373
▁elizabeth	-10374
▁enhancing	-10375
▁excessive	-10376
▁expansive	-10377
▁forbidden	-10378
▁halloween	-10379
▁hesitated	-10380
▁incidence	-10381
▁innocence	-10382
▁inspector	-10383
▁inspiring	-10384
▁leisurely	-10385
▁liability	-10386
▁notorious	-10387
▁perceived	-10388
▁perennial	-10389
▁practiced	-10390
▁reception	-10391
▁revolving	-10392
▁slaughter	-10393
▁testament	-10394
▁uniformed	-10395
▁unlimited	-10396
▁welcoming	-10397
▁adequately	-10398
▁compelling	-10399
▁concluding	-10400
▁conversion	-10401
▁courthouse	-10402
▁decoration	-10403
▁descendant	-10404
▁disgusting	-10405
▁distracted	-10406
▁distribute	-10407
▁freshwater	-10408
▁inaccurate	-10409
▁indication	-10410
▁legitimate	-10411
▁mainstream	-10412
▁manchester	-10413
▁medication	-10414
▁microscope	-10415
▁occupation	-10416
▁offsetting	-10417
▁peacefully	-10418
▁presumably	-10419
▁reportedly	-10420
▁richardson	-10421
▁separately	-10422
▁similarity	-10423
▁suspicious	-10424
▁versailles	-10425
▁vulnerable	-10426
▁abbreviated	-10427
▁approaching	-10428
▁contributor	-10429
▁convenience	-10430
▁credibility	-10431
▁exaggerated	-10432
▁frustration	-10433
▁ideological	-10434
▁inexpensive	-10435
▁interviewed	-10436
▁manufacture	-10437
▁marketplace	-10438
▁neighboring	-10439
▁photography	-10440
▁proposition	-10441
▁reminiscent	-10442
▁temporarily	-10443
▁threatening	-10444
▁transported	-10445
▁undisturbed	-10446
▁accidentally	-10447
▁accompanying	-10448
▁accomplished	-10449
▁consequently	-10450
▁demonstrates	-10451
▁discontinued	-10452
▁entertaining	-10453
▁psychologist	-10454
▁questionable	-10455
▁transforming	-10456
▁alternatively	-10457
▁collaborative	-10458
▁governmentwide	-10459
48	-10460
71	-10461
hu	-10462
nu	-10463
py	-10464
aci	-10465
cel	-10466
cut	-10467
dar	-10468
die	-10469
esh	-10470
hem	-10471
hma	-10472
hru	-10473
ids	-10474
idy	-10475
iii	-10476
izz	-10477
kes	-10478
lav	-10479
lic	-10480
mel	-10481
nai	-10482
obi	-10483
oku	-10484
pul	-10485
rem	-10486
san	-10487
see	-10488
sem	-10489
sia	-10490
sis	-10491
ski	-10492
uch	-10493
una	-10494
uru	-10495
ves	-10496
zio	-10497
▁42	-10498
▁51	-10499
▁91	-10500
▁ff	-10501
▁lt	-10502
▁mg	-10503
▁wp	-10504
atur	-10505
bank	-10506
cock	-10507
eria	-10508
fore	-10509
gedy	-10510
ghal	-10511
held	-10512
ifer	-10513
ilyn	-10514
ippi	-10515
ises	-10516
ives	-10517
izer	-10518
jack	-10519
liss	-10520
maid	-10521
olds	-10522
omon	-10523
oped	-10524
oved	-10525
owed	-10526
ptor	-10527
rame	-10528
reen	-10529
rina	-10530
roit	-10531
rome	-10532
shop	-10533
sses	-10534
trap	-10535
uala	-10536
uder	-10537
udge	-10538
ulum	-10539
unal	-10540
urdy	-10541
velt	-10542
went	-10543
wich	-10544
zech	-10545
▁900	-10546
▁abd	-10547
▁ail	-10548
▁apt	-10549
▁arn	-10550
▁cbo	-10551
▁cia	-10552
▁dvd	-10553
▁eil	-10554
▁eis	-10555
▁ell	-10556
▁fry	-10557
▁gsa	-10558
▁hem	-10559
▁hhs	-10560
▁hil	-10561
▁irr	-10562
▁jag	-10563
▁jen	-10564
▁kef	-10565
▁lil	-10566
▁meg	-10567
▁nfl	-10568
▁ost	-10569
▁pel	-10570
▁pew	-10571
▁pie	-10572
▁raz	-10573
▁wre	-10574
achev	-10575
bourg	-10576
cking	-10577
ement	-10578
enade	-10579
endum	-10580
ested	-10581
estry	-10582
frapp	-10583
horus	-10584
igoth	-10585
irect	-10586
jamin	-10587
leton	-10588
liked	-10589
nikov	-10590
omphe	-10591
ourse	-10592
owitz	-10593
quest	-10594
track	-10595
wartz	-10596
▁1500	-10597
▁1957	-10598
▁1964	-10599
▁3000	-10600
▁abra	-10601
▁adul	-10602
▁aimd	-10603
▁alic	-10604
▁andy	-10605
▁aver	-10606
▁avon	-10607
▁bosn	-10608
▁bosp	-10609
▁bulk	-10610
▁chat	-10611
▁chip	-10612
▁clay	-10613
▁clip	-10614
▁colt	-10615
▁doll	-10616
▁dupl	-10617
▁earl	-10618
▁epid	-10619
▁feud	-10620
▁fitz	-10621
▁giul	-10622
▁goat	-10623
▁gorb	-10624
▁grim	-10625
▁gust	-10626
▁hagg	-10627
▁hawk	-10628
▁heap	-10629
▁info	-10630
▁jerk	-10631
▁jock	-10632
▁jugg	-10633
▁kite	-10634
▁kurd	-10635
▁lace	-10636
▁lens	-10637
▁lied	-10638
▁mant	-10639
▁medi	-10640
▁merr	-10641
▁mold	-10642
▁mole	-10643
▁nass	-10644
▁obey	-10645
▁pete	-10646
▁pity	-10647
▁quer	-10648
▁raft	-10649
▁reck	-10650
▁rect	-10651
▁rink	-10652
▁sail	-10653
▁scra	-10654
▁scri	-10655
▁shah	-10656
▁sled	-10657
▁slee	-10658
▁slot	-10659
▁sunb	-10660
▁unim	-10661
▁vert	-10662
abited	-10663
anging	-10664
consin	-10665
forced	-10666
igible	-10667
ionary	-10668
master	-10669
ostyle	-10670
reneur	-10671
scious	-10672
semble	-10673
speare	-10674
sworth	-10675
▁adole	-10676
▁adore	-10677
▁allot	-10678
▁astro	-10679
▁boxer	-10680
▁brian	-10681
▁brink	-10682
▁capit	-10683
▁ceter	-10684
▁cigar	-10685
▁clown	-10686
▁costa	-10687
▁czech	-10688
▁delos	-10689
▁dereg	-10690
▁dylan	-10691
▁elite	-10692
▁embod	-10693
▁enlar	-10694
▁feder	-10695
▁gerth	-10696
▁goose	-10697
▁grows	-10698
▁handy	-10699
▁himal	-10700
▁humid	-10701
▁illum	-10702
▁impul	-10703
▁jason	-10704
▁juice	-10705
▁kuala	-10706
▁lemon	-10707
▁marco	-10708
▁moore	-10709
▁nagas	-10710
▁ninth	-10711
▁offsh	-10712
▁overn	-10713
▁quart	-10714
▁query	-10715
▁rifle	-10716
▁rumor	-10717
▁safer	-10718
▁salon	-10719
▁seize	-10720
▁semin	-10721
▁senor	-10722
▁setup	-10723
▁shack	-10724
▁shiva	-10725
▁siena	-10726
▁solve	-10727
▁spite	-10728
▁stack	-10729
▁stain	-10730
▁stern	-10731
▁strap	-10732
▁tenth	-10733
▁torch	-10734
▁venus	-10735
▁wheat	-10736
▁wield	-10737
iliated	-10738
issippi	-10739
jection	-10740
utenant	-10741
▁aiming	-10742
▁ascend	-10743
▁asthma	-10744
▁austin	-10745
▁backup	-10746
▁bikini	-10747
▁cliche	-10748
▁coloss	-10749
▁colour	-10750
▁confed	-10751
▁creole	-10752
▁deadly	-10753
▁defect	-10754
▁discre	-10755
▁dispar	-10756
▁dragon	-10757
▁entrep	-10758
▁filmed	-10759
▁fondue	-10760
▁franch	-10761
▁glance	-10762
▁heroin	-10763
▁hunger	-10764
▁justin	-10765
▁latino	-10766
▁lonely	-10767
▁lumpur	-10768
▁marine	-10769
▁memoir	-10770
▁miller	-10771
▁moscow	-10772
▁mughal	-10773
▁murray	-10774
▁nephew	-10775
▁newton	-10776
▁packet	-10777
▁parker	-10778
▁patric	-10779
▁physic	-10780
▁ponder	-10781
▁powder	-10782
▁redeem	-10783
▁render	-10784
▁resent	-10785
▁saddam	-10786
▁safely	-10787
▁sandal	-10788
▁slowed	-10789
▁spiral	-10790
▁staged	-10791
▁sticky	-10792
▁stitch	-10793
▁subgen	-10794
▁suited	-10795
▁tackle	-10796
▁tended	-10797
▁timely	-10798
▁tragic	-10799
▁tribal	-10800
▁vienna	-10801
▁vishnu	-10802
▁abandon	-10803
▁alabama	-10804
▁algarve	-10805
▁amphith	-10806
▁analogy	-10807
▁audited	-10808
▁beloved	-10809
▁bernard	-10810
▁blessed	-10811
▁chennai	-10812
▁clarity	-10813
▁clinger	-10814
▁cockpit	-10815
▁courage	-10816
▁crowned	-10817
▁discret	-10818
▁disturb	-10819
▁edifice	-10820
▁empower	-10821
▁enables	-10822
▁fertile	-10823
▁greeted	-10824
▁guiding	-10825
▁handing	-10826
▁harvest	-10827
▁holland	-10828
▁inquest	-10829
▁jealous	-10830
▁jeffrey	-10831
▁kaufman	-10832
▁kicking	-10833
▁marilyn	-10834
▁powered	-10835
▁premise	-10836
▁prevail	-10837
▁printer	-10838
▁priorit	-10839
▁pursuit	-10840
▁quarrel	-10841
▁railing	-10842
▁reduces	-10843
▁refrain	-10844
▁refugee	-10845
▁remnant	-10846
▁renewal	-10847
▁sarawak	-10848
▁satisfy	-10849
▁serbian	-10850
▁sibling	-10851
▁sorting	-10852
▁storage	-10853
▁teenage	-10854
▁tragedy	-10855
▁undergo	-10856
▁vatican	-10857
▁vividly	-10858
▁alicante	-10859
▁balearic	-10860
▁barefoot	-10861
▁benjamin	-10862
▁broadway	-10863
▁cassette	-10864
▁catastro	-10865
▁cheerful	-10866
▁cocktail	-10867
▁counting	-10868
▁deadline	-10869
▁delicate	-10870
▁deserves	-10871
▁disabled	-10872
▁disclose	-10873
▁disliked	-10874
▁dominant	-10875
▁embraced	-10876
▁ensemble	-10877
▁farmwork	-10878
▁ferreira	-10879
▁floating	-10880
▁founding	-10881
▁fourteen	-10882
▁glorious	-10883
▁guardian	-10884
▁inconven	-10885
▁intimate	-10886
▁marathon	-10887
▁maximize	-10888
▁meantime	-10889
▁mistaken	-10890
▁monetary	-10891
▁nagasaki	-10892
▁nicholas	-10893
▁paradise	-10894
▁partisan	-10895
▁portugal	-10896
▁pregnant	-10897
▁profound	-10898
▁refusing	-10899
▁reopened	-10900
▁retailer	-10901
▁sanction	-10902
▁schwartz	-10903
▁squadron	-10904
▁stronger	-10905
▁swinging	-10906
▁tapestry	-10907
▁theorist	-10908
▁touching	-10909
▁tribunal	-10910
▁triomphe	-10911
▁unveiled	-10912
▁validity	-10913
▁vigorous	-10914
▁visigoth	-10915
▁affecting	-10916
▁aggregate	-10917
▁alcoholic	-10918
▁alternate	-10919
▁amusement	-10920
▁balearics	-10921
▁barbarian	-10922
▁bosphorus	-10923
▁budgeting	-10924
▁catalogue	-10925
▁celebrate	-10926
▁commenced	-10927
▁confusing	-10928
▁considers	-10929
▁desperate	-10930
▁disappear	-10931
▁disbanded	-10932
▁electoral	-10933
▁enlighten	-10934
▁evidently	-10935
▁exhausted	-10936
▁extending	-10937
▁geometric	-10938
▁goldfrapp	-10939
▁gorbachev	-10940
▁hazardous	-10941
▁hypocrisy	-10942
▁hypostyle	-10943
▁inflation	-10944
▁launching	-10945
▁magnitude	-10946
▁promising	-10947
▁quarterly	-10948
▁retention	-10949
▁roosevelt	-10950
▁sandstone	-10951
▁seemingly	-10952
▁sentenced	-10953
▁seventeen	-10954
▁skeptical	-10955
▁switching	-10956
▁triumphal	-10957
▁uncomfort	-10958
▁undergone	-10959
▁violation	-10960
▁whispered	-10961
▁wisconsin	-10962
▁witnessed	-10963
▁conceptual	-10964
▁contingent	-10965
▁dedication	-10966
▁deficiency	-10967
▁encourages	-10968
▁enthusiasm	-10969
▁explicitly	-10970
▁grandchild	-10971
▁harassment	-10972
▁healthcare	-10973
▁homosexual	-10974
▁identifies	-10975
▁kindergart	-10976
▁lewisville	-10977
▁lieutenant	-10978
▁likelihood	-10979
▁managerial	-10980
▁mathematic	-10981
▁mechanical	-10982
▁mentioning	-10983
▁metropolis	-10984
▁midfielder	-10985
▁missionary	-10986
▁physically	-10987
▁presidency	-10988
▁referendum	-10989
▁underlying	-10990
▁withdrawal	-10991
▁wordsworth	-10992
▁commemorate	-10993
▁congressman	-10994
▁frightening	-10995
▁frustrating	-10996
▁heavyweight	-10997
▁ineffective	-10998
▁mississippi	-10999
▁predictable	-11000
▁sentimental	-11001
▁shakespeare	-11002
▁speculation	-11003
▁supervision	-11004
▁unconscious	-11005
▁consolidated	-11006
▁continuously	-11007
▁deliberately	-11008
▁disadvantage	-11009
▁entrepreneur	-11010
▁quantitative	-11011
▁screenwriter	-11012
▁skateboarder	-11013
▁sufficiently	-11014
▁authorization	-11015
▁consolidation	-11016
▁fortification	-11017
▁independently	-11018
▁psychological	-11019
▁reconstructed	-11020
14	-11021
38	-11022
99	-11023
hy	-11024
qi	-11025
sn	-11026
yp	-11027
aro	-11028
bid	-11029
cha	-11030
edo	-11031
ees	-11032
enc	-11033
hov	-11034
ibu	-11035
irc	-11036
kef	-11037
lee	-11038
oka	-11039
pro	-11040
pty	-11041
pur	-11042
rah	-11043
shu	-11044
sso	-11045
ube	-11046
udi	-11047
uty	-11048
vic	-11049
wed	-11050
xos	-11051
▁66	-11052
▁ai	-11053
▁ay	-11054
▁fc	-11055
▁ig	-11056
achi	-11057
adas	-11058
arat	-11059
ardt	-11060
athy	-11061
atis	-11062
ayed	-11063
chun	-11064
cipe	-11065
cott	-11066
duct	-11067
elin	-11068
emed	-11069
endo	-11070
enge	-11071
erie	-11072
esth	-11073
geny	-11074
hrer	-11075
iley	-11076
iped	-11077
irer	-11078
itis	-11079
mont	-11080
odle	-11081
oust	-11082
paid	-11083
pipe	-11084
ptic	-11085
rium	-11086
step	-11087
uber	-11088
witz	-11089
ypso	-11090
▁166	-11091
▁401	-11092
▁605	-11093
▁bbc	-11094
▁dak	-11095
▁dri	-11096
▁dur	-11097
▁err	-11098
▁etc	-11099
▁fax	-11100
▁gps	-11101
▁kam	-11102
▁kan	-11103
▁koh	-11104
▁koz	-11105
▁lor	-11106
▁max	-11107
▁mcg	-11108
▁mul	-11109
▁orb	-11110
▁oro	-11111
▁rio	-11112
▁sip	-11113
▁sop	-11114
▁stu	-11115
adequ	-11116
arity	-11117
asted	-11118
banes	-11119
canic	-11120
cture	-11121
ffiti	-11122
final	-11123
frame	-11124
heric	-11125
ilton	-11126
inary	-11127
iping	-11128
lands	-11129
limin	-11130
mouth	-11131
obics	-11132
oline	-11133
ommun	-11134
oulos	-11135
ourne	-11136
rilla	-11137
usage	-11138
usive	-11139
vance	-11140
▁1400	-11141
▁1910	-11142
▁1917	-11143
▁1921	-11144
▁1924	-11145
▁1934	-11146
▁1936	-11147
▁1939	-11148
▁1942	-11149
▁1948	-11150
▁1951	-11151
▁1959	-11152
▁1967	-11153
▁2020	-11154
▁acce	-11155
▁ador	-11156
▁akin	-11157
▁anna	-11158
▁ante	-11159
▁arid	-11160
▁asks	-11161
▁atop	-11162
▁bred	-11163
▁brun	-11164
▁casc	-11165
▁chai	-11166
▁chor	-11167
▁clam	-11168
▁cruz	-11169
▁dies	-11170
▁dual	-11171
▁duch	-11172
▁emin	-11173
▁erie	-11174
▁flam	-11175
▁flea	-11176
▁foss	-11177
▁germ	-11178
▁gild	-11179
▁glen	-11180
▁grat	-11181
▁hath	-11182
▁isab	-11183
▁ivan	-11184
▁juda	-11185
▁keen	-11186
▁kerr	-11187
▁kurt	-11188
▁lisa	-11189
▁loun	-11190
▁mane	-11191
▁mang	-11192
▁mare	-11193
▁marg	-11194
▁maur	-11195
▁moss	-11196
▁mumm	-11197
▁nail	-11198
▁newt	-11199
▁oval	-11200
▁owns	-11201
▁plug	-11202
▁pooh	-11203
▁rast	-11204
▁reno	-11205
▁rita	-11206
▁sain	-11207
▁sang	-11208
▁seal	-11209
▁shab	-11210
▁sofa	-11211
▁soup	-11212
▁styl	-11213
▁tara	-11214
▁tate	-11215
▁trot	-11216
▁unsc	-11217
▁wald	-11218
▁whit	-11219
▁woke	-11220
achute	-11221
apable	-11222
atical	-11223
atural	-11224
braska	-11225
cester	-11226
eliest	-11227
ifinal	-11228
igious	-11229
istics	-11230
ituted	-11231
izable	-11232
lanade	-11233
looker	-11234
repair	-11235
sburgh	-11236
spring	-11237
stated	-11238
▁acute	-11239
▁allev	-11240
▁ample	-11241
▁appra	-11242
▁armor	-11243
▁attic	-11244
▁awake	-11245
▁blair	-11246
▁brock	-11247
▁camer	-11248
▁camii	-11249
▁chaos	-11250
▁cooky	-11251
▁coven	-11252
▁diagn	-11253
▁dwind	-11254
▁dyson	-11255
▁elche	-11256
▁fidel	-11257
▁forfe	-11258
▁ganga	-11259
▁gauge	-11260
▁grape	-11261
▁grate	-11262
▁honda	-11263
▁infin	-11264
▁intox	-11265
▁invar	-11266
▁jamie	-11267
▁kafel	-11268
▁kathy	-11269
▁kells	-11270
▁lever	-11271
▁lloyd	-11272
▁marit	-11273
▁mason	-11274
▁milit	-11275
▁mitig	-11276
▁naxos	-11277
▁outre	-11278
▁overd	-11279
▁oxley	-11280
▁param	-11281
▁paste	-11282
▁poker	-11283
▁postp	-11284
▁racer	-11285
▁recol	-11286
▁redes	-11287
▁remov	-11288
▁reson	-11289
▁rodeo	-11290
▁samos	-11291
▁sarah	-11292
▁screw	-11293
▁shang	-11294
▁sided	-11295
▁sider	-11296
▁skier	-11297
▁slept	-11298
▁stare	-11299
▁stein	-11300
▁stole	-11301
▁szary	-11302
▁taxon	-11303
▁thief	-11304
▁titan	-11305
▁ultra	-11306
▁volat	-11307
▁woven	-11308
inerary	-11309
lington	-11310
orously	-11311
osition	-11312
renched	-11313
section	-11314
▁adhere	-11315
▁aiding	-11316
▁amazed	-11317
▁apolog	-11318
▁artery	-11319
▁atomic	-11320
▁bombay	-11321
▁caring	-11322
▁cement	-11323
▁chilly	-11324
▁cloudy	-11325
▁coffin	-11326
▁compel	-11327
▁cooler	-11328
▁czarek	-11329
▁dakota	-11330
▁deduct	-11331
▁deputy	-11332
▁durham	-11333
▁embark	-11334
▁ending	-11335
▁ernest	-11336
▁fringe	-11337
▁harris	-11338
▁holmes	-11339
▁humble	-11340
▁insane	-11341
▁judged	-11342
▁junior	-11343
▁lareau	-11344
▁lehrer	-11345
▁maison	-11346
▁makeup	-11347
▁malibu	-11348
▁marker	-11349
▁mining	-11350
▁minnow	-11351
▁misuse	-11352
▁monroe	-11353
▁murphy	-11354
▁norway	-11355
▁nostal	-11356
▁pagoda	-11357
▁parked	-11358
▁partly	-11359
▁paused	-11360
▁peaked	-11361
▁penang	-11362
▁petite	-11363
▁puddle	-11364
▁recipe	-11365
▁reilly	-11366
▁ridden	-11367
▁rockef	-11368
▁rooted	-11369
▁rugged	-11370
▁ruling	-11371
▁salmon	-11372
▁shovel	-11373
▁sighed	-11374
▁sparse	-11375
▁speaks	-11376
▁splash	-11377
▁stabil	-11378
▁stored	-11379
▁taiwan	-11380
▁taller	-11381
▁transc	-11382
▁triple	-11383
▁unprep	-11384
▁upward	-11385
▁varies	-11386
▁verify	-11387
▁virtue	-11388
liminary	-11389
▁abraham	-11390
▁ambient	-11391
▁ashamed	-11392
▁asserts	-11393
▁baptist	-11394
▁bathing	-11395
▁bayliss	-11396
▁bosnian	-11397
▁brandon	-11398
▁calypso	-11399
▁cavalry	-11400
▁citadel	-11401
▁closure	-11402
▁crushed	-11403
▁depress	-11404
▁detroit	-11405
▁diction	-11406
▁dismant	-11407
▁doubled	-11408
▁eagerly	-11409
▁extends	-11410
▁feather	-11411
▁firearm	-11412
▁flanked	-11413
▁flemish	-11414
▁flytrap	-11415
▁folding	-11416
▁forcing	-11417
▁garment	-11418
▁gradual	-11419
▁hallway	-11420
▁handful	-11421
▁happier	-11422
▁hosting	-11423
▁ideally	-11424
▁impover	-11425
▁inadequ	-11426
▁iranian	-11427
▁jeopard	-11428
▁keswick	-11429
▁lighter	-11430
▁longest	-11431
▁lookout	-11432
▁midwest	-11433
▁muffler	-11434
▁optical	-11435
▁pageant	-11436
▁painful	-11437
▁parkway	-11438
▁pathway	-11439
▁picasso	-11440
▁placing	-11441
▁plateau	-11442
▁prefers	-11443
▁pressed	-11444
▁pumpkin	-11445
▁puzzled	-11446
▁rampart	-11447
▁relinqu	-11448
▁relying	-11449
▁reprodu	-11450
▁resided	-11451
▁revenge	-11452
▁revered	-11453
▁sabbath	-11454
▁sausage	-11455
▁sending	-11456
▁spotted	-11457
▁stating	-11458
▁switzer	-11459
▁thunder	-11460
▁toronto	-11461
▁torrent	-11462
▁upright	-11463
▁vaccine	-11464
▁ventura	-11465
▁whoever	-11466
▁wyoming	-11467
ighthouse	-11468
▁abruptly	-11469
▁absorbed	-11470
▁abstract	-11471
▁accessed	-11472
▁adopting	-11473
▁aerobics	-11474
▁altitude	-11475
▁ascended	-11476
▁bleeding	-11477
▁brightly	-11478
▁brooklyn	-11479
▁catching	-11480
▁chestnut	-11481
▁claiming	-11482
▁clearing	-11483
▁comedian	-11484
▁dazzling	-11485
▁defended	-11486
▁deserved	-11487
▁download	-11488
▁dropping	-11489
▁duration	-11490
▁efficacy	-11491
▁exploded	-11492
▁flourish	-11493
▁gleaming	-11494
▁graffiti	-11495
▁greeting	-11496
▁groening	-11497
▁guessing	-11498
▁harmless	-11499
▁hinduism	-11500
▁humanity	-11501
▁incompet	-11502
▁interfer	-11503
▁isabella	-11504
▁lakeland	-11505
▁lowering	-11506
▁majestic	-11507
▁midnight	-11508
▁nebraska	-11509
▁netscape	-11510
▁onlooker	-11511
▁operator	-11512
▁oriental	-11513
▁pentagon	-11514
▁portland	-11515
▁prestige	-11516
▁reliance	-11517
▁removing	-11518
▁sampling	-11519
▁sandwich	-11520
▁sarbanes	-11521
▁secluded	-11522
▁shifting	-11523
▁sidereal	-11524
▁steering	-11525
▁sticking	-11526
▁stranger	-11527
▁supplied	-11528
▁survival	-11529
▁symphony	-11530
▁threaten	-11531
▁thriller	-11532
▁tracking	-11533
▁traverse	-11534
▁unlocked	-11535
▁volcanic	-11536
▁waterway	-11537
▁woodward	-11538
▁youngest	-11539
ographical	-11540
▁afterward	-11541
▁appliance	-11542
▁argentina	-11543
▁attracted	-11544
▁breakdown	-11545
▁budgetary	-11546
▁changchun	-11547
▁cherished	-11548
▁communism	-11549
▁concludes	-11550
▁designing	-11551
▁differing	-11552
▁disagreed	-11553
▁discrimin	-11554
▁disrepair	-11555
▁emergence	-11556
▁energetic	-11557
▁enjoyment	-11558
▁esplanade	-11559
▁flowering	-11560
▁fortified	-11561
▁fulfilled	-11562
▁guangzhou	-11563
▁honorable	-11564
▁horseback	-11565
▁inaugural	-11566
▁incapable	-11567
▁injection	-11568
▁instantly	-11569
▁itinerary	-11570
▁jefferson	-11571
▁kissinger	-11572
▁lithuania	-11573
▁municipal	-11574
▁offspring	-11575
▁overnight	-11576
▁palestine	-11577
▁parachute	-11578
▁persisted	-11579
▁persuaded	-11580
▁pointless	-11581
▁privately	-11582
▁processed	-11583
▁promenade	-11584
▁publisher	-11585
▁recession	-11586
▁semifinal	-11587
▁stringent	-11588
▁sultanate	-11589
▁suspended	-11590
▁thrilling	-11591
▁unanimous	-11592
▁uncovered	-11593
▁violently	-11594
▁adolescent	-11595
▁alcoholism	-11596
▁alteration	-11597
▁challenged	-11598
▁consulting	-11599
▁convincing	-11600
▁correction	-11601
▁dependence	-11602
▁exercising	-11603
▁frightened	-11604
▁governance	-11605
▁greenhouse	-11606
▁hypothesis	-11607
▁indonesian	-11608
▁inflatable	-11609
▁invitation	-11610
▁kafelnikov	-11611
▁legislator	-11612
▁nonfederal	-11613
▁permission	-11614
▁presenting	-11615
▁recreation	-11616
▁refreshing	-11617
▁respective	-11618
▁simplicity	-11619
▁summarized	-11620
▁translated	-11621
▁victorious	-11622
▁wheelchair	-11623
▁appointment	-11624
▁atmospheric	-11625
▁calculating	-11626
▁crucifixion	-11627
▁differently	-11628
▁embellished	-11629
▁farmworkers	-11630
▁inefficient	-11631
▁installment	-11632
▁overwhelmed	-11633
▁preliminary	-11634
▁problematic	-11635
▁promotional	-11636
▁reclamation	-11637
▁respiratory	-11638
▁rockefeller	-11639
▁sovereignty	-11640
▁switzerland	-11641
▁theoretical	-11642
▁understands	-11643
▁appreciation	-11644
▁broadcasting	-11645
▁computerized	-11646
▁considerably	-11647
▁coordination	-11648
▁enthusiastic	-11649
▁experimental	-11650
▁impoverished	-11651
▁municipality	-11652
▁quarterfinal	-11653
▁satisfactory	-11654
▁accommodation	-11655
▁assassination	-11656
▁enlightenment	-11657
▁exceptionally	-11658
▁globalization	-11659
▁incorporating	-11660
▁knowledgeable	-11661
▁qualification	-11662
▁reimbursement	-11663
▁accomplishment	-11664
▁unconstitution	-11665
bt	-11666
fk	-11667
aba	-11668
aku	-11669
aky	-11670
amo	-11671
ats	-11672
auc	-11673
aye	-11674
bay	-11675
bie	-11676
cen	-11677
clo	-11678
ean	-11679
eet	-11680
fty	-11681
gam	-11682
gow	-11683
jac	-11684
lap	-11685
oft	-11686
opy	-11687
pin	-11688
rez	-11689
rio	-11690
sal	-11691
say	-11692
seo	-11693
sui	-11694
uda	-11695
van	-11696
vet	-11697
was	-11698
win	-11699
yos	-11700
zan	-11701
▁79	-11702
▁94	-11703
▁ao	-11704
▁ee	-11705
▁gw	-11706
▁if	-11707
▁iq	-11708
▁kh	-11709
▁mm	-11710
▁rw	-11711
ablo	-11712
ades	-11713
akis	-11714
anni	-11715
aton	-11716
ayan	-11717
brow	-11718
cere	-11719
chin	-11720
cien	-11721
cier	-11722
cile	-11723
cule	-11724
elle	-11725
emen	-11726
enin	-11727
eson	-11728
etti	-11729
gers	-11730
ghan	-11731
hist	-11732
hito	-11733
icon	-11734
ilet	-11735
irus	-11736
kids	-11737
lade	-11738
lain	-11739
llor	-11740
loon	-11741
mail	-11742
mann	-11743
moil	-11744
mons	-11745
nett	-11746
orne	-11747
ouve	-11748
page	-11749
pero	-11750
phic	-11751
ptom	-11752
russ	-11753
same	-11754
surf	-11755
test	-11756
thed	-11757
umer	-11758
uses	-11759
vent	-11760
vine	-11761
warf	-11762
zter	-11763
zzle	-11764
▁101	-11765
▁102	-11766
▁118	-11767
▁155	-11768
▁159	-11769
▁205	-11770
▁512	-11771
▁ami	-11772
▁bry	-11773
▁cab	-11774
▁cuc	-11775
▁duk	-11776
▁dul	-11777
▁ecc	-11778
▁eug	-11779
▁exh	-11780
▁gem	-11781
▁gul	-11782
▁gut	-11783
▁gym	-11784
▁ist	-11785
▁kag	-11786
▁kin	-11787
▁kos	-11788
▁lis	-11789
▁lum	-11790
▁lyd	-11791
▁mck	-11792
▁nel	-11793
▁ont	-11794
▁ooh	-11795
▁pak	-11796
▁quo	-11797
▁raf	-11798
▁rer	-11799
▁rua	-11800
▁sao	-11801
▁ssa	-11802
▁sul	-11803
▁tam	-11804
▁tud	-11805
▁vil	-11806
▁vit	-11807
▁wto	-11808
▁wyn	-11809
▁yog	-11810
▁yok	-11811
aired	-11812
althy	-11813
andro	-11814
antan	-11815
aping	-11816
asket	-11817
athed	-11818
atial	-11819
atown	-11820
banon	-11821
belly	-11822
chase	-11823
enary	-11824
ensed	-11825
etric	-11826
geant	-11827
group	-11828
icked	-11829
ijing	-11830
inous	-11831
ishop	-11832
istle	-11833
ocaly	-11834
ocene	-11835
ocrat	-11836
olini	-11837
onian	-11838
osaur	-11839
oting	-11840
otive	-11841
oused	-11842
rator	-11843
scale	-11844
ssein	-11845
tably	-11846
tower	-11847
vanni	-11848
yoshi	-11849
▁1700	-11850
▁1840	-11851
▁1890	-11852
▁1918	-11853
▁1931	-11854
▁1943	-11855
▁1985	-11856
▁2018	-11857
▁affl	-11858
▁airy	-11859
▁anim	-11860
▁bait	-11861
▁barr	-11862
▁bash	-11863
▁blur	-11864
▁burg	-11865
▁cape	-11866
▁cope	-11867
▁cort	-11868
▁crab	-11869
▁cray	-11870
▁dart	-11871
▁dell	-11872
▁dick	-11873
▁ding	-11874
▁dunn	-11875
▁enqu	-11876
▁epic	-11877
▁euro	-11878
▁evac	-11879
▁exch	-11880
▁feng	-11881
▁font	-11882
▁frog	-11883
▁gaza	-11884
▁grid	-11885
▁grot	-11886
▁guru	-11887
▁heck	-11888
▁hect	-11889
▁hiss	-11890
▁hook	-11891
▁hugo	-11892
▁inel	-11893
▁japp	-11894
▁java	-11895
▁junk	-11896
▁kobe	-11897
▁kram	-11898
▁lanc	-11899
▁misd	-11900
▁nast	-11901
▁nope	-11902
▁pasc	-11903
▁peru	-11904
▁prag	-11905
▁prec	-11906
▁reyn	-11907
▁sikh	-11908
▁stub	-11909
▁subd	-11910
▁sule	-11911
▁tame	-11912
▁tapa	-11913
▁tian	-11914
▁tina	-11915
▁tril	-11916
▁tsim	-11917
▁tsui	-11918
▁visc	-11919
▁wach	-11920
▁walt	-11921
aloupe	-11922
assion	-11923
bility	-11924
cessor	-11925
charge	-11926
chitis	-11927
codile	-11928
donald	-11929
iality	-11930
itored	-11931
ladesh	-11932
lusive	-11933
opless	-11934
oucher	-11935
ouveau	-11936
redict	-11937
ricted	-11938
rition	-11939
rowave	-11940
shadow	-11941
ulator	-11942
ustice	-11943
vilion	-11944
▁aesth	-11945
▁allen	-11946
▁andre	-11947
▁appet	-11948
▁aster	-11949
▁auton	-11950
▁baron	-11951
▁beige	-11952
▁blanc	-11953
▁calip	-11954
▁chant	-11955
▁chech	-11956
▁chile	-11957
▁clark	-11958
▁clift	-11959
▁colin	-11960
▁croat	-11961
▁curse	-11962
▁decis	-11963
▁denis	-11964
▁diary	-11965
▁diego	-11966
▁ditka	-11967
▁dwarf	-11968
▁eaten	-11969
▁eilat	-11970
▁elena	-11971
▁embed	-11972
▁flock	-11973
▁gaoas	-11974
▁gazed	-11975
▁grain	-11976
▁griff	-11977
▁honey	-11978
▁huang	-11979
▁intra	-11980
▁juror	-11981
▁kidna	-11982
▁leach	-11983
▁liver	-11984
▁loren	-11985
▁maine	-11986
▁manor	-11987
▁matth	-11988
▁maury	-11989
▁melod	-11990
▁nancy	-11991
▁panda	-11992
▁panic	-11993
▁patio	-11994
▁peril	-11995
▁plush	-11996
▁porce	-11997
▁posed	-11998
▁prede	-11999
▁prone	-12000
▁pruss	-12001
▁pulau	-12002
▁razor	-12003
▁retre	-12004
▁rhyme	-12005
▁rohan	-12006
▁saber	-12007
▁sales	-12008
▁scent	-12009
▁scrub	-12010
▁shady	-12011
▁sheen	-12012
▁sheer	-12013
▁shiny	-12014
▁singh	-12015
▁spont	-12016
▁stagn	-12017
▁sudan	-12018
▁suite	-12019
▁swept	-12020
▁tiber	-12021
▁timid	-12022
▁unbel	-12023
▁unite	-12024
▁unnot	-12025
▁vague	-12026
▁valen	-12027
▁vista	-12028
▁widow	-12029
astrous	-12030
ativity	-12031
enstein	-12032
itioner	-12033
reaking	-12034
reshold	-12035
riculum	-12036
ructive	-12037
surfing	-12038
uscript	-12039
▁advers	-12040
▁afghan	-12041
▁alison	-12042
▁alumin	-12043
▁antiqu	-12044
▁arcade	-12045
▁arched	-12046
▁assure	-12047
▁autobi	-12048
▁behave	-12049
▁bitter	-12050
▁blonde	-12051
▁bloody	-12052
▁bolted	-12053
▁bumper	-12054
▁burger	-12055
▁burner	-12056
▁cobble	-12057
▁colonn	-12058
▁connor	-12059
▁convey	-12060
▁curved	-12061
▁darker	-12062
▁detour	-12063
▁diesel	-12064
▁disple	-12065
▁divine	-12066
▁donate	-12067
▁entail	-12068
▁equity	-12069
▁eszter	-12070
▁feared	-12071
▁fenner	-12072
▁feudal	-12073
▁firing	-12074
▁fossil	-12075
▁freeze	-12076
▁genius	-12077
▁ginger	-12078
▁goalie	-12079
▁golfer	-12080
▁handwr	-12081
▁honshu	-12082
▁joking	-12083
▁lisbon	-12084
▁loudly	-12085
▁maiden	-12086
▁marcus	-12087
▁midair	-12088
▁minoan	-12089
▁mister	-12090
▁morbid	-12091
▁nicole	-12092
▁obsess	-12093
▁oxford	-12094
▁parrot	-12095
▁pewter	-12096
▁plaque	-12097
▁portal	-12098
▁porter	-12099
▁prudie	-12100
▁puppet	-12101
▁puzzle	-12102
▁racism	-12103
▁remedy	-12104
▁ronald	-12105
▁santor	-12106
▁seeded	-12107
▁seldom	-12108
▁serene	-12109
▁server	-12110
▁sesame	-12111
▁shaded	-12112
▁snowed	-12113
▁solemn	-12114
▁sophia	-12115
▁sorrow	-12116
▁strain	-12117
▁subtle	-12118
▁sweden	-12119
▁themed	-12120
▁toilet	-12121
▁toledo	-12122
▁treach	-12123
▁trench	-12124
▁trendy	-12125
▁upheld	-12126
▁uphold	-12127
▁voyage	-12128
▁wander	-12129
▁warsaw	-12130
▁waving	-12131
▁whisky	-12132
▁winger	-12133
▁wisdom	-12134
function	-12135
lessness	-12136
▁acceler	-12137
▁adverse	-12138
▁advisor	-12139
▁ailment	-12140
▁annoyed	-12141
▁apocaly	-12142
▁avenger	-12143
▁beijing	-12144
▁biology	-12145
▁brahmin	-12146
▁bureauc	-12147
▁caletta	-12148
▁capitol	-12149
▁cascade	-12150
▁casting	-12151
▁chemist	-12152
▁curator	-12153
▁decides	-12154
▁defence	-12155
▁dentist	-12156
▁despise	-12157
▁discard	-12158
▁disqual	-12159
▁dorothy	-12160
▁doubted	-12161
▁drafted	-12162
▁dragged	-12163
▁durable	-12164
▁educate	-12165
▁empress	-12166
▁eternal	-12167
▁extract	-12168
▁fascist	-12169
▁fleeing	-12170
▁flowing	-12171
▁foresee	-12172
▁forgive	-12173
▁grouped	-12174
▁hardest	-12175
▁hearted	-12176
▁hopeful	-12177
▁hostile	-12178
▁hottest	-12179
▁hubbell	-12180
▁hussein	-12181
▁jainism	-12182
▁jolanta	-12183
▁kidding	-12184
▁labeled	-12185
▁lebanon	-12186
▁liberty	-12187
▁lillian	-12188
▁lodging	-12189
▁manages	-12190
▁marcink	-12191
▁massage	-12192
▁miracle	-12193
▁nearest	-12194
▁needing	-12195
▁nominal	-12196
▁nouveau	-12197
▁ontario	-12198
▁oversee	-12199
▁passive	-12200
▁perkins	-12201
▁pitcher	-12202
▁playoff	-12203
▁pollock	-12204
▁postage	-12205
▁prehist	-12206
▁proudly	-12207
▁proving	-12208
▁ptolemy	-12209
▁rancher	-12210
▁rescued	-12211
▁scratch	-12212
▁sherman	-12213
▁shotgun	-12214
▁slender	-12215
▁sliding	-12216
▁slipped	-12217
▁soaring	-12218
▁sophist	-12219
▁stephan	-12220
▁swimmer	-12221
▁symptom	-12222
▁thereby	-12223
▁topless	-12224
▁transpl	-12225
▁trooper	-12226
▁trumpet	-12227
▁turmoil	-12228
▁twisted	-12229
▁vicious	-12230
▁voucher	-12231
▁wachter	-12232
▁wilkins	-12233
▁wizkids	-12234
aceutical	-12235
▁absorber	-12236
▁ancestor	-12237
▁battered	-12238
▁clinical	-12239
▁connects	-12240
▁covenant	-12241
▁cucumber	-12242
▁detected	-12243
▁dinosaur	-12244
▁disappro	-12245
▁donating	-12246
▁endorsed	-12247
▁enquirer	-12248
▁epidemic	-12249
▁equality	-12250
▁excludes	-12251
▁figuring	-12252
▁firework	-12253
▁flooding	-12254
▁giovanni	-12255
▁giuliani	-12256
▁grandeur	-12257
▁illusion	-12258
▁imprison	-12259
▁inflated	-12260
▁interact	-12261
▁interval	-12262
▁kramenin	-12263
▁lifelong	-12264
▁manpower	-12265
▁maritime	-12266
▁marshall	-12267
▁mattress	-12268
▁minimize	-12269
▁murmured	-12270
▁nickname	-12271
▁offshore	-12272
▁outreach	-12273
▁pakistan	-12274
▁patricia	-12275
▁pavilion	-12276
▁populace	-12277
▁pursuant	-12278
▁quintile	-12279
▁reminded	-12280
▁reynolds	-12281
▁seasoned	-12282
▁sergeant	-12283
▁showroom	-12284
▁signpost	-12285
▁skeleton	-12286
▁stressed	-12287
▁subgenre	-12288
▁succinct	-12289
▁suleiman	-12290
▁textbook	-12291
▁theodore	-12292
▁thriving	-12293
▁thurmond	-12294
▁timeline	-12295
▁turnover	-12296
▁updating	-12297
▁withheld	-12298
▁wondered	-12299
▁acquiring	-12300
▁allegedly	-12301
▁appearing	-12302
▁borrowing	-12303
▁breathing	-12304
▁butterfly	-12305
▁cellphone	-12306
▁checkered	-12307
▁classroom	-12308
▁concealed	-12309
▁conductor	-12310
▁consisted	-12311
▁consulted	-12312
▁courtroom	-12313
▁crocodile	-12314
▁descended	-12315
▁detailing	-12316
▁developer	-12317
▁distorted	-12318
▁ethnicity	-12319
▁greenberg	-12320
▁guerrilla	-12321
▁happiness	-12322
▁hideyoshi	-12323
▁hostility	-12324
▁housewife	-12325
▁hungarian	-12326
▁inability	-12327
▁inhabited	-12328
▁injustice	-12329
▁liveliest	-12330
▁mercenary	-12331
▁messenger	-12332
▁microwave	-12333
▁miserable	-12334
▁monitored	-12335
▁motivated	-12336
▁mussolini	-12337
▁mythology	-12338
▁occurring	-12339
▁panoramic	-12340
▁partnered	-12341
▁possesses	-12342
▁pretended	-12343
▁prolonged	-12344
▁readiness	-12345
▁recovered	-12346
▁reflected	-12347
▁regulator	-12348
▁relevance	-12349
▁rochester	-12350
▁routinely	-12351
▁showcased	-12352
▁solicited	-12353
▁sprawling	-12354
▁threshold	-12355
▁underwent	-12356
▁unnoticed	-12357
▁unusually	-12358
▁utilizing	-12359
▁watergate	-12360
▁worthless	-12361
▁adventurer	-12362
▁advertiser	-12363
▁alexandria	-12364
▁automation	-12365
▁bangladesh	-12366
▁bronchitis	-12367
▁capitalist	-12368
▁celebrates	-12369
▁chancellor	-12370
▁compassion	-12371
▁competence	-12372
▁competency	-12373
▁connecting	-12374
▁curriculum	-12375
▁dictionary	-12376
▁disastrous	-12377
▁discounted	-12378
▁ecological	-12379
▁emphasized	-12380
▁frequented	-12381
▁ineligible	-12382
▁informally	-12383
▁manuscript	-12384
▁overseeing	-12385
▁prevalence	-12386
▁recommends	-12387
▁remarkably	-12388
▁respectful	-12389
▁separating	-12390
▁technician	-12391
▁thoughtful	-12392
▁archaeology	-12393
▁categorized	-12394
▁cobblestone	-12395
▁constituent	-12396
▁fortunately	-12397
▁grandmother	-12398
▁inscription	-12399
▁interaction	-12400
▁introducing	-12401
▁palestinian	-12402
▁philosopher	-12403
▁predecessor	-12404
▁prestigious	-12405
▁promulgated	-12406
▁regrettably	-12407
▁supermarket	-12408
▁windsurfing	-12409
▁assassinated	-12410
▁confirmation	-12411
▁incidentally	-12412
▁interference	-12413
▁interruption	-12414
▁kindergarten	-12415
▁northernmost	-12416
▁practitioner	-12417
▁steeplechase	-12418
▁surroundings	-12419
▁transferring	-12420
▁unrestricted	-12421
▁acknowledging	-12422
▁appropriately	-12423
▁communicating	-12424
▁demonstrating	-12425
▁homosexuality	-12426
▁interestingly	-12427
▁supplementary	-12428
▁uncomfortable	-12429
▁identification	-12430
▁pharmaceutical	-12431
▁reconstruction	-12432
▁traditionalist	-12433
▁extraordinarily	-12434
▁reconfiguration	-12435
16	-12436
21	-12437
23	-12438
dh	-12439
ez	-12440
agm	-12441
ahu	-12442
ali	-12443
als	-12444
asu	-12445
bek	-12446
bod	-12447
bro	-12448
cal	-12449
cup	-12450
dez	-12451
edi	-12452
enh	-12453
eps	-12454
erd	-12455
ese	-12456
esn	-12457
esy	-12458
gie	-12459
gio	-12460
hin	-12461
iah	-12462
igi	-12463
jon	-12464
jud	-12465
lia	-12466
llo	-12467
mad	-12468
mma	-12469
nef	-12470
nge	-12471
ofy	-12472
oni	-12473
onk	-12474
orr	-12475
rac	-12476
sha	-12477
tan	-12478
tap	-12479
tse	-12480
uzz	-12481
xon	-12482
yss	-12483
zac	-12484
▁74	-12485
▁77	-12486
▁78	-12487
▁85	-12488
▁93	-12489
▁fm	-12490
▁hp	-12491
▁iz	-12492
▁lc	-12493
▁zo	-12494
adic	-12495
anas	-12496
arel	-12497
aria	-12498
asha	-12499
athi	-12500
aven	-12501
avia	-12502
bike	-12503
buck	-12504
cane	-12505
coph	-12506
crow	-12507
ctus	-12508
cycl	-12509
efin	-12510
eira	-12511
elia	-12512
etal	-12513
fter	-12514
ghia	-12515
gren	-12516
hinx	-12517
ingo	-12518
isha	-12519
macy	-12520
maic	-12521
mart	-12522
mast	-12523
mund	-12524
nity	-12525
oise	-12526
olph	-12527
onia	-12528
ores	-12529
orts	-12530
osis	-12531
ourt	-12532
ouss	-12533
outs	-12534
ppie	-12535
rale	-12536
rery	-12537
rett	-12538
rine	-12539
rith	-12540
shaw	-12541
sley	-12542
sohn	-12543
ukon	-12544
umbo	-12545
uver	-12546
warz	-12547
xtap	-12548
▁106	-12549
▁125	-12550
▁146	-12551
▁330	-12552
▁337	-12553
▁556	-12554
▁aux	-12555
▁awa	-12556
▁awk	-12557
▁bip	-12558
▁blm	-12559
▁bog	-12560
▁cel	-12561
▁cyp	-12562
▁daw	-12563
▁dye	-12564
▁dys	-12565
▁ego	-12566
▁ely	-12567
▁fog	-12568
▁gaz	-12569
▁goa	-12570
▁had	-12571
▁hiv	-12572
▁hmm	-12573
▁hog	-12574
▁ian	-12575
▁jod	-12576
▁kai	-12577
▁les	-12578
▁lud	-12579
▁lun	-12580
▁mia	-12581
▁moh	-12582
▁nab	-12583
▁nik	-12584
▁nub	-12585
▁oss	-12586
▁owl	-12587
▁pod	-12588
▁pon	-12589
▁ral	-12590
▁smu	-12591
▁tet	-12592
▁tib	-12593
▁tum	-12594
▁unl	-12595
▁upg	-12596
▁upl	-12597
▁wen	-12598
▁yev	-12599
apart	-12600
bbish	-12601
chant	-12602
eaded	-12603
endal	-12604
epsut	-12605
gated	-12606
gging	-12607
green	-12608
iento	-12609
ierra	-12610
ikoff	-12611
imson	-12612
inery	-12613
itter	-12614
leine	-12615
mwell	-12616
negie	-12617
oftop	-12618
oiled	-12619
orose	-12620
orthy	-12621
ostle	-12622
ovich	-12623
paper	-12624
pless	-12625
shour	-12626
stick	-12627
tseva	-12628
umnus	-12629
urous	-12630
uster	-12631
zenji	-12632
▁1915	-12633
▁1976	-12634
▁abol	-12635
▁acou	-12636
▁aide	-12637
▁anat	-12638
▁andr	-12639
▁bend	-12640
▁bore	-12641
▁bulb	-12642
▁bunk	-12643
▁chef	-12644
▁chim	-12645
▁coke	-12646
▁cole	-12647
▁cove	-12648
▁cozy	-12649
▁curb	-12650
▁cure	-12651
▁daff	-12652
▁dele	-12653
▁dile	-12654
▁disk	-12655
▁doct	-12656
▁dort	-12657
▁dove	-12658
▁dung	-12659
▁echo	-12660
▁emil	-12661
▁flop	-12662
▁foil	-12663
▁fren	-12664
▁fret	-12665
▁fury	-12666
▁gins	-12667
▁gymn	-12668
▁harp	-12669
▁heal	-12670
▁hoop	-12671
▁ipom	-12672
▁krug	-12673
▁leak	-12674
▁lech	-12675
▁lomb	-12676
▁mish	-12677
▁mock	-12678
▁mode	-12679
▁mong	-12680
▁nash	-12681
▁nude	-12682
▁obso	-12683
▁ones	-12684
▁pelt	-12685
▁perj	-12686
▁phar	-12687
▁pled	-12688
▁porn	-12689
▁psch	-12690
▁rape	-12691
▁riot	-12692
▁rund	-12693
▁ruta	-12694
▁ryan	-12695
▁sans	-12696
▁shin	-12697
▁slum	-12698
▁snap	-12699
▁soda	-12700
▁spun	-12701
▁stap	-12702
▁stip	-12703
▁stun	-12704
▁suck	-12705
▁sued	-12706
▁tidy	-12707
▁trap	-12708
▁trav	-12709
▁ucla	-12710
▁unac	-12711
▁unau	-12712
▁verd	-12713
▁wart	-12714
ailand	-12715
etchup	-12716
eteria	-12717
iciary	-12718
ilello	-12719
imming	-12720
infeld	-12721
leston	-12722
marked	-12723
nefeld	-12724
ologue	-12725
osevic	-12726
rocity	-12727
rolled	-12728
teenth	-12729
ulsion	-12730
umbria	-12731
▁aisle	-12732
▁alger	-12733
▁alpha	-12734
▁amato	-12735
▁annan	-12736
▁annex	-12737
▁annie	-12738
▁armen	-12739
▁arsen	-12740
▁bobby	-12741
▁borne	-12742
▁bowed	-12743
▁burke	-12744
▁cargo	-12745
▁cease	-12746
▁chand	-12747
▁chill	-12748
▁chunk	-12749
▁corps	-12750
▁curry	-12751
▁danny	-12752
▁dante	-12753
▁dared	-12754
▁dealt	-12755
▁decad	-12756
▁delir	-12757
▁denim	-12758
▁diner	-12759
▁disgu	-12760
▁dolly	-12761
▁expat	-12762
▁fabul	-12763
▁famed	-12764
▁fetus	-12765
▁fluct	-12766
▁fluid	-12767
▁freak	-12768
▁goofy	-12769
▁guilt	-12770
▁hitch	-12771
▁jaime	-12772
▁jalan	-12773
▁johan	-12774
▁julie	-12775
▁kayak	-12776
▁laser	-12777
▁lease	-12778
▁leith	-12779
▁linen	-12780
▁linux	-12781
▁litig	-12782
▁loses	-12783
▁lynch	-12784
▁maced	-12785
▁malla	-12786
▁mercy	-12787
▁nehru	-12788
▁opium	-12789
▁pablo	-12790
▁pagan	-12791
▁poste	-12792
▁quail	-12793
▁quinn	-12794
▁randy	-12795
▁reese	-12796
▁resur	-12797
▁revel	-12798
▁rhode	-12799
▁serra	-12800
▁sized	-12801
▁snoop	-12802
▁solar	-12803
▁steer	-12804
▁stump	-12805
▁swiss	-12806
▁syner	-12807
▁tasty	-12808
▁telec	-12809
▁undes	-12810
▁unfin	-12811
▁unlaw	-12812
▁yukon	-12813
bastien	-12814
ertoire	-12815
icapped	-12816
ileries	-12817
issible	-12818
keeping	-12819
masters	-12820
onymous	-12821
opoulos	-12822
ressive	-12823
scribed	-12824
ustomed	-12825
vention	-12826
▁amazon	-12827
▁antoni	-12828
▁athens	-12829
▁autost	-12830
▁bailey	-12831
▁bakery	-12832
▁barred	-12833
▁beatty	-12834
▁brandy	-12835
▁cactus	-12836
▁calmly	-12837
▁canopy	-12838
▁captiv	-12839
▁chania	-12840
▁condom	-12841
▁cosmop	-12842
▁crouch	-12843
▁danish	-12844
▁dennis	-12845
▁digest	-12846
▁doomed	-12847
▁endure	-12848
▁evenly	-12849
▁extrem	-12850
▁facial	-12851
▁fertil	-12852
▁floral	-12853
▁gravel	-12854
▁hosses	-12855
▁inevit	-12856
▁inmate	-12857
▁insult	-12858
▁jacuzz	-12859
▁jasper	-12860
▁juxtap	-12861
▁kitten	-12862
▁lagoon	-12863
▁landsc	-12864
▁lawful	-12865
▁lender	-12866
▁likhov	-12867
▁linear	-12868
▁litter	-12869
▁loaded	-12870
▁lumber	-12871
▁masada	-12872
▁mentor	-12873
▁methyl	-12874
▁mocked	-12875
▁mowing	-12876
▁multic	-12877
▁multin	-12878
▁nabate	-12879
▁naming	-12880
▁nearer	-12881
▁newman	-12882
▁noodle	-12883
▁orrery	-12884
▁parcel	-12885
▁penned	-12886
▁perpet	-12887
▁precip	-12888
▁prejud	-12889
▁privat	-12890
▁psycho	-12891
▁pulpit	-12892
▁reconc	-12893
▁rescue	-12894
▁retrie	-12895
▁ribbon	-12896
▁richer	-12897
▁sainte	-12898
▁samoth	-12899
▁sewing	-12900
▁shabby	-12901
▁shaved	-12902
▁sheikh	-12903
▁shiver	-12904
▁shrimp	-12905
▁sierra	-12906
▁sleeve	-12907
▁solved	-12908
▁spared	-12909
▁sphinx	-12910
▁spinal	-12911
▁stroke	-12912
▁supern	-12913
▁superv	-12914
▁tavern	-12915
▁tensor	-12916
▁tipper	-12917
▁titian	-12918
▁topped	-12919
▁toyota	-12920
▁uneven	-12921
▁upside	-12922
▁urgent	-12923
▁walesa	-12924
▁warren	-12925
▁weaver	-12926
▁willow	-12927
andering	-12928
asonable	-12929
ellation	-12930
iversary	-12931
ortation	-12932
thorized	-12933
▁admired	-12934
▁anytime	-12935
▁apostle	-12936
▁apparel	-12937
▁assimil	-12938
▁awkward	-12939
▁bolster	-12940
▁bourbon	-12941
▁carthag	-12942
▁charism	-12943
▁clement	-12944
▁commute	-12945
▁conical	-12946
▁consent	-12947
▁crimson	-12948
▁cypress	-12949
▁debated	-12950
▁defiant	-12951
▁denying	-12952
▁depreci	-12953
▁deutsch	-12954
▁devised	-12955
▁dictate	-12956
▁digging	-12957
▁dilemma	-12958
▁disrupt	-12959
▁drastic	-12960
▁ellison	-12961
▁enabled	-12962
▁endless	-12963
▁exclude	-12964
▁expects	-12965
▁faction	-12966
▁finland	-12967
▁fitness	-12968
▁flamboy	-12969
▁flooded	-12970
▁gourmet	-12971
▁gravity	-12972
▁harness	-12973
▁healing	-12974
▁heating	-12975
▁hilltop	-12976
▁horizon	-12977
▁infused	-12978
▁inherit	-12979
▁ketchup	-12980
▁krugman	-12981
▁lecture	-12982
▁lineage	-12983
▁listing	-12984
▁lombard	-12985
▁matthew	-12986
▁merrion	-12987
▁minaret	-12988
▁miranda	-12989
▁mobster	-12990
▁penrith	-12991
▁pioneer	-12992
▁pitbull	-12993
▁plaster	-12994
▁playboy	-12995
▁pschorr	-12996
▁recount	-12997
▁referee	-12998
▁rehabil	-12999
▁relieve	-13000
▁removal	-13001
▁roberta	-13002
▁rooftop	-13003
▁schwarz	-13004
▁serpent	-13005
▁shining	-13006
▁shuttle	-13007
▁smarter	-13008
▁sneaker	-13009
▁solomon	-13010
▁succumb	-13011
▁surreal	-13012
▁tempted	-13013
▁touring	-13014
▁trailer	-13015
▁trilogy	-13016
▁violate	-13017
▁watersp	-13018
▁weighed	-13019
▁wounded	-13020
▁yevgeny	-13021
connected	-13022
▁acoustic	-13023
▁activist	-13024
▁adultery	-13025
▁afforded	-13026
▁allotted	-13027
▁aluminum	-13028
▁atrocity	-13029
▁audition	-13030
▁austrian	-13031
▁backdrop	-13032
▁baseline	-13033
▁betrayed	-13034
▁blessing	-13035
▁bonapart	-13036
▁borrowed	-13037
▁carnegie	-13038
▁causeway	-13039
▁coaching	-13040
▁complied	-13041
▁coronary	-13042
▁crawfish	-13043
▁credible	-13044
▁cromwell	-13045
▁debating	-13046
▁delicacy	-13047
▁despised	-13048
▁destined	-13049
▁dialogue	-13050
▁dilution	-13051
▁distress	-13052
▁downfall	-13053
▁drafting	-13054
▁drowning	-13055
▁elevator	-13056
▁embedded	-13057
▁enforced	-13058
▁fernando	-13059
▁fraction	-13060
▁gasoline	-13061
▁ginsburg	-13062
▁gorgeous	-13063
▁grabbing	-13064
▁griffith	-13065
▁hamilton	-13066
▁himalaya	-13067
▁inclined	-13068
▁indigent	-13069
▁indirect	-13070
▁informal	-13071
▁intrigue	-13072
▁islander	-13073
▁italiane	-13074
▁juggling	-13075
▁kitchell	-13076
▁lifeless	-13077
▁longtime	-13078
▁maneuver	-13079
▁margaret	-13080
▁maturity	-13081
▁michelle	-13082
▁necessit	-13083
▁newshour	-13084
▁normandy	-13085
▁noticing	-13086
▁offender	-13087
▁organize	-13088
▁outbound	-13089
▁password	-13090
▁pathetic	-13091
▁pedestal	-13092
▁philippe	-13093
▁populist	-13094
▁preacher	-13095
▁proclaim	-13096
▁psychiat	-13097
▁resigned	-13098
▁restruct	-13099
▁secretly	-13100
▁seinfeld	-13101
▁semester	-13102
▁shipment	-13103
▁societal	-13104
▁solitary	-13105
▁stepping	-13106
▁stranded	-13107
▁stylized	-13108
▁subclass	-13109
▁sugiyama	-13110
▁suppress	-13111
▁suspense	-13112
▁symbolic	-13113
▁thailand	-13114
▁towering	-13115
▁township	-13116
▁unaccept	-13117
▁verified	-13118
▁vertical	-13119
▁violated	-13120
▁withhold	-13121
▁accepting	-13122
▁accordion	-13123
▁addictive	-13124
▁adversary	-13125
▁aesthetic	-13126
▁asserting	-13127
▁bernstein	-13128
▁cafeteria	-13129
▁captivity	-13130
▁childless	-13131
▁chronicle	-13132
▁columnist	-13133
▁combining	-13134
▁commanded	-13135
▁commodity	-13136
▁comprised	-13137
▁computing	-13138
▁crumbling	-13139
▁defendant	-13140
▁dignitary	-13141
▁dimension	-13142
▁disturbed	-13143
▁emigrated	-13144
▁eszterhas	-13145
▁exploited	-13146
▁federally	-13147
▁forefront	-13148
▁godfather	-13149
▁homeowner	-13150
▁illegally	-13151
▁impatient	-13152
▁inclusive	-13153
▁infection	-13154
▁intensely	-13155
▁intensive	-13156
▁interface	-13157
▁judiciary	-13158
▁kentridge	-13159
▁lucrative	-13160
▁madeleine	-13161
▁measuring	-13162
▁memorable	-13163
▁milestone	-13164
▁milosevic	-13165
▁motorbike	-13166
▁mysticism	-13167
▁nighttime	-13168
▁nutrition	-13169
▁occupying	-13170
▁pressured	-13171
▁princeton	-13172
▁ptolemaic	-13173
▁regulated	-13174
▁remainder	-13175
▁residency	-13176
▁revealing	-13177
▁scripture	-13178
▁sensation	-13179
▁socialist	-13180
▁spectacle	-13181
▁spreading	-13182
▁statesman	-13183
▁stationed	-13184
▁stressful	-13185
▁sugarcane	-13186
▁surfboard	-13187
▁surviving	-13188
▁tuileries	-13189
▁unhealthy	-13190
▁unpredict	-13191
▁unspoiled	-13192
▁youngster	-13193
▁accustomed	-13194
▁adaptation	-13195
▁affiliated	-13196
▁attracting	-13197
▁authorized	-13198
▁cantaloupe	-13199
▁cathedrale	-13200
▁centimeter	-13201
▁cheerfully	-13202
▁circulated	-13203
▁compatible	-13204
▁complained	-13205
▁complement	-13206
▁concurrent	-13207
▁conscience	-13208
▁consortium	-13209
▁constantin	-13210
▁conversely	-13211
▁conversing	-13212
▁converting	-13213
▁corrective	-13214
▁cultivated	-13215
▁devastated	-13216
▁discourage	-13217
▁estimation	-13218
▁gentilello	-13219
▁improvised	-13220
▁inaccuracy	-13221
▁inadequate	-13222
▁intervened	-13223
▁irrigation	-13224
▁lighthouse	-13225
▁meditation	-13226
▁motivation	-13227
▁negatively	-13228
▁organizing	-13229
▁overturned	-13230
▁passionate	-13231
▁persistent	-13232
▁predicting	-13233
▁prosecutor	-13234
▁publishing	-13235
▁recruiting	-13236
▁reluctance	-13237
▁repertoire	-13238
▁solidarity	-13239
▁structured	-13240
▁transcript	-13241
▁unemployed	-13242
▁unfinished	-13243
▁vegetarian	-13244
governmental	-13245
▁anniversary	-13246
▁centralized	-13247
▁commentator	-13248
▁concentrate	-13249
▁conjunction	-13250
▁constitutes	-13251
▁contingency	-13252
▁discouraged	-13253
▁disregarded	-13254
▁establishes	-13255
▁functioning	-13256
▁handicapped	-13257
▁integrating	-13258
▁likhovtseva	-13259
▁originating	-13260
▁particulate	-13261
▁prehistoric	-13262
▁recruitment	-13263
▁rectangular	-13264
▁reformation	-13265
▁replacement	-13266
▁scrutinized	-13267
▁segregation	-13268
▁troublesome	-13269
▁variability	-13270
▁advantageous	-13271
▁aggressively	-13272
▁carthaginian	-13273
▁commemorated	-13274
▁constructing	-13275
▁constructive	-13276
▁conveniently	-13277
▁cosmopolitan	-13278
▁deregulation	-13279
▁disagreement	-13280
▁geographical	-13281
▁instrumental	-13282
▁motivational	-13283
▁rollerskater	-13284
▁transporting	-13285
▁unauthorized	-13286
▁unreasonable	-13287
▁compatibility	-13288
▁consciousness	-13289
▁craftsmanship	-13290
▁discretionary	-13291
▁granddaughter	-13292
▁impressionist	-13293
▁inconsistency	-13294
▁industrialist	-13295
▁intentionally	-13296
▁investigating	-13297
▁multinational	-13298
▁strategically	-13299
▁geographically	-13300
▁rehabilitation	-13301
▁sophistication	-13302
▁standardization	-13303
20	-13304
39	-13305
45	-13306
74	-13307
di	-13308
ds	-13309
ea	-13310
kt	-13311
ns	-13312
ts	-13313
asz	-13314
bet	-13315
bog	-13316
but	-13317
caa	-13318
cad	-13319
cat	-13320
cet	-13321
dal	-13322
dog	-13323
ecd	-13324
elp	-13325
eng	-13326
gbt	-13327
inc	-13328
iqu	-13329
jun	-13330
lal	-13331
len	-13332
nin	-13333
oky	-13334
ono	-13335
opo	-13336
ouk	-13337
pat	-13338
rue	-13339
ste	-13340
thr	-13341
uil	-13342
usa	-13343
utt	-13344
uum	-13345
var	-13346
wor	-13347
ykt	-13348
yre	-13349
▁61	-13350
▁82	-13351
▁86	-13352
▁87	-13353
▁eg	-13354
▁gt	-13355
▁ml	-13356
▁nc	-13357
abet	-13358
acon	-13359
agne	-13360
agus	-13361
anth	-13362
apol	-13363
arle	-13364
asia	-13365
bbly	-13366
boro	-13367
burn	-13368
cell	-13369
chel	-13370
chio	-13371
edel	-13372
fert	-13373
fill	-13374
gium	-13375
gram	-13376
hole	-13377
holm	-13378
icop	-13379
ides	-13380
iger	-13381
iosk	-13382
irie	-13383
ishi	-13384
isty	-13385
ivor	-13386
jama	-13387
lett	-13388
loqu	-13389
lyle	-13390
nard	-13391
ocre	-13392
odil	-13393
okka	-13394
opia	-13395
orde	-13396
pled	-13397
priv	-13398
radu	-13399
ripp	-13400
rise	-13401
rown	-13402
seen	-13403
sers	-13404
sett	-13405
shev	-13406
shot	-13407
sive	-13408
term	-13409
uela	-13410
ugos	-13411
uity	-13412
undy	-13413
urai	-13414
wait	-13415
wall	-13416
▁116	-13417
▁145	-13418
▁165	-13419
▁480	-13420
▁604	-13421
▁aal	-13422
▁ard	-13423
▁aul	-13424
▁aus	-13425
▁bah	-13426
▁cac	-13427
▁cad	-13428
▁cet	-13429
▁dic	-13430
▁doj	-13431
▁dug	-13432
▁foe	-13433
▁gil	-13434
▁hic	-13435
▁ivy	-13436
▁jfk	-13437
▁jus	-13438
▁kow	-13439
▁lac	-13440
▁lal	-13441
▁lid	-13442
▁lig	-13443
▁luk	-13444
▁maz	-13445
▁mie	-13446
▁myr	-13447
▁nah	-13448
▁ole	-13449
▁pam	-13450
▁pau	-13451
▁pea	-13452
▁pee	-13453
▁phd	-13454
▁rim	-13455
▁rup	-13456
▁rwc	-13457
▁smi	-13458
▁tad	-13459
▁tak	-13460
▁unn	-13461
▁upt	-13462
▁ury	-13463
▁vag	-13464
▁vax	-13465
▁yor	-13466
agent	-13467
allow	-13468
andum	-13469
ardon	-13470
arthy	-13471
aturk	-13472
based	-13473
eater	-13474
eddar	-13475
ersen	-13476
esome	-13477
ferry	-13478
geois	-13479
horse	-13480
hroom	-13481
icers	-13482
iffel	-13483
inder	-13484
ipher	-13485
iston	-13486
izure	-13487
keven	-13488
lable	-13489
lavia	-13490
lette	-13491
mined	-13492
nacle	-13493
ocide	-13494
olded	-13495
omore	-13496
ontal	-13497
otion	-13498
ouser	-13499
pancy	-13500
plete	-13501
raged	-13502
raine	-13503
rakia	-13504
shine	-13505
shirt	-13506
space	-13507
spons	-13508
stedt	-13509
store	-13510
strom	-13511
works	-13512
yster	-13513
▁1892	-13514
▁1894	-13515
▁1919	-13516
▁1925	-13517
▁1937	-13518
▁1947	-13519
▁1965	-13520
▁agra	-13521
▁albr	-13522
▁anch	-13523
▁avid	-13524
▁axis	-13525
▁bann	-13526
▁bast	-13527
▁beet	-13528
▁calv	-13529
▁carc	-13530
▁ches	-13531
▁cone	-13532
▁cypr	-13533
▁dash	-13534
▁dawn	-13535
▁deng	-13536
▁deny	-13537
▁eats	-13538
▁ebay	-13539
▁epit	-13540
▁fing	-13541
▁gedi	-13542
▁gene	-13543
▁glam	-13544
▁glou	-13545
▁gogg	-13546
▁gond	-13547
▁gugg	-13548
▁hann	-13549
▁hare	-13550
▁hier	-13551
▁hilt	-13552
▁hipp	-13553
▁horr	-13554
▁huff	-13555
▁idol	-13556
▁inca	-13557
▁irca	-13558
▁joey	-13559
▁judy	-13560
▁katz	-13561
▁kenn	-13562
▁knot	-13563
▁laff	-13564
▁lant	-13565
▁lgbt	-13566
▁liar	-13567
▁lily	-13568
▁loop	-13569
▁lucy	-13570
▁lugg	-13571
▁marx	-13572
▁melt	-13573
▁mgcl	-13574
▁midi	-13575
▁mint	-13576
▁morn	-13577
▁mule	-13578
▁nasa	-13579
▁ncaa	-13580
▁nond	-13581
▁offs	-13582
▁orgy	-13583
▁outn	-13584
▁owed	-13585
▁pian	-13586
▁pied	-13587
▁pint	-13588
▁plac	-13589
▁poke	-13590
▁prod	-13591
▁puff	-13592
▁rage	-13593
▁rale	-13594
▁raph	-13595
▁reex	-13596
▁reza	-13597
▁roar	-13598
▁sage	-13599
▁sake	-13600
▁sara	-13601
▁sean	-13602
▁sink	-13603
▁slab	-13604
▁snee	-13605
▁sopr	-13606
▁sque	-13607
▁swam	-13608
▁swan	-13609
▁taek	-13610
▁tang	-13611
▁teti	-13612
▁tint	-13613
▁trio	-13614
▁triv	-13615
▁unqu	-13616
▁usat	-13617
▁wors	-13618
▁yelt	-13619
agonal	-13620
alegal	-13621
ankham	-13622
antics	-13623
apolis	-13624
ashire	-13625
avirus	-13626
derick	-13627
etical	-13628
getown	-13629
hammad	-13630
icates	-13631
igator	-13632
ileged	-13633
istine	-13634
lacing	-13635
lectic	-13636
opular	-13637
person	-13638
quoise	-13639
rangle	-13640
renees	-13641
sbourg	-13642
unting	-13643
untlet	-13644
urable	-13645
▁acrob	-13646
▁akbar	-13647
▁amber	-13648
▁ambig	-13649
▁anecd	-13650
▁annun	-13651
▁array	-13652
▁blown	-13653
▁broth	-13654
▁buddy	-13655
▁burst	-13656
▁cajun	-13657
▁calle	-13658
▁caste	-13659
▁chess	-13660
▁chios	-13661
▁clich	-13662
▁clump	-13663
▁coeff	-13664
▁corin	-13665
▁corso	-13666
▁cough	-13667
▁craze	-13668
▁cyber	-13669
▁daddy	-13670
▁damon	-13671
▁digit	-13672
▁dilap	-13673
▁dilig	-13674
▁donat	-13675
▁drank	-13676
▁duchy	-13677
▁dwell	-13678
▁embry	-13679
▁enron	-13680
▁essex	-13681
▁evert	-13682
▁evoke	-13683
▁faded	-13684
▁feast	-13685
▁firef	-13686
▁flesh	-13687
▁float	-13688
▁flung	-13689
▁flynt	-13690
▁fripp	-13691
▁genev	-13692
▁gerry	-13693
▁gover	-13694
▁griev	-13695
▁haiti	-13696
▁hanna	-13697
▁hatsh	-13698
▁hefty	-13699
▁heter	-13700
▁hokka	-13701
▁homem	-13702
▁indie	-13703
▁izmir	-13704
▁kiosk	-13705
▁klein	-13706
▁lares	-13707
▁liken	-13708
▁moody	-13709
▁moses	-13710
▁motto	-13711
▁naive	-13712
▁nasty	-13713
▁oasis	-13714
▁oprah	-13715
▁paseo	-13716
▁passe	-13717
▁pedro	-13718
▁perak	-13719
▁polar	-13720
▁pompe	-13721
▁prost	-13722
▁prote	-13723
▁punct	-13724
▁pylon	-13725
▁quilt	-13726
▁rally	-13727
▁recyc	-13728
▁repet	-13729
▁rerun	-13730
▁ruano	-13731
▁sabah	-13732
▁saver	-13733
▁savoy	-13734
▁scoop	-13735
▁scoot	-13736
▁scrap	-13737
▁segal	-13738
▁semit	-13739
▁sepul	-13740
▁shave	-13741
▁shawn	-13742
▁skull	-13743
▁slice	-13744
▁squee	-13745
▁stool	-13746
▁stove	-13747
▁subar	-13748
▁syria	-13749
▁tense	-13750
▁terre	-13751
▁tidal	-13752
▁towel	-13753
▁trait	-13754
▁tread	-13755
▁trinf	-13756
▁tunic	-13757
▁unden	-13758
▁verge	-13759
▁verse	-13760
▁waver	-13761
▁wiped	-13762
▁wired	-13763
▁wolfe	-13764
▁yugos	-13765
▁zanne	-13766
akingly	-13767
artisan	-13768
erately	-13769
geoning	-13770
icopter	-13771
idating	-13772
ievable	-13773
ilation	-13774
istrict	-13775
leading	-13776
ointing	-13777
ophical	-13778
patient	-13779
portant	-13780
ractive	-13781
raduate	-13782
therner	-13783
ulative	-13784
▁airing	-13785
▁apathy	-13786
▁arabia	-13787
▁arabic	-13788
▁arnold	-13789
▁ascent	-13790
▁booked	-13791
▁boomer	-13792
▁brando	-13793
▁bucket	-13794
▁caliph	-13795
▁calvin	-13796
▁cambod	-13797
▁camper	-13798
▁cancel	-13799
▁cellar	-13800
▁chased	-13801
▁colder	-13802
▁confer	-13803
▁cretan	-13804
▁cumber	-13805
▁damned	-13806
▁deceit	-13807
▁denial	-13808
▁diaper	-13809
▁divers	-13810
▁dodger	-13811
▁edited	-13812
▁eiffel	-13813
▁ensued	-13814
▁esteem	-13815
▁exempl	-13816
▁exoner	-13817
▁expose	-13818
▁exuber	-13819
▁favour	-13820
▁finale	-13821
▁fooled	-13822
▁fusion	-13823
▁gallon	-13824
▁garlic	-13825
▁gibson	-13826
▁gritty	-13827
▁hacker	-13828
▁harrer	-13829
▁hinter	-13830
▁holder	-13831
▁hollow	-13832
▁homage	-13833
▁imagin	-13834
▁indist	-13835
▁infilt	-13836
▁intend	-13837
▁invade	-13838
▁jewell	-13839
▁judith	-13840
▁justif	-13841
▁kidney	-13842
▁kissed	-13843
▁kosher	-13844
▁kuwait	-13845
▁leaked	-13846
▁lineup	-13847
▁lionel	-13848
▁liquid	-13849
▁lounge	-13850
▁loving	-13851
▁macroe	-13852
▁martyr	-13853
▁midday	-13854
▁milder	-13855
▁miscon	-13856
▁musket	-13857
▁nelson	-13858
▁occupy	-13859
▁owning	-13860
▁paddle	-13861
▁painst	-13862
▁pajama	-13863
▁papacy	-13864
▁pardon	-13865
▁parody	-13866
▁passer	-13867
▁pastel	-13868
▁persec	-13869
▁pierce	-13870
▁pillow	-13871
▁pinker	-13872
▁poetic	-13873
▁priory	-13874
▁prized	-13875
▁quinta	-13876
▁raided	-13877
▁rained	-13878
▁rajput	-13879
▁refurb	-13880
▁relate	-13881
▁relied	-13882
▁richly	-13883
▁ripped	-13884
▁rotund	-13885
▁samuel	-13886
▁savage	-13887
▁sealed	-13888
▁shiite	-13889
▁shroud	-13890
▁simone	-13891
▁skater	-13892
▁slogan	-13893
▁snatch	-13894
▁softer	-13895
▁sprint	-13896
▁sprout	-13897
▁storyt	-13898
▁stuart	-13899
▁sturdy	-13900
▁submer	-13901
▁symmet	-13902
▁tapped	-13903
▁tenant	-13904
▁thatch	-13905
▁thesis	-13906
▁thrive	-13907
▁tiered	-13908
▁toured	-13909
▁traced	-13910
▁tribut	-13911
▁tyrant	-13912
▁unsett	-13913
▁versus	-13914
▁walled	-13915
▁warmer	-13916
▁wildly	-13917
▁wrench	-13918
▁zealot	-13919
aintance	-13920
attering	-13921
breaking	-13922
ceptible	-13923
ilingual	-13924
▁advises	-13925
▁affords	-13926
▁alumnus	-13927
▁arrives	-13928
▁ataturk	-13929
▁awesome	-13930
▁bannock	-13931
▁bassist	-13932
▁beatrix	-13933
▁belgian	-13934
▁bennett	-13935
▁blossom	-13936
▁bolshev	-13937
▁bounced	-13938
▁broadly	-13939
▁cameron	-13940
▁carlyle	-13941
▁chancel	-13942
▁charter	-13943
▁cheddar	-13944
▁cleaned	-13945
▁climbed	-13946
▁complim	-13947
▁conform	-13948
▁consume	-13949
▁cooling	-13950
▁cumbria	-13951
▁cycling	-13952
▁daycare	-13953
▁default	-13954
▁defines	-13955
▁despair	-13956
▁differs	-13957
▁dignity	-13958
▁directs	-13959
▁dischar	-13960
▁drinker	-13961
▁earnest	-13962
▁ecology	-13963
▁eleanor	-13964
▁endorse	-13965
▁endured	-13966
▁ensures	-13967
▁essence	-13968
▁exiting	-13969
▁extinct	-13970
▁fastest	-13971
▁flavour	-13972
▁florent	-13973
▁furious	-13974
▁galilee	-13975
▁gondola	-13976
▁goodman	-13977
▁gregory	-13978
▁hadrian	-13979
▁humming	-13980
▁hurried	-13981
▁ignores	-13982
▁impulse	-13983
▁indulge	-13984
▁inquire	-13985
▁judaism	-13986
▁judging	-13987
▁justify	-13988
▁kowloon	-13989
▁lantern	-13990
▁legitim	-13991
▁lorenzo	-13992
▁loyalty	-13993
▁luggage	-13994
▁martina	-13995
▁martini	-13996
▁miracul	-13997
▁modeled	-13998
▁mundell	-13999
▁nightly	-14000
▁optimal	-14001
▁outpost	-14002
▁paneled	-14003
▁pascual	-14004
▁peasant	-14005
▁perjury	-14006
▁pianist	-14007
▁picking	-14008
▁prairie	-14009
▁prefect	-14010
▁psychic	-14011
▁quicker	-14012
▁quieter	-14013
▁rafting	-14014
▁raining	-14015
▁raleigh	-14016
▁realism	-14017
▁refined	-14018
▁reliant	-14019
▁reminds	-14020
▁revived	-14021
▁revoked	-14022
▁runaway	-14023
▁rutgers	-14024
▁samurai	-14025
▁seduced	-14026
▁seizure	-14027
▁shaking	-14028
▁snorkel	-14029
▁sourced	-14030
▁spoiled	-14031
▁stepson	-14032
▁stocked	-14033
▁stumble	-14034
▁surgeon	-14035
▁synergy	-14036
▁tending	-14037
▁texture	-14038
▁thinker	-14039
▁tibetan	-14040
▁titanic	-14041
▁torture	-14042
▁trapero	-14043
▁trouser	-14044
▁turnout	-14045
▁unavail	-14046
▁uninter	-14047
▁upwards	-14048
▁urysohn	-14049
▁varying	-14050
▁vitamin	-14051
▁warfare	-14052
▁wetland	-14053
▁whistle	-14054
▁yelling	-14055
▁yeltsin	-14056
▁additive	-14057
▁airborne	-14058
▁albright	-14059
▁alphabet	-14060
▁analyzes	-14061
▁andersen	-14062
▁appetite	-14063
▁armenian	-14064
▁arrogant	-14065
▁backward	-14066
▁battling	-14067
▁benedict	-14068
▁benedykt	-14069
▁betrayal	-14070
▁beverage	-14071
▁brinkley	-14072
▁browsing	-14073
▁brushing	-14074
▁bulletin	-14075
▁cellular	-14076
▁choicers	-14077
▁comprise	-14078
▁contempt	-14079
▁crayfish	-14080
▁critique	-14081
▁crushing	-14082
▁daffodil	-14083
▁departed	-14084
▁deterior	-14085
▁diameter	-14086
▁disputed	-14087
▁dreadful	-14088
▁eclectic	-14089
▁enhances	-14090
▁enlarged	-14091
▁envision	-14092
▁explores	-14093
▁fabulous	-14094
▁fairness	-14095
▁fatality	-14096
▁flawless	-14097
▁friction	-14098
▁gauntlet	-14099
▁georgian	-14100
▁granting	-14101
▁grateful	-14102
▁gustavia	-14103
▁helpless	-14104
▁hokkaido	-14105
▁implicit	-14106
▁impunity	-14107
▁inferior	-14108
▁inherent	-14109
▁initiate	-14110
▁inserted	-14111
▁integral	-14112
▁invading	-14113
▁keyboard	-14114
▁knitting	-14115
▁lobbyist	-14116
▁longterm	-14117
▁marching	-14118
▁mccarthy	-14119
▁mcdonald	-14120
▁mediocre	-14121
▁mitigate	-14122
▁montreal	-14123
▁muhammad	-14124
▁mushroom	-14125
▁narrowly	-14126
▁notebook	-14127
▁obsessed	-14128
▁outdated	-14129
▁overcrow	-14130
▁overseer	-14131
▁overview	-14132
▁overwork	-14133
▁panorama	-14134
▁patience	-14135
▁peripher	-14136
▁persuade	-14137
▁piercing	-14138
▁populous	-14139
▁postcard	-14140
▁predicts	-14141
▁prevents	-14142
▁pulitzer	-14143
▁punching	-14144
▁punished	-14145
▁pyrenees	-14146
▁randomly	-14147
▁receiver	-14148
▁redesign	-14149
▁regulate	-14150
▁rewarded	-14151
▁screamed	-14152
▁signoria	-14153
▁simplest	-14154
▁smelling	-14155
▁spaniard	-14156
▁spinning	-14157
▁stopping	-14158
▁stumbled	-14159
▁subgroup	-14160
▁survivor	-14161
▁switched	-14162
▁terminus	-14163
▁territor	-14164
▁theology	-14165
▁twisting	-14166
▁unharmed	-14167
▁upstream	-14168
▁violates	-14169
▁windmill	-14170
▁withdrew	-14171
▁workload	-14172
privileged	-14173
▁accounted	-14174
▁admirable	-14175
▁alignment	-14176
▁alligator	-14177
▁answering	-14178
▁applauded	-14179
▁assigning	-14180
▁bourgeois	-14181
▁breakeven	-14182
▁caleornia	-14183
▁capturing	-14184
▁clarified	-14185
▁copyright	-14186
▁defeating	-14187
▁detection	-14188
▁deviation	-14189
▁disagrees	-14190
▁displaced	-14191
▁evergreen	-14192
▁exhibited	-14193
▁fifteenth	-14194
▁footprint	-14195
▁governing	-14196
▁inclusion	-14197
▁inquiring	-14198
▁intervene	-14199
▁invention	-14200
▁josephine	-14201
▁judgement	-14202
▁lifeguard	-14203
▁lightning	-14204
▁lindstedt	-14205
▁mainframe	-14206
▁mentality	-14207
▁multitude	-14208
▁organizes	-14209
▁outnumber	-14210
▁paralegal	-14211
▁patiently	-14212
▁patriarch	-14213
▁poisoning	-14214
▁porcelain	-14215
▁presently	-14216
▁processor	-14217
▁protested	-14218
▁realizing	-14219
▁reclaimed	-14220
▁repairing	-14221
▁replacing	-14222
▁reservoir	-14223
▁restoring	-14224
▁retreated	-14225
▁santorini	-14226
▁secretive	-14227
▁semantics	-14228
▁sophomore	-14229
▁storyline	-14230
▁succumbed	-14231
▁symbolism	-14232
▁targeting	-14233
▁terrified	-14234
▁tolerance	-14235
▁translate	-14236
▁turquoise	-14237
▁tutankham	-14238
▁uncontrol	-14239
▁undermine	-14240
▁unpopular	-14241
▁untouched	-14242
▁uplifting	-14243
▁aggression	-14244
▁analytical	-14245
▁aristocrat	-14246
▁aspiration	-14247
▁charitable	-14248
▁commanding	-14249
▁confession	-14250
▁constitute	-14251
▁coordinate	-14252
▁corinthian	-14253
▁downstairs	-14254
▁downstream	-14255
▁endangered	-14256
▁entrenched	-14257
▁excavation	-14258
▁excellence	-14259
▁expressway	-14260
▁flamboyant	-14261
▁generating	-14262
▁geographic	-14263
▁geological	-14264
▁georgetown	-14265
▁gloucester	-14266
▁graduating	-14267
▁guggenheim	-14268
▁hatshepsut	-14269
▁helicopter	-14270
▁hinterland	-14271
▁improperly	-14272
▁inevitably	-14273
▁inherently	-14274
▁intangible	-14275
▁invariably	-14276
▁lancashire	-14277
▁memorandum	-14278
▁meticulous	-14279
▁noticeable	-14280
▁originated	-14281
▁perfection	-14282
▁pertaining	-14283
▁petersburg	-14284
▁pilgrimage	-14285
▁pittsburgh	-14286
▁playground	-14287
▁politeness	-14288
▁preserving	-14289
▁proficient	-14290
▁programmer	-14291
▁protesting	-14292
▁quadrangle	-14293
▁relaxation	-14294
▁repression	-14295
▁simplistic	-14296
▁stationary	-14297
▁structural	-14298
▁subsidized	-14299
▁supportive	-14300
▁sustaining	-14301
▁sweatshirt	-14302
▁temptation	-14303
▁transplant	-14304
▁tremendous	-14305
▁triangular	-14306
▁triumphant	-14307
▁typewriter	-14308
▁unbeatable	-14309
▁underwater	-14310
▁unprepared	-14311
▁vigorously	-14312
▁workshared	-14313
▁yugoslavia	-14314
▁affiliation	-14315
▁broadcaster	-14316
▁businessman	-14317
▁coefficient	-14318
▁coincidence	-14319
▁commandment	-14320
▁confederate	-14321
▁consistency	-14322
▁contemplate	-14323
▁cooperative	-14324
▁coordinated	-14325
▁correlation	-14326
▁demographic	-14327
▁dilapidated	-14328
▁discrepancy	-14329
▁entertained	-14330
▁excessively	-14331
▁firefighter	-14332
▁forthcoming	-14333
▁inheritance	-14334
▁interchange	-14335
▁macroeconom	-14336
▁mathematics	-14337
▁snowboarder	-14338
▁spontaneous	-14339
▁stockholder	-14340
▁subtropical	-14341
▁terminology	-14342
▁undesirable	-14343
▁unimportant	-14344
▁universally	-14345
▁volunteered	-14346
▁whipmasters	-14347
▁acquaintance	-14348
▁collectively	-14349
▁disappearing	-14350
▁distributing	-14351
▁encompassing	-14352
▁hypothetical	-14353
▁inconsistent	-14354
▁individually	-14355
▁investigated	-14356
▁periodically	-14357
▁psychiatrist	-14358
▁snowboarding	-14359
▁strengthened	-14360
▁subscription	-14361
▁thunderstorm	-14362
▁tremendously	-14363
▁unacceptable	-14364
▁unattractive	-14365
▁autobiography	-14366
▁contraceptive	-14367
▁dissemination	-14368
▁painstakingly	-14369
▁philosophical	-14370
▁realistically	-14371
▁skateboarding	-14372
▁undergraduate	-14373
▁unpredictable	-14374
▁constantinople	-14375
▁disappointment	-14376
▁reconciliation	-14377
▁reorganization	-14378
▁stephanopoulos	-14379
11	-14380
36	-14381
85	-14382
ao	-14383
cr	-14384
cu	-14385
cz	-14386
fm	-14387
fu	-14388
kl	-14389
oa	-14390
rs	-14391
rt	-14392
si	-14393
uu	-14394
acf	-14395
alc	-14396
arr	-14397
aut	-14398
bag	-14399
bla	-14400
dou	-14401
ear	-14402
eca	-14403
eda	-14404
esi	-14405
eum	-14406
far	-14407
ffa	-14408
ffe	-14409
fia	-14410
fta	-14411
hir	-14412
hot	-14413
hwa	-14414
jar	-14415
kim	-14416
lat	-14417
lix	-14418
loo	-14419
mod	-14420
mud	-14421
nny	-14422
nos	-14423
oel	-14424
oin	-14425
olk	-14426
oll	-14427
omi	-14428
org	-14429
ori	-14430
ovo	-14431
qiu	-14432
sph	-14433
sty	-14434
tin	-14435
uat	-14436
uny	-14437
uri	-14438
usz	-14439
vak	-14440
yni	-14441
zel	-14442
▁64	-14443
▁76	-14444
▁89	-14445
▁bm	-14446
▁dl	-14447
▁gm	-14448
▁hr	-14449
▁ji	-14450
▁md	-14451
▁pf	-14452
▁tb	-14453
▁ud	-14454
▁vt	-14455
▁zy	-14456
acha	-14457
acio	-14458
agia	-14459
angh	-14460
arin	-14461
arse	-14462
aser	-14463
ashi	-14464
atus	-14465
avis	-14466
bise	-14467
borg	-14468
brid	-14469
chem	-14470
czys	-14471
emin	-14472
enet	-14473
eous	-14474
eras	-14475
eroy	-14476
erpt	-14477
fume	-14478
gett	-14479
guer	-14480
idel	-14481
iers	-14482
ikes	-14483
ilin	-14484
imen	-14485
inan	-14486
iole	-14487
iost	-14488
ipeg	-14489
isal	-14490
ists	-14491
itas	-14492
ivij	-14493
jman	-14494
juku	-14495
kind	-14496
krit	-14497
lane	-14498
laus	-14499
lery	-14500
lesi	-14501
lies	-14502
loid	-14503
made	-14504
mick	-14505
nell	-14506
nery	-14507
okko	-14508
oley	-14509
onar	-14510
ondo	-14511
onso	-14512
onys	-14513
orie	-14514
otal	-14515
plex	-14516
quer	-14517
rand	-14518
rera	-14519
ribe	-14520
rofo	-14521
[...]
