#version: 0.2
i n
e r
Ġ s
r e
o n
Ġ c
e n
a n
e d
Ġ p
a l
č Ċ
in g
a t
a r
Ġ t
Ġ m
o r
l e
s t
i t
Ġ d
Ġ b
Ġ f
o u
Ġ w
i c
Ġ a
Ġ g
i on
Ġ l
en t
Ġ e
Ġ re
Ġ h
r o
l y
o m
i s
Ġ n
c e
c t
i l
e t
e l
Ġs t
s s
i d
Ġ in
o l
a y
o w
i g
i v
Ġ u
r a
i m
s e
c h
t h
at ion
v er
u r
o p
Ġ k
Ġd e
a d
a m
at e
u l
g e
Ġ r
Ġp ro
o t
on e
an d
k e
i r
Ġt h
Ġc h
Ġc on
Ġn e
ou n
m ent
a s
Ġ v
o d
Ġs e
Ġc om
an t
ig h
u n
it y
iv e
i f
i st
q u
t er
c k
Ġ al
Ġ j
y e
u m
Ġe x
Ġ le
Ġ o
u s
e st
Ġg o
l a
Ġ 1
e m
or t
Ġs h
b le
u t
ar t
i e
p p
u re
l d
ar d
n ow
f f
igh t
al ly
Ġm a
Ġm an
al l
u d
ic e
r i
en d
Ġw or
Ġu n
el l
in e
u e
p e
v e
id e
ou ld
Ġc a
Ġk now
Ġ ye
Ġl o
a in
Ġ an
il l
ou r
at ed
Ġs u
Ġp er
g h
a st
l o
or m
im e
Ġ one
i ke
o k
i re
it e
Ġp e
c i
Ġ ro
oun d
r y
Ġb e
Ġp re
on g
ou s
Ġp l
is h
Ġcom p
Ġ en
Ġp o
an ce
Ġc o
ol d
h er
Ġa d
ct ion
in d
op le
ou gh
i z
Ġt a
Ġl ike
Ġ im
Ġu h
Ġ ar
Ġs a
Ġpe ople
a ge
b er
p t
Ġs p
Ġa c
Ġl a
0 0
en ce
Ġye ar
r u
k ing
Ġt ime
o g
Ġin c
p er
ou t
oun t
a re
n e
re e
om e
ig n
Ġ1 9
Ġb o
Ġw ould
it t
a ck
d u
Ġ qu
Ġs er
Ġre s
Ġ 2
i an
in k
is s
ar y
Ġw e
b l
w o
e ct
Ġf a
Ġm u
f orm
Ġne w
a h
or d
Ġcon t
Ġe ver
Ġh e
a g
i p
Ġe v
Ġim p
am e
Ġa m
a ble
o re
Ġm e
o s
Ġd is
w ay
Ġ y
Ġwor k
Ġt e
Ġw h
th er
Ġre p
Ġu s
il d
m an
re ss
ul t
Ġp art
Ġg et
in t
ic al
Ġt ra
Ġin ter
f er
c y
i a
Ġp r
at t
it ion
Ġg r
s o
Ġ ra
Ġ op
Ġs c
Ġa g
Ġin d
ar k
Ġa pp
c on
Ġcom m
or y
Ġe m
at er
s h
a ch
Ġm o
Ġb u
Ġc l
ic t
th ing
Ġever y
a b
Ġb r
e s
a p
Ġt wo
v ed
Ġ or
ad e
Ġc ent
t e
Ġst ate
ce ss
e p
Ġa ct
v el
i al
Ġo ff
ro w
f t
u al
l ow
p le
Ġc ar
Ġa ss
Ġw ell
Ġth ink
Ġc ol
om an
v ice
re a
ra m
s on
Ġg re
Ġs m
Ġgo od
Ġex p
o c
c ed
Ġpl ay
Ġde s
Ġf e
Ġne ver
re n
a ct
n ing
un d
ow n
u st
u bl
Ġre c
Ġcon s
Ġne ed
Ġ att
f ul
Ġman y
at ive
if ic
Ġp ol
Ġser vice
Ġb ack
it h
Ġal so
Ġde c
ic k
i ous
re d
ou se
Ġp a
Ġre g
Ġh igh
Ġj o
iv er
Ġs pe
at h
Ġse e
i b
i ly
d er
Ġt r
ver n
et h
l ud
Ġw oman
Ġac c
Ġm on
Ġh a
Ġin v
Ġle g
Ġth ing
Ġp la
t y
Ġh el
an g
ci al
at ing
Ġf in
Ġc ould
Ġ ent
Ġd ay
id ent
Ġn o
Ġan y
Ġw ay
en cy
ic an
Ġpro g
if e
Ġlo ok
an ge
Ġma ke
Ġr u
er al
l and
Ġf ir
v ing
Ġs o
Ġre m
o od
en s
Ġsa id
il ity
Ġs y
i ed
er t
Ġgo vern
Ġl ot
is e
Ġg u
Ġre l
g an
ation al
ur y
Ġpre s
at ch
i le
Ġd if
Ġr ight
Ġm ay
Ġmu ch
Ġw ant
Ġ out
Ġev en
t ing
Ġst and
Ġco st
Ġe ff
p h
Ġc ount
s c
Ġpro v
ough t
Ġf r
Ġta ke
Ġprog ram
Ġc ity
a il
Ġm ade
ie w
s ide
Ġl ong
a k
Ġre ally
a se
Ġh ouse
Ġinc lud
at her
Ġla w
u h
ul ar
Ġ old
i ent
it ed
Ġgovern ment
as ed
Ġg en
n ed
Ġw ith
Ġin form
Ġpro du
u ally
Ġp ubl
Ġsh ow
Ġfir st
e ss
Ġst ud
Ġs ch
ye ah
al k
Ġc r
o ol
Ġa b
Ġp h
Ġs om
Ġf am
i ble
Ġch ild
a c
Ġh and
Ġde f
Ġgo ing
Ġpl an
Ġc lo
ar ing
Ġs ay
Ġlo c
Ġus ed
Ġsu b
d ition
Ġb us
ow er
Ġw ar
a v
Ġk e
b e
ct ed
Ġsu pp
or k
st em
Ġam er
Ġm ar
Ġg ot
Ġre qu
i x
Ġb el
Ġt er
Ġinform ation
Ġ is
am p
iv id
itt le
Ġsy stem
it al
oun g
Ġ art
ar ge
Ġye ah
Ġpla ce
o h
Ġw r
en e
al e
Ġb l
ou p
em ber
Ġar ound
Ġst re
er n
Ġdif fer
Ġf or
Ġn um
Ġleg al
i o
Ġsm all
l ed
o y
as on
v en
Ġs ign
an k
ct or
Ġdis c
Ġst ill
id er
Ġu se
j ect
ut e
Ġ19 9
Ġs ur
Ġa s
o st
n er
ol og
way s
Ġhel p
Ġo b
Ġv is
o se
Ġin st
Ġs w
Ġc la
Ġm in
Ġf ound
Ġper son
Ġf orm
Ġrep ort
Ġ ed
Ġp ay
Ġcent ury
Ġwh ite
c ent
Ġc or
Ġ2 00
Ġs ou
Ġe le
Ġin t
Ġl ife
i er
Ġde p
Ġcount ry
Ġpubl ic
s p
ir l
Ġd r
Ġa rea
Ġre t
Ġe ar
Ġth ree
Ġp op
e k
Ġs k
Ġh ome
Ġme an
Ġs et
Ġg a
Ġor gan
eth ing
Ġm od
a ce
Ġf ind
ro l
Ġre st
an y
ivid ual
in ed
Ġc re
o ther
in ce
Ġw ater
x t
Ġl ittle
ent ion
Ġs im
g et
iz ation
Ġc all
Ġcomp le
Ġst r
Ġu m
Ġwor ld
p l
Ġru le
Ġal ways
Ġca re
Ġf ed
Ġe l
at ure
Ġper form
f it
Ġd o
ra ct
as h
Ġinter est
od y
Ġv al
Ġag ency
Ġm en
Ġstre et
on t
Ġa v
Ġcol le
Ġ end
Ġ iss
Ġt own
Ġca se
iz ed
Ġsom ething
Ġd a
ut ion
one y
iss ion
c ur
Ġt ur
Ġg ra
p on
Ġl ast
Ġbu ild
Ġd el
ish ed
Ġen g
Ġind ividual
Ġem p
Ġc our
al th
Ġex t
Ġ2 0
is ion
Ġgre at
Ġc ur
Ġb ar
Ġm us
et her
Ġd ist
Ġde m
Ġrequ ire
Ġt ri
Ġch ar
w ard
ad y
Ġsch ool
Ġbel ie
ir t
Ġle ad
re s
Ġamer ican
la ck
Ġd et
Ġd ire
Ġcom e
om m
Ġr un
Ġe st
Ġst art
Ġca p
ur ch
le ss
Ġb et
u b
it or
Ġl arge
Ġfed eral
g er
Ġg irl
Ġgr oup
Ġha pp
e ver
g r
at ter
Ġm oney
w ell
Ġm ark
ic h
Ġre al
ine ss
en se
Ġun der
Ġbo ok
Ġy oung
Ġm ed
Ġre v
Ġn ot
o le
Ġf und
an s
Ġn ational
o ok
Ġapp ro
e e
ce pt
Ġfam ily
Ġm ight
Ġpart ic
l ing
pe ct
Ġbe c
Ġnum ber
are d
Ġ 3
b or
Ġch ange
Ġne ar
Ġs it
m in
Ġt our
sh ip
t ed
Ġw atch
ch n
qu e
Ġpo st
Ġa ir
Ġad d
Ġiss ue
Ġt op
ic a
Ġo ver
d e
Ġn or
Ġdes ign
iv ed
Ġany thing
m er
o ot
ert ain
Ġa u
Ġimp ort
con om
Ġdiffer ent
m e
y s
iv ing
ble m
is m
Ġf ar
ic ally
Ġh um
j or
Ġf l
on d
Ġb ro
Ġb est
vel op
Ġbuild ing
e x
Ġk ind
ord er
Ġp ar
Ġb ig
ri b
Ġb lack
Ġknow n
Ġstud y
al king
ul ation
Ġh ist
Ġpro blem
Ġpo int
Ġt ry
id ed
Ġcomp any
or n
Ġe conom
a ir
Ġwe ek
Ġa way
Ġch e
Ġle ss
Ġs ing
Ġf ol
ro ss
itt ing
Ġt y
ren t
Ġb ene
Ġan other
Ġf il
c er
Ġc le
Ġk id
Ġte chn
p os
Ġbet ter
c ing
Ġp ut
Ġex per
r al
Ġv ar
an e
ent ly
Ġsou th
j oy
ate ly
Ġle t
Ġse em
Ġcomm un
Ġs ince
Ġbus iness
k now
ab ly
at a
Ġta x
Ġoff er
Ġcons ider
Ġf our
ver al
Ġman age
Ġa ff
Ġeff ect
Ġ1 8
Ġop en
p r
i el
ur al
olog y
u se
ill ion
Ġco ver
ific ant
g y
Ġs ome
Ġth ought
Ġma jor
Ġorgan ization
Ġre d
Ġh old
Ġn ame
Ġper cent
Ġh ard
Ġwe aring
Ġcont rol
Ġde velop
Ġs ide
Ġpol it
Ġcon st
iz e
th or
Ġa ud
Ġs l
Ġal ong
Ġwith out
ar ch
Ġn ight
Ġf re
Ġre ad
Ġhe ad
Ġinv est
Ġd og
Ġf un
Ġis land
Ġemp lo
Ġb as
ne ss
Ġoff ice
Ġrem ain
Ġth ough
a z
Ġw ent
Ġmu st
ul l
Ġsu c
Ġen joy
Ġres pon
our ce
00 0
ft en
y er
Ġcla ss
le y
il t
u ment
al ity
iv ity
Ġne xt
Ġf ive
Ġv iew
Ġprov ide
a ke
Ġbo y
Ġres ult
Ġsign ificant
Ġsupp ort
Ġt em
Ġf ore
b all
it her
Ġsh irt
end ing
ion al
Ġl and
Ġ 5
e ad
u c
Ġle ft
t on
ri end
Ġro om
Ġc al
Ġfil m
t wo
ire d
Ġbe h
Ġpro cess
a ss
f l
Ġre ce
Ġpo ss
int on
Ġfin an
res ent
Ġ ide
Ġg row
Ġo ften
Ġfe el
in al
Ġmu se
o ver
Ġmon th
w ork
Ġc amp
Ġh ot
Ġst e
ge st
Ġsa ving
Ġspe c
st and
Ġno thing
Ġfol low
g ress
Ġd ata
Ġad v
Ġpres ident
er y
Ġf oot
Ġmark et
Ġmanage ment
Ġp ort
Ġal low
Ġnor th
Ġp ain
Ġw alk
Ġke ep
i k
i or
at or
ne w
Ġs ure
Ġch urch
est ion
Ġcont in
Ġapp e
Ġmus ic
Ġ 4
Ġg ame
Ġh ar
Ġr ate
Ġimport ant
it ing
Ġw est
Ġe ast
us ed
Ġplay ing
b ody
Ġb ud
Ġacc ount
Ġin s
Ġin it
ie s
Ġinter n
Ġcomple te
p ort
v ie
Ġg ive
i et
Ġm et
Ġjo b
Ġbl ue
con d
a pp
Ġp ark
Ġse veral
Ġma il
Ġcur rent
Ġre ason
ue ss
u p
end ed
Ġ order
Ġt est
Ġw in
Ġh or
Ġimp ro
i i
Ġt re
her e
ens ive
u pp
Ġloc al
c ut
in a
Ġbene fit
n t
s er
Ġst ay
Ġrep resent
Ġan n
a ve
Ġcl inton
p or
in ing
Ġp ower
Ġe as
il la
Ġst ory
ow ever
Ġle vel
Ġun ited
Ġop er
g ed
od ay
Ġstand ard
Ġte am
Ġinv ol
r ic
Ġd ue
ir d
Ġqu estion
Ġmo vie
re t
Ġd ra
Ġre f
Ġpr iv
Ġav ail
r ict
Ġf ree
Ġe qu
if ied
Ġt ook
ver s
Ġma in
Ġrec ord
iel d
a u
ic y
Ġj e
Ġcent er
Ġfr ont
d ay
i ence
Ġre le
id ing
Ġevery one
p ro
Ġ 000
Ġs um
Ġp al
Ġs ite
Ġd ol
Ġd one
Ġsh op
st er
Ġo ther
Ġout side
r ation
Ġt w
Ġm id
Ġre du
Ġ ir
f e
Ġm ember
om b
am ple
c l
m ed
ib ility
Ġas k
en ed
ot t
ri ed
Ġperform ance
Ġsuc cess
Ġmuse um
Ġcon gress
Ġpre v
ru g
Ġwith in
h n
iv en
c le
Ġf riend
um p
Ġan al
Ġbe ach
Ġev ent
Ġst at
Ġo c
Ġar ch
ne y
Ġfinan cial
i um
it er
Ġpro f
Ġpo s
Ġs ix
Ġc an
Ġt ru
Ġm ount
Ġh our
is k
Ġro ad
Ġen ough
Ġevery thing
rea se
Ġavail able
dition al
Ġp at
Ġp ur
ie ce
Ġtr ans
Ġ20 1
l ar
Ġm or
Ġor ig
Ġ1 5
Ġsh ort
Ġprodu ct
Ġbelie ve
Ġrev iew
u ed
Ġb ad
Ġcomp et
Ġjo hn
Ġ z
Ġp ract
Ġa f
ress ed
c om
u ation
Ġb ased
Ġl ive
iver s
Ġs itting
Ġb ur
Ġth e
Ġpop ular
Ġm er
Ġm iss
Ġse cond
Ġ1 0
Ġqu ite
Ġpres ent
u ck
Ġe ither
Ġo h
Ġhe alth
g in
Ġse en
og ether
Ġgen er
n o
ow ard
Ġide a
a bl
b o
l er
Ġro ck
Ġs un
Ġre se
l ine
Ġter m
Ġga o
u gh
Ġm r
Ġg uess
is ing
Ġex e
Ġm illion
Ġact ivity
Ġinclud ing
o ice
Ġc ertain
art ment
ure d
Ġsu g
Ġus ing
Ġbu ilt
Ġoff ic
Ġl im
Ġk ing
Ġcall ed
re w
Ġp ast
Ġpro b
us h
Ġp ri
Ġcon f
Ġma king
Ġpart y
Ġp en
ic ation
Ġpro t
ag er
Ġpa ss
Ġc ra
Ġm atter
ate s
Ġpr ice
Ġt ree
o ci
Ġc ame
Ġg e
Ġpro ject
Ġch r
Ġlook ing
f ic
Ġgen eral
Ġty pe
b y
eth od
Ġtechn ology
k en
Ġ er
Ġv e
Ġse cur
s ure
Ġ 6
Ġc ult
Ġt oday
Ġf ood
Ġa ble
Ġl ow
is on
Ġstand ing
Ġc ut
Ġt ogether
Ġst ar
Ġar m
Ġfa ct
Ġtem ple
Ġ ant
er ous
is ed
Ġwor king
u ss
Ġt en
Ġm ile
Ġcap ital
le ment
Ġa ction
ct ure
Ġcour t
i que
le s
op e
Ġma g
Ġme et
Ġbud get
Ġl ater
Ġdel iver
Ġm il
Ġg ard
il ar
Ġy et
Ġact ually
Ġeff ort
Ġf lo
Ġass oci
Ġexe cut
ic le
Ġval ue
Ġdol lar
Ġt alk
Ġf ut
Ġv illa
Ġ1 7
ve ment
m a
m ost
Ġc e
Ġl sc
Ġse c
Ġsecur ity
u ff
Ġl ine
Ġle ast
r ight
u g
Ġl ist
Ġh al
Ġv ol
Ġam ong
ore d
Ġpa per
Ġel se
Ġau thor
d le
Ġm ethod
Ġag o
Ġother s
Ġcon c
Ġsome one
Ġp iece
Ġt ell
Ġst op
Ġpre t
Ġprob ably
a ff
l ike
el t
ie f
Ġy ork
Ġwork er
Ġgre en
act er
Ġgard en
n a
er ed
Ġmod el
Ġsing le
w h
ur n
Ġj ust
Ġhum an
ro p
Ġin du
Ġbr it
Ġpol icy
Ġpartic ip
Ġinit i
y ing
z e
Ġw a
Ġa ge
ye s
Ġf ig
Ġf ish
Ġr isk
Ġlo st
Ġinc ome
are nt
g o
Ġre fer
Ġre ach
Ġwant ed
Ġbec ome
s pe
itt en
Ġchar acter
i en
in ation
Ġc ard
im ate
Ġr iver
ive ly
Ġnew s
Ġest abl
Ġfut ure
Ġc row
ye e
Ġwor d
Ġac cess
Ġunder stand
Ġcommun ity
upp ence
ent y
Ġfa ce
ren ch
ivers ity
Ġrese arch
er ing
le t
Ġb ra
Ġpl ant
a w
a ut
i ra
r ing
Ġf oc
ot e
un ch
Ġ19 8
Ġpolit ical
Ġprof ess
Ġt ot
Ġb ase
Ġu p
Ġr ather
Ġj ap
ci ent
Ġcr it
Ġear ly
Ġn on
ys is
Ġconst ru
Ġs an
id ence
Ġse ason
min ist
Ġs at
Ġth r
as ure
Ġindu st
Ġe ye
Ġde al
Ġres ource
und red
n y
p ar
Ġ 7
Ġpro pos
Ġlo ve
Ġinc rease
Ġtra vel
Ġmin ute
Ġmount ain
Ġexecut ive
Ġ 9
ill ed
Ġvis it
Ġhist ory
o ck
Ġget ting
Ġcomm on
oc ument
Ġtry ing
Ġvar ious
Ġemplo yee
Ġw ood
el f
Ġde b
Ġeconom ic
Ġsug gest
Ġinclud e
Ġs al
Ġex ist
Ġqu ality
Ġgr ant
Ġfe ature
Ġdec ision
Ġent ire
Ġdo or
Ġn ation
ur ing
Ġad minist
Ġac ross
Ġfa il
Ġwh ether
Ġlead er
Ġbeh ind
Ġspec ific
Ġchr ist
c a
m ing
Ġin fl
ord ing
Ġimp act
Ġwh ole
Ġgr ound
in s
Ġh undred
Ġj ud
ther n
Ġus ually
Ġclo se
Ġloc ated
Ġpost al
o b
u ter
at ic
Ġn et
um e
Ġlaw yer
d en
Ġs qu
Ġc ou
Ġt alking
Ġt uppence
Ġb lo
Ġpriv ate
en ing
Ġla ck
Ġinter v
Ġfor ce
g ing
Ġ ident
al so
Ġw ind
ci ally
Ġplay er
Ġwr itten
i am
y le
Ġf ort
pt ion
Ġcle ar
Ġs ol
Ġc am
Ġf ield
et y
Ġst ep
as k
Ġcom ment
Ġinc re
Ġcol or
Ġdes c
Ġhel d
pl ay
Ġcour se
l l
Ġag ree
Ġcomplete ly
Ġpret ty
r on
Ġd ocument
Ġam ount
Ġpartic ular
Ġtour ist
b and
w e
on y
Ġf ull
Ġw alking
Ġh uh
Ġde st
Ġal b
Ġ1 2
Ġbe aut
Ġcla im
Ġsim ilar
Ġanal ysis
b el
Ġd ou
ab ility
Ġbr ing
Ġass ist
Ġfin al
Ġdet ail
Ġhist or
i pp
Ġs en
Ġp le
Ġh ill
row n
Ġneed ed
Ġdisc uss
h old
i od
ter n
Ġ1 6
a ur
Ġpract ice
Ġhal f
Ġp ot
Ġm ult
ain ed
Ġta ble
Ġso cial
c ome
ic ient
Ġh er
Ġal most
Ġen v
Ġc oun
Ġd rug
Ġb al
et ime
un g
Ġj on
v or
Ġ it
ic ated
et er
Ġal c
ific ation
re ady
Ġt old
Ġg l
th ough
Ġr out
as ing
all en
Ġco ast
Ġrep ubl
Ġcomm itt
Ġed uc
in king
Ġw all
ent ial
Ġpro m
ir on
Ġen c
Ġsc re
Ġdet er
Ġrespon s
d o
on der
at ory
Ġb ill
Ġf rench
Ġspe cial
Ġcolle ction
Ġhor se
b r
Ġ ital
Ġs and
Ġst ore
pe cted
Ġpo or
Ġta ken
og ra
Ġpos ition
Ġt oward
Ġg iven
Ġn at
Ġro man
Ġdep artment
fic ult
Ġvilla ge
Ġbrit ish
Ġs il
Ġgr and
Ġda an
omm y
u ro
w oman
Ġm ention
Ġw ill
Ġl ight
im al
Ġse ction
Ġper iod
ful ly
Ġposs ible
Ġsum mer
a f
Ġ ii
Ġf ire
Ġg er
Ġla ke
Ġele ct
Ġm om
it ch
am ed
Ġex c
Ġgo al
Ġpre fer
Ġcomp uter
Ġar r
oh ol
re ad
it ary
Ġa ch
if ul
Ġstud ent
Ġplan ning
Ġcolle ge
Ġhot el
aur ant
Ġcl ient
Ġcent ral
Ġrest aurant
Ġrequire ment
Ġfig ure
iron ment
c o
h owever
Ġs ound
Ġl ate
th ink
un e
ist er
ain t
ag ed
ict ure
Ġdef in
p ed
re me
Ġb ank
Ġst aff
iv al
Ġfa c
os ed
Ġte x
Ġreg ion
Ġexper ience
Ġalc ohol
Ġach ie
p a
s y
Ġv i
ious ly
Ġtr ue
Ġdif ficult
Ġstart ed
Ġappro ach
Ġbec ame
Ġinfl u
g u
Ġc iv
Ġm ot
le ct
Ġd an
Ġg old
Ġin side
Ġsu per
Ġpr im
Ġbu y
Ġrel ated
Ġconsider ed
Ġ 8
Ġf low
Ġst ru
if t
Ġal ready
ous and
ber t
os p
Ġhold ing
o ss
w here
Ġp icture
Ġd u
Ġa w
Ġa id
Ġj our
rea k
Ġany one
Ġob ser
Ġtur n
Ġappe ar
Ġask ed
Ġenv ironment
Ġma int
Ġpre ss
Ġreg ard
Ġmod ern
Ġfre qu
Ġjust ice
Ġcrow d
Ġindust ry
p ite
p ose
Ġd om
Ġst ra
Ġch amp
ist ic
Ġun iversity
Ġhe ard
Ġs ent
Ġc at
Ġle ar
Ġca st
Ġro le
Ġbe gan
ict ion
Ġit em
s et
v al
Ġs ong
Ġm ind
Ġde ath
Ġdire ct
Ġrun ning
Ġoffic ial
Ġtot al
Ġt v
Ġl iving
Ġte le
Ġdist rict
Ġinvest ment
h ib
s ed
Ġta king
Ġtra in
Ġcons ist
Ġdra w
Ġcou ple
t ime
it ive
Ġf elt
Ġa p
Ġman ager
Ġ19 7
man y
Ġass ess
Ġab s
ash ing
Ġalb um
y oung
Ġ ill
Ġa ward
Ġe uro
Ġbe gin
Ġcomm ission
Ġsit uation
Ġinvol ved
a pe
Ġs ort
Ġs old
Ġc red
Ġm al
Ġf le
Ġth ousand
Ġqu ick
Ġem er
Ġgu y
Ġrel ig
Ġstr ate
Ġeas y
Ġmid dle
b ur
Ġt it
Ġb all
Ġl ou
Ġex ample
i ro
Ġ at
Ġst uff
Ġwor th
Ġun f
Ġind ian
s w
an a
Ġb and
Ġg od
Ġn ice
Ġv ict
Ġamer ica
Ġpop ulation
Ġseem s
Ġrece ived
Ġst yle
Ġk new
ell ow
Ġop t
Ġav o
gr ound
Ġdevelop ment
Ġcontin ue
Ġdeliver y
etime s
Ġchamp ion
in o
er s
er v
Ġs on
Ġt ommy
Ġb rown
Ġne cess
Ġal though
lo ok
oc r
Ġ own
Ġs ell
ar ter
Ġb ed
Ġb ody
Ġw ide
Ġw ife
Ġst ation
Ġye s
Ġbo at
Ġbo ard
Ġapp l
Ġche ck
l ish
Ġs le
ic s
Ġe spe
Ġcon dition
Ġj ack
Ġ1 4
Ġar g
Ġsa w
Ġfa vor
ang ed
Ġrem ember
Ġadd ress
Ġrout e
s a
re at
ver t
Ġlike ly
Ġimp lement
Ġent ity
Ġke y
Ġciv il
Ġeuro pe
f act
Ġl ang
if y
Ġnum erous
Ġespe cially
er a
ou th
us band
em pt
Ġpr in
Ġlook ed
Ġinterest ing
Ġsqu are
f ect
h e
z z
Ġc ust
Ġf all
la ss
ri ble
Ġsp end
ep end
Ġexp l
Ġpay ment
Ġstr ong
Ġfore ign
Ġpat ient
Ġbeaut iful
i us
re st
Ġf ight
am a
Ġch allen
Ġo k
Ġfr ance
Ġfam ous
Ġdire ctor
Ġoc c
Ġrepubl ican
b ack
d ing
p ing
Ġw onder
Ġa ut
Ġh all
Ġdec ided
Ġcre ated
Ġorig in
Ġfoc us
f or
Ġb orn
Ġe ight
Ġst ri
Ġca use
ame s
Ġcons um
Ġrequire d
ogra ph
Ġp arent
Ġd on
Ġst one
Ġj er
Ġplay ed
Ġob ject
Ġrele ased
y ed
Ġf if
Ġac cept
Ġprov ided
Ġdem and
Ġmil itary
g ot
o e
an n
Ġb it
Ġh usband
Ġch ance
um b
Ġhe av
Ġha ir
Ġcr ime
Ġinst ead
Ġarch ite
o ke
Ġd ark
Ġf ine
Ġl ower
Ġl ady
Ġu t
Ġr ich
Ġsu ff
Ġcar ry
Ġreg ulation
Ġeng ine
Ġbro ad
Ġvi ol
Ġc ir
en g
Ġp ick
Ġth ird
Ġj ames
og n
Ġph ot
Ġje w
Ġd am
Ġj ump
Ġle ave
Ġma ss
Ġan cient
Ġ19 5
Ġcont ain
Ġsk y
Ġeng lish
gy pt
u ge
Ġs us
il ing
id ge
un t
Ġsp ort
Ġac qu
Ġcor re
se e
att le
Ġinclud es
Ġsom etimes
Ġcor por
Ġga ve
Ġcult ure
Ġstru cture
h ead
r or
Ġc ru
Ġr ide
Ġex ce
Ġad m
Ġdiffer ence
Ġdesign ed
Ġprot ect
Ġtex as
l ight
t ra
il le
em e
ite ly
Ġsp ace
Ġhigh er
Ġcommitt ee
Ġs now
Ġm ich
Ġd en
Ġpe ace
Ġ19 6
Ġser ies
Ġev al
Ġind epend
Ġcl ub
Ġlet ter
Ġpri or
1 9
p ri
Ġc y
Ġh it
Ġh ol
is c
un ity
la ce
Ġsh are
ough out
Ġcont rib
Ġme asure
Ġmo ve
led ge
Ġvis itor
Ġpal ace
Ġlang u
o f
o int
y al
Ġs ource
ar ily
Ġt ower
Ġh ur
Ġwe b
Ġem ission
Ġatt ack
Ġprodu ction
Ġwr ong
Ġinst ru
Ġfollow ing
l im
r ound
Ġp ack
Ġb reak
if f
Ġmo ved
Ġdr ive
Ġaff ect
Ġmom ent
e f
e en
g a
o th
Ġ ing
ou ch
is l
Ġper s
Ġsp ot
Ġte ach
Ġtra ining
Ġlong er
ven ue
ashing ton
a ign
i ber
Ġch air
Ġme ss
Ġrec omm
Ġhapp y
Ġcust om
Ġc ath
ou ra
Ġh at
ra el
Ġr ound
pt ure
Ġhe art
Ġra ce
Ġmay be
Ġext reme
Ġest imate
Ġlangu age
in c
Ġs elf
Ġm ur
Ġd rew
Ġg ree
Ġe gypt
Ġde ad
Ġch oice
pp ed
Ġso on
Ġph ys
Ġintern ational
Ġflo or
a king
p ly
r in
s m
st r
Ġst ock
Ġde v
Ġcom b
Ġj ul
Ġsp ent
Ġser ved
Ġdis play
Ġtra ck
Ġsw e
Ġreport ing
Ġeconom y
Ġmor ning
Ġiniti ative
v ision
Ġc ross
Ġb re
Ġl ie
ro om
Ġpro per
Ġrec ogn
Ġru ss
Ġcount y
Ġret urn
Ġval ley
Ġcamp aign
Ġpain ting
Ġcrit ic
Ġt ar
Ġm ic
Ġm and
Ġd iv
Ġse ven
Ġex pect
Ġan imal
Ġla bor
Ġfa ctor
Ġstate ment
Ġexp ensive
Ġsub ject
Ġhapp ened
Ġfund ing
Ġwatch ing
Ġtre at
Ġpur pose
Ġconstru ction
Ġcred it
e ed
i ally
Ġp age
Ġm ad
Ġf ather
Ġh owever
Ġse par
Ġpre p
Ġtr an
Ġsur round
Ġperson al
Ġoc cur
Ġmeet ing
Ġprofess ional
n al
o v
p art
re g
it ution
Ġd av
Ġa im
Ġh ope
Ġ1 1
Ġsp an
ag ue
Ġmo ther
Ġso ci
Ġeffect ive
cl us
Ġauthor ity
Ġeduc ation
Ġsle ep
f ir
Ġs aint
Ġp urch
st on
ro du
op h
Ġper fect
Ġco ok
Ġtra ditional
act ly
Ġrec ent
Ġallow ed
g ust
Ġm os
ic ian
Ġn orm
Ġpo ol
Ġrequ est
Ġgra ss
Ġmajor ity
Ġinterv ention
k et
m ore
ic ed
Ġg lo
ent al
ot ed
Ġv en
od e
Ġ19 4
Ġres ort
Ġfa ir
ap s
Ġacc ording
Ġis rael
Ġart ist
Ġdem on
Ġdem ocr
Ġaud itor
Ġrece ive
port unity
Ġge or
Ġ vers
Ġm em
Ġl ed
Ġl ived
ous ly
Ġ2 5
Ġev idence
Ġem b
Ġdisc over
Ġappro pri
Ġty p
Ġorig inal
Ġsec ret
Ġjap an
a per
or ney
Ġ1 3
iz ing
Ġinclud ed
ac c
Ġtur ned
Ġestabl ished
Ġthr oughout
Ġp an
Ġp et
Ġd ut
Ġb or
Ġb ay
Ġf em
ol f
Ġcon v
ast e
Ġbr ought
Ġleg isl
Ġsw im
Ġcomple x
Ġcle an
Ġremain s
Ġpropos ed
Ġdeter m
Ġemer g
Ġm ary
Ġre form
Ġh ost
ur ance
Ġr ange
ip ment
Ġy ellow
Ġop portunity
Ġatt empt
Ġset t
Ġtri p
Ġdefin itely
Ġprin ci
r it
w ould
Ġs ense
an ced
Ġm atch
Ġb an
Ġw ashington
Ġst age
Ġex cept
Ġqu arter
Ġres ident
Ġprodu ced
Ġke pt
Ġnot e
do or
Ġmention ed
d om
s ing
Ġs la
Ġb ott
Ġe ss
Ġse at
Ġex pected
Ġsu it
Ġ3 0
Ġassoci ation
b u
e ven
Ġb i
Ġu r
ver age
Ġch ap
Ġcon du
as ion
Ġj u
Ġatt ention
Ġno body
Ġ200 0
Ġret ire
gr oup
Ġnot ice
Ġdevelop ed
iet y
Ġimpro ve
Ġtru st
bo ard
Ġcir c
h ood
Ġt on
Ġk m
ad a
Ġcon ne
Ġex am
ud e
ine se
Ġsa ve
fer ence
Ġexp la
Ġsub st
Ġext ra
Ġtw enty
Ġstat ue
Ġmult ip
Ġtit le
d es
e v
o x
Ġs ir
Ġc and
Ġm y
st ly
Ġd ied
Ġd ressed
Ġre n
et t
ol ution
ke y
Ġad ditional
itt ed
Ġra d
Ġrel ation
Ġold er
Ġclo th
Ġfun ction
Ġ5 0
Ġwind ow
Ġflow er
Ġjour nal
Ġquick ly
g en
h aps
r ant
Ġf ly
ic o
Ġh o
il i
ate ver
Ġknow ledge
Ġsc ul
Ġreg ul
ane se
Ġaud it
Ġfoot ball
med i
Ġlim it
Ġce le
osp ital
Ġnecess ary
a i
l i
w ide
Ġm art
Ġal tern
Ġ1 00
Ġan sw
Ġwork ed
te en
Ġatt orney
olog ical
Ġcurrent ly
Ġdesc rib
Ġavo id
a cy
n am
s u
Ġg ain
Ġn amed
il ed
Ġse a
Ġcom ing
iro t
Ġemerg ency
Ġb en
Ġh ospital
Ġn ar
ce ed
ig ation
od d
Ġman u
Ġun it
ci ence
Ġtr ou
Ġfir m
Ġform er
Ġaff ord
Ġnat ural
Ġger man
Ġmaint ain
r ance
re am
Ġin f
Ġr an
Ġpro fit
Ġch arge
Ġsp ending
Ġtra de
Ġph one
Ġaf r
Ġtoward s
Ġopt ion
b an
Ġc op
Ġf la
se qu
Ġch inese
ut ed
Ġdes pite
Ġab ility
Ġbelie f
Ġhapp en
orn ia
Ġbas ket
Ġgener ally
Ġinflu ence
Ġmic ro
Ġsoci ety
c ase
h ouse
l ier
y ond
Ġ ver
Ġs ant
Ġp ath
Ġb on
Ġad vert
Ġhe ar
Ġop pos
Ġass um
Ġpol l
Ġrem ark
Ġmar ch
Ġart icle
Ġele ction
Ġgrow th
Ġwin ter
Ġsuccess ful
Ġchrist ian
Ġdest ro
Ġital ian
Ġmultip le
h am
x im
in ated
Ġd ed
th ree
Ġse x
Ġse ctor
Ġro yal
Ġwe ather
Ġwh atever
Ġra p
Ġexp lo
Ġatt ract
Ġback ground
Ġsy m
Ġhouse hold
Ġequ ipment
ugh ter
Ġtele vision
a ction
m it
u ary
in ion
Ġt ask
le thor
Ġb ow
Ġg all
Ġg ather
Ġh y
Ġch ina
igh bor
um n
Ġwe ar
bl ing
Ġpubl ished
Ġele ment
Ġcare er
Ġexper t
com p
b b
v ant
re ci
Ġd ress
Ġf ix
Ġg lass
and er
Ġter rible
Ġtri ed
Ġwest ern
Ġoper ation
Ġarm y
Ġcam era
u ated
w est
Ġs ale
Ġc io
Ġm ission
Ġd ate
Ġb attle
ro te
Ġde ce
ir ty
end s
ish ing
Ġim m
Ġra in
Ġspe ak
Ġout door
Ġrest rict
Ġmed ical
Ġremain ed
Ġrespon se
Ġprovide s
Ġcal if
Ġown er
f ort
m ark
u ra
Ġc old
Ġf an
ic ip
Ġh an
Ġn one
Ġr iding
Ġex actly
ress ion
con t
Ġcons erv
ang ing
Ġsou thern
Ġdo ctor
Ġemp ire
Ġassist ance
Ġcath ed
Ġgree k
Ġretire ment
lethor p
Ġs ize
re l
Ġd own
Ġh am
ra ction
im b
Ġch o
un k
Ġser ve
Ġrec ently
Ġsim ple
Ġbro ther
Ġcover ed
Ġlou is
Ġjul ius
Ġdav id
g ic
i ant
Ġ ign
in ct
Ġs n
Ġs ad
Ġs low
ing er
Ġf er
Ġw rote
Ġa verage
Ġin te
Ġne ighbor
as c
Ġal one
Ġex hib
lo c
Ġim medi
Ġloc ation
Ġ200 1
Ġinterest ed
Ġlim ited
Ġincre ased
Ġenc oura
Ġing lethorp
Ġmanu fact
Ġinte gr
g al
j ust
re ally
Ġt om
or ter
Ġd in
Ġg ar
Ġg ate
ad em
Ġcon cer
Ġass et
Ġfe e
Ġdef ending
Ġinst all
alth ough
Ġintern et
Ġadminist ration
Ġwill iam
Ġfavor ite
fir st
in ter
Ġm c
Ġd ram
Ġl ik
ir ing
Ġse le
Ġsh r
Ġen h
Ġsa fe
Ġcont ra
Ġra il
Ġsc en
Ġpa id
Ġsw ord
Ġparticular ly
Ġrespons ibility
Ġexce ll
b al
c ast
c omm
it ar
Ġd or
Ġf ast
Ġg un
Ġk ill
Ġv ote
Ġop inion
Ġgu id
Ġau gust
me an
Ġcorre ct
in y
Ġf ul
ou d
Ġre venue
ul a
Ġv oice
Ġexp ense
Ġsay ing
sp ort
Ġbas is
az ine
Ġeast ern
Ġextreme ly
m on
r ay
ar a
Ġl u
ch ange
Ġth inking
Ġan g
Ġen sure
Ġpo irot
Ġpol ice
Ġcr im
Ġwr ite
Ġreport ed
Ġint rodu
Ġpar is
Ġgrow ing
Ġjap anese
Ġfac ility
Ġassess ment
Ġaltern ative
c ise
r ary
s k
Ġm ine
Ġe p
Ġch anged
ru pt
Ġres pect
Ġwe alth
ag ing
Ġreg ular
Ġph il
Ġhand le
Ġear th
Ġaccount ing
Ġ6 0
Ġincre asing
Ġmot or
Ġchallen ge
Ġcalif ornia
Ġcathed ral
er ve
Ġs cience
Ġp ul
st ru
Ġd er
Ġb ag
Ġa ust
Ġth ank
pp er
Ġma ster
Ġso le
sc ape
Ġbelie ved
Ġlead ing
Ġmed ium
Ġshop ping
Ġblo od
Ġrecomm end
Ġvers ion
Ġprinci ple
b a
j on
Ã ©
Ġm ater
Ġm ale
Ġb ike
Ġf ra
Ġl ar
Ġe at
Ġk n
Ġde ep
pe ople
Ġind ia
Ġno vel
Ġprodu ce
Ġsupp osed
Ġset ting
Ġdire cted
Ġnear by
Ġredu ce
Ġve h
Ġsen ior
Ġstrate gy
Ġconserv ative
Ġd ance
Ġw ild
Ġcon vers
ck ed
Ġj an
us ing
est ic
Ġma ch
Ġbe yond
Ġcomp ared
Ġac adem
Ġlarge st
Ġwatch ed
Ġjud ge
Ġnet work
oss ible
Ġrelig ious
Ġok ay
y z
Ġc it
it z
Ġg ro
Ġh uge
Ġn ature
as ant
Ġpre d
Ġsp ring
Ġme x
Ġra m
Ġgu ide
Ġclo sed
Ġsur pr
Ġgra du
Ġmed ic
Ġnear ly
Ġins urance
Ġinit ial
no v
Ġassoci ated
Ġfrequ ently
Ġtrou ble
p ut
Ġ ib
Ġw ish
Ġa pr
ol ute
Ġo ct
ff ic
Ġbo x
Ġpart ner
Ġmo ving
ap on
Ġsim ply
Ġda ughter
ever y
Ġsit s
Ġread ing
Ġsignificant ly
Ġredu ction
Ġscre en
Ġaut om
Ġheav y
Ġexcell ent
l ittle
s day
Ġc atch
Ġp ra
Ġt omb
Ġh on
Ġn om
ul ated
Ġth reat
Ġun ion
Ġen er
Ġad rin
Ġmin or
sp aper
Ġvar iety
Ġprev ent
Ġmag azine
Ġbasket ball
Ġveh icle
b in
g ood
s ome
w r
in i
Ġt ouch
st ic
Ġb ab
Ġf ru
Ġg one
Ġsp l
bl ed
Ġbr idge
av ior
Ġfind ing
Ġstay ed
Ġprim ary
Ġaw are
a e
b oy
s im
s ite
t r
Ġp as
Ġt al
Ġd ang
Ġb ird
Ġf ell
Ġl if
Ġpro ced
ve y
Ġro bert
Ġpre m
Ġwe apon
Ġus er
Ġmo vement
Ġdec ade
Ġso ft
Ġfr ank
Ġbus h
ugh t
bel ie
Ġelect ron
Ġregul atory
Ġmater ial
m ay
p re
re h
re ed
Ġw al
Ġl ink
el ine
im ated
ur ned
Ġth er
Ġv an
Ġlo ss
ren ce
Ġatt raction
Ġent ertain
ph one
Ġsmall er
Ġfish ing
Ġjack et
Ġcustom er
a ving
g ree
Ġ ice
Ġt ool
Ġm ist
Ġg as
Ġn ap
Ġu pon
la x
la bor
Ġwor ry
per son
Ġent rance
Ġfr an
Ġvol ume
Ġconc ern
Ġhistor ical
Ġdiscuss ion
Ġstra ight
Ġindepend ent
ef ore
Ġrelation ship
Ġcrim inal
h a
p an
w alk
Ġ on
Ġl iber
ad ed
ad dition
us al
Ġca used
Ġlo an
Ġdis app
ress ive
Ġapp reci
Ġhigh ly
Ġ199 6
Ġseem ed
Ġfore st
Ġspec ie
Ġann ual
Ġfail ed
Ġbegin ning
Ġspan ish
Ġdut y
Ġcloth es
c ertain
e ch
z a
Ġs ight
an ia
Ġt ro
Ġb ought
Ġe th
Ġsh ip
end er
Ġinc or
ia b
Ġsc ene
Ġbr and
Ġcre ate
Ġadd ed
Ġtop ic
Ġthe ater
Ġpass ed
Ġorigin ally
Ġansw er
e ction
m ar
p lace
z en
Ġs ens
Ġp ink
Ġm ix
Ġre lax
Ġn a
id ay
Ġv ot
Ġv ir
Ġsh ot
Ġbe at
Ġar ab
Ġy ard
Ġind ic
Ġmo stly
Ġcl imb
Ġcol umn
Ġeven ing
Ġpay ing
Ġoffer ing
Ġbeh avior
Ġcra ft
Ġmur der
p al
w ise
Ġ and
in st
Ġs ud
Ġt i
ate g
Ġr ise
Ġse v
Ġnew spaper
Ġcont ent
Ġra re
Ġbr ief
Ġeff icient
ash ion
Ġcrit ical
Ġentire ly
Ġpot ential
Ġcast le
Ġcorpor ation
Ġgeor ge
Ġcele br
Ġgall ery
a el
b ol
m ber
w a
Ġc ash
Ġm ill
Ġb illion
Ġe ating
id ate
Ġne g
ter ed
Ġad op
Ġsp ir
Ġcont ract
Ġrel ative
Ġ199 9
Ġint ended
Ġfeel ing
Ġrepresent ation
Ġprev ious
Ġparticip ant
Ġpropos al
Ġexist ing
Ġadminist r
Ġconsum er
Ġarchite ct
Ġsepar ate
acc ording
Ġfem ale
Ġscul pture
c il
f in
g g
l ined
Ġs oc
Ġc as
or th
Ġd y
Ġg iving
Ġl iter
om ing
Ġj une
Ġlo se
ish ment
Ġad ult
Ġwh ose
ram e
Ġrequire s
Ġann oun
Ġref lect
Ġevent ually
Ġregard ing
for ce
t ain
u le
Ġ x
Ġc ry
Ġw ine
ic i
Ġl ay
Ġl uck
Ġre ady
Ġal ien
Ġle af
Ġle ague
Ġqu al
Ġam az
Ġcomm er
Ġor ange
Ġout come
Ġdef ense
Ġclo ck
Ġdr ink
Ġnor thern
Ġfre ed
Ġenjoy ed
Ġdou ble
Ġrespons ible
Ġelect ric
Ġobject ive
Ġinstru ment
Ġproper ty
Ġtar get
Ġtran sport
Ġswim ming
usal em
t a
w are
Ġp ush
Ġcon cept
ne ver
Ġsc r
ren d
Ġent er
Ġno v
Ġprov iding
Ġsch ed
Ġwr iting
Ġfor ward
pect ive
ex ample
Ġaud ience
Ġcontin ued
Ġinvol ve
Ġequ al
Ġrecord ed
Ġje an
Ġdeb t
Ġital y
Ġdirect ly
Ġener gy
Ġsoc cer
b t
g ment
o ber
Ġc ateg
al ing
Ġd ro
Ġf ashion
Ġh ate
ant ly
Ġqu iet
ab it
Ġgre ater
ick et
ib ly
Ġgu itar
Ġplan ned
Ġear lier
Ġsk in
Ġend ed
Ġmus lim
Ġstart ing
Ġstop ped
Ġcontain s
isc al
Ġmach ine
olute ly
c our
i ation
Ġc er
Ġt im
Ġt end
it ude
Ġg am
Ġh un
Ġn ur
Ġn ative
ay s
Ġth irty
Ġj es
all as
Ġlo s
Ġwe ight
ag on
Ġexp and
lud ed
Ġdef e
Ġclo thing
Ġuse ful
Ġsur v
Ġform ed
Ġcolle ct
Ġtri al
Ġexper ien
Ġreach ed
Ġlear n
Ġmess age
Ġimmedi ately
b ar
m et
o on
u ch
ed y
it ure
ic it
Ġl ib
ro ad
Ġr id
Ġr ul
ant age
ri age
Ġro l
Ġad dition
Ġim age
Ġim ag
Ġ19 3
Ġgr ay
Ġdec or
Ġany more
Ġext ensive
Ġfar m
Ġcamp ing
Ġaf ter
Ġmag n
Ġsuggest ed
Ġgrant ee
sy ch
Ġjer usalem
ili ar
Ġbab y
o o
Ġd allas
Ġb ir
Ġb omb
Ġg olf
Ġu l
Ġpro te
Ġse pt
Ġun ique
Ġevery body
Ġdec ide
ens ion
Ġwar m
Ġinst itution
Ġed ge
Ġsk ill
Ġda ve
Ġcommun ication
Ġ4 0
Ġeas ily
Ġthe ory
Ġwa iting
Ġsold ier
Ġrad io
Ġrecommend ation
Ġproced ure
c r
k y
s ay
ar io
Ġf t
Ġf illed
Ġg h
Ġh ind
se veral
ch an
Ġch ose
Ġex clus
Ġsh own
Ġca pt
iz en
ign ed
ord in
ap ed
Ġfe ed
Ġgovern or
Ġsupp ly
Ġ199 0
Ġhelp ed
Ġ200 2
Ġweek end
Ġopen ed
Ġgener ation
Ġcertain ly
Ġbase ball
Ġpurch ase
Ġded icated
Ġdece mber
Ġapr il
e ff
n ic
r id
z y
Ġ omb
ent h
Ġe pa
Ġh ous
Ġn av
Ġk illed
Ġse ated
Ġsh ore
Ġcomp reh
Ġpr ison
Ġra ised
ict ed
Ġbr on
Ġspe aking
Ġacc om
Ġprodu cer
Ġfound ation
Ġfol k
Ġfre sh
Ġpain ted
Ġpen n
ma king
Ġruss ian
Ġtreat ment
Ġdemocr at
Ġcand idate
Ġfreed om
h an
on s
Ġc ow
Ġp sych
Ġm is
Ġb a
Ġb er
Ġin sp
im in
Ġk ong
Ġde gree
ad o
Ġcon fl
ant ic
per or
Ġimp ossible
Ġsc ot
Ġ199 8
Ġas pect
Ġpublic ation
Ġdr iving
Ġsl ate
Ġadv antage
Ġintern al
Ġenvironment al
Ġrelig ion
Ġtyp ically
Ġhan son
Ġdin ner
Ġoct ober
j i
n el
Ġc ub
en a
Ġb ye
Ġb order
Ġst rol
im ent
Ġr ural
Ġch ief
Ġcon ference
Ġv ac
Ġper haps
Ġsa f
Ġsp ain
Ġ19 2
Ġhe aring
Ġte xt
Ġpr int
Ġact ual
Ġsee k
Ġmon ument
Ġfin ished
Ġmar ried
Ġ199 7
Ġas ian
Ġcor ner
Ġbas ic
Ġwalk ed
Ġrepresent ative
Ġprev iously
Ġoffic er
Ġparticip ate
Ġeurope an
Ġappropri ate
Ġlik ed
Ġlar ger
ici ency
Ġsept ember
t ake
v is
Ġ ol
Ġc up
Ġb ath
ce an
Ġv ia
Ġj ama
um ber
Ġo cean
ci ous
Ġro w
Ġdes ert
Ġspe ech
Ġgu ard
Ġsur vey
Ġed itor
Ġyoung er
Ġsit uated
Ġbud d
Ġocc asion
Ġcontrib ution
Ġdescrib ed
Ġdestro yed
d p
d ed
e ast
i est
s el
Ġc ro
an ch
ar m
Ġb ut
Ġf est
Ġw ed
ur b
op er
Ġpro s
one s
Ġcomp ar
Ġ2 1
Ġtra ffic
con s
Ġact or
Ġgre w
Ġshow ed
Ġcomple ted
Ġperform ing
Ġda ily
Ġaff air
Ġpercent age
az z
Ġdra ft
Ġrele ase
Ġtru ly
Ġiniti ally
we ek
Ġdan cing
Ġfle x
Ġnar row
Ġadvert ising
Ġshr ine
Ġelectron ic
Ġspir it
s ur
an o
Ġl it
ent le
ent ure
Ġh oward
et te
ver e
la st
Ġsh e
ould er
Ġca ve
ill ing
ag o
Ġte en
Ġem pt
Ġem peror
Ġspe ct
Ġstud io
Ġbel ong
Ġfor ced
Ġdisc ount
Ġmean ing
Ġiss ued
Ġeng age
Ġsing er
Ġappe ared
Ġtrans form
Ġwood en
Ġagree ment
Ġcoun cil
Ġeval uation
Ġsla ve
Ġrap id
Ġconcer ned
Ġful ly
Ġcit izen
belie ve
Ġsud den
Ġbir th
Ġprote ction
e in
l v
l in
o ff
p ret
t en
w ant
Ġs am
ar ant
Ġm el
Ġm outh
Ġw el
Ġh om
ri er
Ġan ge
ok ay
Ġbe ar
Ġco ol
Ġco ff
Ġbo b
Ġqu een
Ġacc ur
Ġent ry
Ġprog ress
ak er
Ġcre ating
Ġdire ction
Ġpolit ics
Ġfollow ed
Ġimpro vement
Ġbal ance
Ġachie ve
Ġappl ication
Ġexpl or
Ġarchite cture
Ġneighbor hood
Ġconvers ation
c ould
m iss
er ved
re al
Ġp ant
Ġd ie
Ġb ul
Ġf rame
Ġf iscal
Ġg al
Ġl y
ent ive
Ġe ld
et ic
Ġst ood
Ġr h
Ġv ide
if ying
Ġca fe
iss ance
Ġfe at
und ay
Ġfin ally
Ġpres ence
Ġwr iter
Ġside walk
Ġfun ny
Ġ5 00
por ary
Ġer a
Ġve get
Ġsat is
Ġprim arily
sa id
Ġsurround ing
Ġess ential
Ġsubst ant
li ance
Ġenh ance
Ġjan uary
h i
p et
s ince
u ing
Ġ id
en n
Ġt or
Ġd ry
Ġd ish
Ġin j
Ġr ough
Ġch em
un ately
Ġal t
Ġsh ut
Ġsh oulder
Ġbe side
Ġbo ther
Ġimp l
Ġsc ore
Ġag reed
Ġlaw n
Ġbus y
Ġ199 5
Ġir ish
Ġtru th
na issance
Ġwa it
Ġfoc used
Ġvict or
Ġwonder ful
Ġcarry ing
Ġmich ael
Ġteach er
Ġbott le
Ġbon o
Ġrestrict ion
Ġcateg ory
Ġconfl ict
Ġange les
l am
l ong
m itted
t im
w er
Ġs ar
Ġc art
Ġc ert
Ġp ed
Ġt all
Ġt rend
Ġb are
Ġh op
Ġn ine
Ġst ated
Ġst ick
im p
th e
Ġr ue
Ġex er
Ġsh ar
Ġma c
iz a
Ġac id
Ġme al
Ġhigh light
Ġrem o
Ġorgan iz
Ġdist rib
Ġbig gest
Ġche ap
Ġport ion
Ġredu ced
Ġinterv iew
Ġdou bt
Ġhistor ic
Ġple asant
Ġdiscuss ed
Ġcoun sel
Ġfrequ ent
Ġfif ty
eng th
Ġdeterm ine
Ġsym bol
b ook
d a
e ar
h and
p ost
Ġs cient
Ġf ant
Ġg dp
Ġl unch
il er
ck et
Ġle w
Ġle aving
Ġgo th
ri an
ell ed
ci p
Ġser ious
wo od
Ġjo ined
Ġany way
ak ed
Ġinst ance
Ġdr inking
Ġeng land
Ġchar les
Ġsl ight
Ġhar m
Ġking dom
Ġcult ural
Ġant i
ipp ed
Ġscre ening
Ġwill ing
Ġpress ure
Ġdom estic
Ġocc up
Ġglo bal
Ġdemon str
Ġcho ose
Ġcommer cial
Ġfest ival
Ġeld er
Ġ 0
Ġs or
re m
Ġp atter
Ġt oy
Ġm ort
Ġw w
Ġre naissance
ra w
Ġk ent
Ġk ore
ad ing
ate st
Ġth eme
Ġse m
Ġo il
la ced
Ġad vice
Ġla unch
und er
Ġfound ed
Ġret urned
ont o
Ġfl at
Ġtechn ique
Ġve ga
Ġident ify
Ġgold en
Ġappear s
Ġarg ument
Ġsuff icient
Ġdiscover ed
Ġlegisl ation
Ġconne ction
iab ility
Ġvir gin
Ġlib rary
1 2
g l
g irl
h en
l ied
p ic
p oint
r is
Ġs unday
Ġd i
is ition
la im
Ġun like
ne ed
Ġwe ak
Ġme ant
cy cle
Ġcomm it
Ġexp ress
Ġdist ance
Ġoffer ed
Ġemplo yer
Ġap artment
Ġcorpor ate
Ġhur t
des pite
Ġoutdoor s
Ġtal ent
Ġincor por
Ġvide o
c ol
an other
Ġt ok
Ġd ream
Ġl ength
Ġh ell
Ġin qu
Ġu pper
ch ed
Ġr and
Ġch ic
Ġcon cent
un te
ri al
Ġpl enty
Ġinc entive
are t
ult an
Ġbr ight
Ġact ive
Ġdec line
Ġacc ident
Ġgu arant
Ġdr um
Ġperform ed
Ġdist inct
Ġpolit ician
Ġmet al
Ġrele vant
rug g
Ġcompet ition
Ġvol unte
Ġblo ck
Ġengine ering
Ġphot o
Ġjew ish
Ġweb site
Ġdiv ision
rit ory
Ġchap el
Ġmart in
Ġafr ican
Ġcop y
h el
l ife
m y
Ġ ille
Ġs ister
Ġc ell
Ġt icket
Ġw age
ic ate
Ġre con
Ġh ong
ly ing
Ġst ake
ol n
Ġk al
ot ic
Ġth om
la w
ort ion
Ġsh oot
ne s
Ġ2 2
Ġtra dition
Ġatt end
Ġpla in
Ġter ritory
Ġob v
Ġcongress ional
Ġtrans fer
Ġstrate gic
Ġvict ory
Ġfight ing
Ġphot ograph
Ġdam age
inc oln
Ġphys ical
sm all
Ġrecogn ized
Ġnorm al
Ġdeterm ined
Ġben ch
Ġattract ive
Ġexhib it
Ġfra ud
Ġentertain ment
c ra
g ra
h ist
i j
i able
m o
m osp
Ġp ier
Ġt ough
Ġm at
Ġd ad
Ġf it
Ġa head
Ġe sc
Ġre pe
is ode
ol ina
ur er
Ġcom edy
Ġex change
Ġwor se
Ġca ught
Ġro m
Ġad just
Ġsm ith
Ġfe b
Ġhigh est
Ġmon t
Ġany where
ens us
Ġprov ision
Ġsub s
Ġmar riage
Ġvis ited
pl us
Ġreal ity
Ġadd ressed
Ġbene fic
Ġsome body
Ġcal c
Ġposs ess
Ġadv is
Ġtest ing
Ġother wise
Ġtw ice
Ġpos itive
Ġmer ch
Ġconstru cted
Ġut il
Ġacqu isition
Ġmos que
Ġmem ory
Ġcondu ct
Ġju ly
Ġencoura ge
Ġnov ember
cour se
Ġexperien ced
Ġgoth ic
c ar
f riend
l ot
en ced
Ġp un
ar f
Ġd ivid
Ġb ell
Ġf u
Ġf inger
Ġw aste
Ġre ve
ch ild
ver se
Ġk itch
ad er
ot a
Ġv ast
if orm
Ġle ather
ri ption
ast er
pt ed
Ġsp oke
ru ary
Ġra ise
Ġcol labor
Ġfe ar
Ġfam iliar
Ġmar ble
Ġrule making
Ġel ig
Ġfl ight
Ġhar bor
Ġimpro ved
Ġir on
wh at
Ġdetail ed
hold er
bur gh
Ġeval u
Ġlu x
Ġamaz ing
Ġjes us
Ġempt y
Ġpatter n
1 8
m ight
m uch
n is
r ont
s om
t oday
Ã ¡
Ġc ig
Ġt aste
Ġa st
Ġh ole
Ġst rugg
ch e
Ġr ank
Ġth row
Ġal le
em p
Ġsh ape
Ġman ner
Ġun d
ell ing
ber g
Ġsp read
ia zz
Ġsc ale
Ġmo b
Ġcar ved
Ġpla ced
Ġph ase
Ġstre t
Ġeffect ively
Ġposs ibility
Ġref used
Ġstat us
Ġprot est
Ġstar r
Ġtalk ed
Ġlist en
sy lv
Ġjour ney
Ġcontinue s
Ġaccept ed
Ġbroad cast
Ġjump ing
Ġcru cial
Ġpack age
Ġsleep ing
Ġur ban
Ġimm ig
Ġliber al
Ġpenn sylv
Ġsaf ety
Ġfeat uring
Ġfeb ruary
a ud
h app
u ct
w ater
Ġs ultan
Ġp ound
Ġp iazz
al ed
Ġm all
it ute
Ġb ound
Ġf at
Ġh en
ra id
ad ian
Ġne got
Ġse arch
Ġcom fort
Ġsh ared
Ġper man
Ġwork sh
Ġcar ried
Ġass ert
Ġleg end
Ġsur f
Ġcor p
Ġsk i
Ġest imated
Ġrev olution
Ġover all
Ġimport ance
ond on
Ġsupport ed
Ġmusic ian
com ing
Ġpresent ed
Ġrefer red
aw are
Ġ7 0
Ġ9 0
Ġcoun ter
Ġsil ver
Ġabs olutely
Ġat mosp
Ġunf ort
Ġviol ence
Ġpers pective
Ġsurround ed
Ġsecret ary
Ġmanufact uring
Ġep isode
Ġmex ico
Ġib iza
Ġsched ule
Ġsatis f
Ġpennsylv ania
f ord
m ission
r ated
s ion
Ġb low
Ġb yz
Ġf asc
Ġg ay
Ġg ift
Ġg entle
Ġe gg
Ġst ren
id a
Ġin n
ra ce
Ġr at
ist ed
Ġj ury
ok ing
Ġro of
Ġco at
ind eed
Ġdis p
so ft
Ġgre atest
Ġpa ul
Ġgen re
Ġter min
Ġnot ed
Ġsuc ceed
Ġland scape
Ġir s
Ġcan al
Ġ201 0
wh ile
arent ly
Ġup d
elf are
Ġsol ution
Ġher o
Ġsell ing
Ġscen ario
Ġdor o
Ġfru it
Ġdang erous
Ġsoft ware
Ġexclus ively
Ġhous ing
Ġorganiz ational
Ġbyz ant
e al
f ol
f our
g d
g uess
k a
n ie
p ol
r ig
Ġ i
Ġp il
al d
Ġt ol
Ġw ave
Ġw elfare
Ġh ide
ro m
Ġn in
se y
am ing
am ber
ul f
Ġpro ceed
ant a
Ġsh all
Ġsh aring
Ġun iform
ast ic
Ġro me
Ġimp ressive
Ġbu ying
Ġdec rease
Ġfin ance
Ġeff iciency
Ġsur plus
Ġreal ized
Ġwin ning
Ġpower ful
Ġoper ating
Ġbur den
Ġant icip
Ġcommon ly
Ġleader ship
Ġobser ved
Ġpick ed
Ġegypt ian
Ġbre ath
Ġdemocr atic
Ġho ly
Ġaust ral
Ġww w
Ġchic ago
a ult
b on
e xt
g th
g ain
r ich
v ille
re cent
Ġp m
Ġp y
st ill
Ġd ig
Ġg iant
Ġl at
Ġl ondon
ol ar
ol ved
ad el
ir m
Ġv and
Ġse vere
Ġun able
Ġun less
ell ig
Ġpo ver
Ġim per
Ġser ving
Ġ2 3
Ġcont act
Ġbr anch
Ġspe ed
Ġsee ing
Ġstr ange
Ġdel ay
Ġemplo y
Ġcompet e
Ġ198 0
Ġdest ination
Ġill ust
bur g
Ġcondu cted
Ġafr ica
Ġsant a
Ġpoll ution
xim ately
Ġsex ual
Ġneg ative
Ġcoff ee
Ġaccur ate
Ġexer cise
e el
h or
s ch
t o
t own
v iew
Ġ onto
Ġp eter
al ways
Ġt iny
st ration
Ġd ubl
Ġb icy
ic ul
Ġl incoln
Ġn ow
ol a
ch est
Ġde vice
Ġch ann
em y
em ed
Ġsh oe
Ġman aged
Ġwor st
Ġpe ak
Ġro se
Ġcomp ens
Ġac re
Ġser f
Ġ2 6
Ġme at
Ġme as
Ġrep laced
Ġsc ott
Ġind o
Ġcent re
Ġcar olina
Ġcons ult
Ġgu est
Ġdisc us
Ġ199 2
olog ist
Ġob tain
cur rent
Ġ3 3
Ġau th
Ġless on
Ġinvest ig
Ġinvest igation
Ġste el
Ġpriv acy
Ġmain ly
Ġmer e
Ġpri est
Ġprofess or
Ġup set
clus ion
Ġtyp ical
bu ilt
Ġexplo re
Ġguid eline
Ġthank s
nov ation
wr iter
Ġon line
Ġstren gth
Ġpover ty
Ġdubl in
Ġchann el
e qu
e ase
n th
p ubl
s l
s man
al ty
ing u
Ġd iss
Ġh ang
Ġch anging
igh ter
Ġal ex
Ġle e
Ġma xim
Ġun us
Ġlo ved
ount ain
Ġcont em
Ġdis ease
Ġsc out
Ġhigh way
ac ity
Ġdef ined
Ġsign ed
Ġint ellig
Ġdep end
Ġsk ate
Ġdo le
Ġtur k
Ġbec oming
Ġput ting
Ġsome what
Ġread er
ins ky
Ġarr ived
Ġmass ive
19 9
Ġaffect ed
nam ent
Ġassum ption
Ġsele ction
Ġsele cted
Ġhon or
Ġflex ibility
Ġsubstant ial
Ġkitch en
Ġpiazz a
5 0
m as
m ake
p o
t op
u ine
v i
Ġp u
at o
st ance
Ġw it
Ġre ward
Ġh i
ra d
ad ow
Ġpro hib
Ġth or
Ġv irt
ter y
pp ing
lo ck
Ġcomp la
ag ger
Ġind eed
Ġcomm and
Ġcar ter
Ġreg ional
Ġsch olar
Ġis lam
Ġfor th
ole on
Ġover look
Ġfl or
Ġfour th
Ġsupport ing
Ġcal m
Ġgrow n
Ġeas ier
ric ult
Ġaf raid
bo x
Ġcommitt ed
Ġconsist ently
Ġdraw ing
Ġat l
Ġruss ia
Ġprep ared
Ġperfect ly
Ġbott om
Ġcirc um
Ġmicro soft
Ġfix ed
ura cy
Ġacadem y
Ġrelative ly
Ġhind u
Ġbron ze
Ġaccom pl
Ġvolunte er
Ġsubs id
Ġbicy cle
i pe
n ot
Ġs ample
al y
at ically
Ġf ool
Ġl i
Ġre cip
Ġst air
ot ion
Ġcon qu
us ion
Ġen s
Ġen emy
ect ed
Ġfa ced
Ġhe at
Ġpr ime
Ġpr ince
Ġag ent
Ġmo on
Ġpa ir
Ġjo in
ph as
Ġab use
Ġab ortion
Ġbl ank
Ġdisc lo
Ġdep ict
Ġmus ical
cept ion
Ġbro ke
Ġpar l
Ġsing ing
Ġtechn ical
Ġcover age
Ġclass ical
Ġ201 6
Ġmor al
no on
Ġdefin ition
Ġcrowd ed
Ġimplement ation
Ġrich ard
eme yer
Ġfer ry
Ġguid ance
Ġpred ict
Ġfeed back
emp lo
Ġvand emeyer
Ġthor ough
Ġrecip ient
b our
c an
c over
f ig
f all
k er
p ass
s upp
v a
Ġ ath
Ġ odd
in burgh
Ġs in
Ġs ought
Ġp ine
Ġt ig
Ġw ing
Ġh abit
Ġth ick
Ġch amber
Ġal loc
Ġwor ried
Ġpl us
Ġ2 7
ag ree
Ġinter pret
Ġag ricult
Ġcl iff
Ġprov ider
Ġhelp ing
Ġext ended
Ġappro val
ex p
know n
Ġappe al
Ġaccount ability
Ġmer c
Ġtot ally
Ġindust rial
Ġdeb ate
Ġsal t
Ġgl ad
Ġenc oun
Ġlear ning
Ġexpl an
Ġmand ate
Ġsett lement
Ġmedic are
ordin ary
Ġvac ation
Ġthom as
h igh
j ection
m ain
o oth
r ate
u ous
w ar
y o
Ġ ow
in em
re qu
on ed
Ġt ent
Ġt un
st ood
Ġb ol
Ġb ull
Ġb ass
ent ially
il ty
se cond
Ġth orn
Ġch ain
Ġch ick
Ġcon sequ
Ġcon clusion
us i
ri a
Ġca bin
Ġro pe
Ġla ugh
ip a
Ġsc ared
ach ed
Ġent ered
Ġrel ief
ix on
Ġ199 4
Ġdo zen
Ġeng aged
Ġcap acity
Ġappro ximately
Ġtour nament
Ġcan adian
Ġproduct ivity
Ġrefer ence
Ġunderstand ing
Ġsat ur
Ġdeal er
Ġident ified
Ġbeaut y
Ġclaim ed
Ġfac ade
Ġappear ance
Ġlear ned
Ġmad rid
Ġisrael i
Ġjournal ist
Ġadop ted
Ġafter noon
Ġcompreh ensive
Ġscot land
Ġjama ica
Ġelder ly
fol low
1 0
f ind
f inal
w ord
y ard
er ate
at re
Ġt u
st ate
it ation
Ġb unch
Ġf ountain
Ġa ck
Ġre now
om a
is an
el and
Ġk il
ke e
Ġch os
as y
Ġv ice
Ġo x
ast ery
Ġpl at
Ġco re
iz es
per haps
Ġqu ant
Ġfa ith
Ġsc and
Ġdes k
Ġpol and
Ġdec la
Ġsee king
Ġmon ica
Ġrem ind
Ġmade ira
Ġcr is
ac le
Ġele g
Ġnot iced
Ġfund ed
Ġbro ken
Ġche er
Ġadv oc
Ġredu cing
iven ess
Ġsix ty
Ġpri ze
Ġsec ure
Ġfail ure
Ġclear ly
Ġdan iel
Ġconsist ent
Ġ197 0
Ġchallen ging
Ġfif teen
oint ed
Ġnap oleon
Ġfran c
Ġcer em
Ġpros per
Ġsudden ly
Ġelig ible
Ġatmosp here
Ġcircum stance
a x
a ic
b ul
k ind
n ame
u it
w ent
Ġ ire
re port
Ġc ensus
al le
Ġd iver
Ġd rop
ic ing
Ġa sh
id den
ay er
ra in
ur d
Ġk no
ul ate
Ġr ider
Ġth ur
un ning
Ġj ane
est ed
Ġgo re
la h
Ġsh ock
Ġsh ift
ie val
ri pt
ri be
Ġlo g
ian a
ect ive
Ġdis ney
ther efore
Ġtra il
Ġem phas
Ġevery where
Ġfe wer
Ġdec lined
Ġreg ister
Ġmon itor
Ġmon astery
Ġent h
Ġgu ilty
Ġold est
ene ver
Ġstre am
Ġrest ored
min ent
Ġtour ism
Ġfar mer
Ġarch ae
Ġsug ar
Ġfact ory
Ġdeliver ed
ins ula
Ġcolor ado
gu ard
Ġ8 0
Ġown ed
Ġwide ly
Ġprior ity
Ġpan el
Ġchap ter
Ġton ight
Ġfly ing
Ġgather ed
Ġdram a
Ġcontra st
Ġsole ly
tr ue
may be
Ġannoun ced
Ġslight ly
Ġindo or
1 5
4 0
c c
c lo
i y
i ance
w or
Ġc ode
st one
st ein
it a
it an
Ġg ang
Ġg ained
Ġe t
Ġh unt
ly m
Ġn ixon
Ġst orm
ra cy
ot y
ist an
Ġun ified
Ġye ster
Ġcomp liance
Ġbo iler
Ġ2 9
Ġrep ut
Ġpr oud
Ġapp ly
Ġapp arently
Ġcol umb
Ġexp ort
Ġab and
Ġplan e
Ġsub sequ
Ġas king
Ġ200 4
Ġint ention
Ġdep os
pon ent
Ġ18 9
Ġrespon d
Ġallow s
Ġann ually
Ġoper a
Ġcan ada
Ġtrans l
Ġ201 5
Ġrese m
Ġpen alty
Ġconc ert
iam ent
Ġsen ate
Ġple ase
tern al
gu y
Ġregard less
Ġindepend ence
Ġphys ician
Ġexpect ation
Ġoccur red
Ġaim ed
Ġrail way
Ġspl end
Ġther efore
Ġvot er
Ġadministr ator
Ġhun ting
Ġrul er
Ġul tim
Ġoccasion ally
Ġkent uck
aret te
Ġcig arette
Ġrenow ned
Ġchos en
d is
k in
n on
s it
s ight
u k
Ġ iv
Ġs end
re c
an cy
Ġp ill
Ġt ie
or gan
Ġf iction
il ly
el ve
Ġst up
Ġk en
ad ays
Ġv iet
un ate
Ġal ter
Ġj ones
end iture
Ġbe er
Ġpo et
Ġpo ison
Ġco oper
ind ividual
Ġar rest
og ue
Ġbo s
Ġres ist
Ġ2 8
Ġfa cing
Ġwh enever
Ġus ual
sh e
Ġcol on
Ġsm iled
Ġdec re
Ġpa c
atch ed
ac ular
Ġhand ling
Ġgot ten
Ġmin ister
Ġform al
Ġ200 8
Ġear n
Ġstr ict
Ġgra ce
Ġappro ved
Ġ3 5
Ġalong side
Ġste ward
Ġpresident ial
Ġhor rible
Ġrepresent ed
Ġanal y
Ġjohn son
Ġer ror
Ġten nis
Ġflo od
Ġestabl ish
Ġaccess ible
Ġspecific ally
Ġdocument ation
Ġdom in
Ġstri ke
Ġengine er
Ġacqu ired
Ġdev oted
Ġfair ly
Ġappropri ation
Ġbor ing
su it
Ġslow ly
Ġinstall ation
Ġintrodu ced
Ġmist ake
Ġinvolve s
Ġmort ality
Ġille gal
Ġparl iament
Ġyester day
2 0
g ia
g reat
h al
m r
p s
p iece
s en
t le
ar i
Ġd od
Ġf urn
Ġf gd
Ġre nt
im mer
se s
Ġk os
Ġk ick
Ġth us
Ġch art
um ph
Ġo bl
Ġma p
Ġun certain
Ġca v
Ġro b
Ġpo se
Ġtra ding
Ġbu st
Ġcl ar
Ġsm art
Ġexp ressed
Ġexp ression
Ġdes ire
Ġdes erve
Ġshow ing
be y
Ġmin im
Ġtur ning
res ult
Ġmed ieval
Ġcommun ist
Ġport ray
port ion
Ġreason able
Ġrecord ing
Ġpur ple
Ġbur ied
ma jor
Ġtell ing
Ġprofess ion
Ġchrist mas
Ġfort y
Ġimplement ed
Ġjew el
Ġsus an
Ġchair man
Ġfla g
Ġeth nic
Ġelectric ity
Ġmagn ific
Ġcub a
Ġveget able
Ġrand om
Ġbenefic ial
Ġchick en
Ġscand al
Ġultim ately
a is
d raw
f ed
f ar
f ish
i os
k o
k id
n umber
o id
r ane
r ison
u is
z ar
z one
Ġ ira
in v
Ġc rop
Ġp ull
al ia
or ce
or ig
le ction
it s
Ġd irt
Ġd iversity
Ġb ern
Ġf ro
Ġw ra
Ġa sc
Ġg ross
el d
ss ion
ig e
th ought
ur ation
Ġcon ven
Ġv ary
Ġj azz
ye ar
Ġen force
Ġinc red
ne xt
os ing
Ġwh eel
Ġinter ior
Ġag gress
sh ow
ach e
Ġexp ans
Ġexp enditure
Ġinv ent
Ġfin ish
Ġru in
Ġgen uine
Ġhand ed
Ġter ror
Ġvis iting
Ġint el
Ġdr iver
Ġcre ation
Ġval id
omm od
Ġhapp ens
cer y
Ġtem per
Ġprocess ing
Ġposs ibly
Ġide al
Ġadv ance
Ġpain t
Ġins pe
Ġtre asure
Ġcompet ed
Ġbra d
Ġsan ct
Ġcolor ful
Ġii i
Ġsent ence
Ġconsist s
Ġchampion ship
Ġappl ic
Ġstri ped
Ġcomb ination
reg ard
Ġmem or
bu ild
Ġoppos ite
Ġmotor cycle
Ġappreci ate
Ġdefe ated
Ġchem ical
Ġmerch ant
Ġstret ch
Ġunfort unately
Ġinn oc
Ġinterpret ation
Ġexplan ation
Ġsatur day
Ġenth usi
Ġreput ation
c ity
f a
g un
l ady
m en
m ust
p her
s an
u able
y et
z ed
z ing
in form
Ġt ier
Ġm ir
Ġm ud
le te
Ġb ou
Ġw et
Ġw rest
ic king
Ġg on
Ġh ung
Ġst ad
Ġin h
ur ally
one st
Ġcon ver
Ġal ive
em or
Ġman ual
ast y
ne ar
Ġcar rier
Ġsm iling
Ġatt rib
Ġjo y
Ġacc uracy
Ġpla stic
Ġrel iability
Ġout fit
Ġcost ume
Ġfr iday
Ġlaw rence
Ġis ol
Ġed inburgh
Ġdep ends
Ġret ain
Ġcre am
Ġval uable
Ġtri umph
Ġfund am
Ġair port
Ġinvest or
Ġemplo yed
Ġenjoy ing
Ġadv enture
Ġport ug
Ġallow ing
Ġallow ance
Ġ4 8
Ġthe atre
Ġpen insula
Ġrefer s
Ġdeb ut
ipp ing
Ġdeter min
Ġobser ve
Ġdraw n
Ġvict im
Ġarg ue
ograph y
Ġjer sey
ann on
Ġ195 0
Ġhol iday
Ġprep are
Ġmos aic
Ġhy p
Ġmedic ine
Ġtro op
Ġtransport ation
Ġgam bling
cra ft
Ġhen ry
Ġbyzant ine
Ġauth ent
Ġunus ual
Ġire land
b ig
c red
d isc
g ar
h ard
o ly
p ra
s aw
Ġ ic
Ġ ought
Ġs oph
Ġp ow
Ġp ad
ar ian
Ġf al
Ġl ind
Ġe c
ct ic
et ing
ig an
th us
Ġr ig
Ġr um
Ġth in
Ġne ither
Ġv ine
qu ite
Ġj ac
us c
ine s
Ġpl ate
Ġco ach
Ġsa cr
Ġinc ident
Ġbo ston
Ġhe ight
ag an
sh ort
Ġcl in
Ġstate wide
ep ing
Ġsm ile
Ġsm oke
oc racy
Ġacc ommod
Ġinv asion
Ġno ise
Ġany body
Ġplan et
Ġfor b
Ġsign ature
Ġsw ing
Ġed ition
Ġcountry side
Ġear ned
Ġum b
Ġdel ight
Ġext ent
Ġgreat ly
Ġrun ner
atter ed
Ġreal ize
Ġdesign ated
Ġopen ing
pr ise
Ġenjoy able
Ġ4 00
Ġtw elve
Ġfriend ly
Ġpur s
Ġcompet itive
Ġhealth y
Ġcut ting
Ġmag ic
go ing
Ġfeature d
Ġident ity
Ġfort ress
Ġger many
Ġachie vement
Ġ196 0
Ġteach ing
Ġrequest ed
Ġmary land
Ġexpla in
Ġexpla ined
Ġsubst ance
Ġremark able
Ġsurpr ise
Ġvot ing
Ġadministr ative
Ġperman ent
Ġimper ial
Ġack now
Ġcris is
b i
b lack
f ound
f red
l sc
n n
o ing
p ath
v ation
y l
re y
on a
on ent
an cing
Ġp itch
Ġm un
or b
or row
Ġd ust
Ġd ining
Ġb ond
Ġe sp
Ġre ject
Ġn ile
il m
ol ic
im ony
ch ar
Ġr ing
Ġch est
Ġse ed
if ice
if ies
Ġj im
Ġo lym
la p
ri or
Ġun cle
Ġan x
Ġsu st
ast ing
Ġco al
Ġad a
Ġsa ved
Ġla bel
Ġ2 4
Ġme chan
Ġrep lace
Ġra ising
Ġor ient
Ġass em
Ġfin est
Ġsy n
Ġsupp ose
Ġ199 3
Ġas ia
Ġele cted
Ġret ro
Ġret ired
Ġpop e
Ġsim pl
Ġcare ful
Ġcolle cted
Ġgra de
Ġest ate
Ġ3 00
Ġfl our
Ġsouth west
Ġ18 8
Ġconst ant
Ġorder ed
Ġcompet itor
Ġbrit ain
go vern
Ġnews week
Ġresearch er
aw a
Ġtravel er
Ġclose ly
Ġdifficult y
Ġden ied
Ġpeace ful
Ġdemon stration
Ġacadem ic
Ġmex ican
Ġliter ature
Ġscient ific
Ġlew insky
Ġvirgin ia
Ġguarant ee
Ġdivid ed
som ething
Ġmeas ured
Ġwit ness
Ġplat form
Ġsteward ship
c ard
d if
d em
f ront
j ac
m ary
m ade
w an
in ating
Ġs ick
re te
Ġp it
ing ly
Ġt an
Ġt ip
it o
Ġd ial
Ġf ond
Ġw olf
ic ity
Ġre b
Ġh ire
Ġh ired
Ġr ising
Ġpro portion
ot o
Ġle on
Ġle an
Ġo ak
Ġsh el
Ġsh ook
Ġsh aped
Ġman aging
end ish
Ġwor ship
Ġun s
Ġca ble
Ġcomp os
Ġres idence
Ġcont ained
ag ency
Ġam end
Ġdis like
Ġy outh
Ġcl oud
act ive
Ġrec over
Ġdep art
Ġbar gain
Ġtri b
Ġchar ming
Ġlarge ly
Ġunder stood
Ġbig ger
Ġclass ic
Ġrepresent s
Ġoper ate
Ġ201 4
Ġoh io
Ġconf ident
Ġestabl ishment
Ġsuggest s
Ġjud gment
ogra pher
Ġbank rupt
Ġachie ved
Ġjack son
Ġcru ise
ga o
Ġmicro phone
Ġgather ing
cont in
Ġexhib ition
Ġdram atic
Ġpul led
Ġgradu ate
Ġinsp ired
Ġol ive
Ġframe work
Ġfant astic
Ġrom antic
Ġnegot i
Ġlat in
Ġscott ish
Ġcontem porary
Ġintellig ence
Ġskate board
Ġconsequ ence
Ġfranc is
Ġsplend id
Ġcav endish
Ġmagnific ent
rane an
inform ation
Ġfundam ental
b ly
b ra
b est
c row
f am
f ilm
n at
v ard
in it
Ġc inem
Ġp ir
st art
Ġb out
Ġb row
Ġw il
Ġw ard
Ġl od
et e
ol ving
im port
ch er
ch al
th ur
Ġr ating
igh th
Ġun aware
Ġun known
Ġlo sing
Ġpre cise
Ġcomp osed
Ġcomp onent
Ġpo cket
Ġco ck
Ġad or
Ġad equ
Ġrep air
Ġbu ck
Ġcl imate
Ġass ume
rea king
Ġjo ke
Ġno se
ak a
Ġwar rior
Ġfor g
Ġmin i
Ġperson nel
rol l
Ġel imin
Ġair craft
ex pected
Ġbas ically
Ġkeep ing
pro fit
Ġpal m
Ġmiss ed
rop ol
rop ri
rop ical
Ġtravel ing
Ġsal ary
Ġprefer red
Ġmot iv
Ġaw ful
Ġlou d
Ġconsum ption
Ġcy cle
Ġswe et
Ġbre ed
Ġrecogn ize
Ġven ice
ev ent
Ġremark ed
Ġbow l
Ġign ored
Ġwealth y
Ġgro cery
Ġmix ed
Ġclimb ing
Ġrare ly
Ġgh ost
Ġcompar ison
Ġwel come
Ġlaunch ed
Ġcomfort able
Ġemploy ment
Ġflor ida
Ġmerc ury
lah oma
Ġintel lect
1 7
d in
u ce
v in
w orth
y m
Ġ ou
en ance
Ġm ask
or ing
le gal
Ġf ought
ou ri
Ġa x
ion ed
Ġl ip
Ġl ined
Ġl ying
Ġre action
ro vers
il it
ul ating
Ġr ay
Ġpro minent
Ġv ic
Ġv eter
if ted
ell o
Ġca pture
Ġsu p
Ġpo le
Ġar c
Ġop ponent
Ġind icated
ren na
Ġatt ended
Ġjo int
Ġtr ick
Ġtr ump
Ġha z
ty ard
Ġpres erved
ph e
sc o
be c
Ġfor get
Ġvis ible
Ġ200 7
sp read
Ġret ail
Ġgra ph
Ġdem ol
de c
Ġeconom ist
Ġconsider ation
Ġcover ing
Ġdevelop ing
Ġconst itution
Ġsl ope
stand ing
ik er
Ġmet er
Ġmail er
Ġwin ner
Ġimpro per
iter ion
Ġpresent ation
Ġant on
Ġelse where
wh el
Ġbecome s
Ġcharacter istic
Ġbra in
Ġ7 5
ipp er
Ġrepubl ic
Ġsil ent
Ġavo ided
Ġappl ied
he im
Ġfif th
Ġsus pic
Ġproper ly
Ġcook ing
Ġconne ct
Ġmy th
Ġdescrib es
Ġassum ed
Ġtom orrow
Ġconcer ning
Ġincreasing ly
Ġindic ates
Ġcas ino
Ġdro pped
Ġnur se
Ġcow boy
Ġkore an
Ġconcent ration
Ġgentle man
Ġcompens ation
Ġmere ly
nth ia
Ġturk ish
fed eral
Ġstad ium
g re
g reg
m od
r ist
v iet
re ason
Ġc ot
Ġc uis
en ger
Ġt ale
Ġm ath
le cted
st al
it ative
Ġf ile
Ġw here
Ġa venue
om eter
Ġn ipa
ol ve
ra se
se em
Ġr it
Ġpro c
ir ation
Ġse qu
Ġse ssion
Ġal bert
Ġle ap
Ġo zone
all ed
ide s
ong oing
Ġim pe
Ġsa v
Ġsp a
Ġbo ot
Ġrep orter
Ġgr an
Ġra cing
Ġbr ick
Ġass ass
ib rant
Ġmay or
Ġwith draw
Ġcr us
Ġdef icit
be an
Ġbl ond
Ġcor n
Ġint rig
irl ine
Ġmod ification
pl an
Ġcare fully
Ġtur key
Ġcour tyard
Ġdist ingu
Ġchar ged
Ġcap able
Ġpoint ed
itting ton
Ġexper iment
Ġresult ed
Ġste ep
Ġmet ropol
Ġtest imony
Ġhor ror
Ġtre as
Ġtw in
Ġanal yz
Ġlive ly
Ġsun g
Ġlist ed
Ġlist ening
Ġconc luded
wh ite
Ġarr ange
Ġap art
Ġill ness
Ġfall ing
Ġok lahoma
Ġstri p
ov o
Ġven ue
Ġconv in
odd ed
Ġmc c
Ġsurpr ised
sim ilar
Ġcelebr ated
Ġimag ine
Ġengage ment
laim ed
Ġobv ious
Ġfasc inating
Ġsubsid y
Ġdecla red
Ġsup reme
c as
g ue
i ot
k ins
l arge
r ative
s um
t ry
Ġ ongoing
re sh
re sp
Ġc ried
Ġd il
ou ston
Ġa irline
Ġg ap
Ġl ion
Ġl ord
Ġe ager
Ġre ign
Ġh ouston
Ġn it
Ġn ic
Ġu k
Ġk iss
am er
and a
Ġne at
Ġne ck
Ġv est
Ġj ail
Ġo s
Ġan se
Ġan th
Ġcomp l
Ġsp r
ru st
ne e
Ġfa v
ord an
Ġev il
Ġwork force
Ġinter im
Ġpr ide
Ġsc ar
Ġor g
Ġcar pet
Ġexp os
oc ol
Ġreg ist
Ġmon k
Ġha w
ens ity
Ġprov en
Ġcr iterion
Ġsub mitted
Ġart work
Ġob sc
Ġ200 9
Ġcre ative
Ġcre ature
ash ed
Ġmark ed
Ġmed iter
Ġpar ade
Ġhar sh
app ropri
Ġtre ated
Ġinvol ving
Ġtrans action
Ġ201 1
Ġpass ing
Ġce o
Ġconc lud
Ġconstru ct
Ġbring s
Ġrout ine
Ġeduc ational
Ġarr ive
Ġachie ving
Ġaddress ing
Ġdam aged
Ġcontrib ute
Ġprep aring
Ġdut ch
Ġsett led
gen eral
Ġencoura ged
Ġscen ery
Ġang ry
Ġdang er
Ġsens itive
inst ead
cons ider
Ġrapid ly
Ġrough ly
Ġcommit ment
Ġtok yo
Ġcerem ony
Ġthur sday
Ġenforce ment
Ġveter an
Ġcuis ine
Ġmediter ranean
1 4
b c
b ble
b ration
c ount
c are
c ution
d ist
f o
g ram
h ar
j ud
l an
m om
r im
u x
y n
re le
Ġp ic
Ġp ub
ar ra
Ġt el
Ġt ox
Ġm ut
Ġm ental
Ġd iving
Ġl ic
ro se
is ite
Ġn y
Ġn aked
et ch
Ġst ared
Ġst uck
Ġin ch
ur ning
am ong
ul ed
Ġpro ved
ot ing
ot ional
Ġv oc
ant e
qu ake
qu arter
end or
ell er
ok en
Ġen orm
Ġen comp
Ġla b
Ġinc ur
Ġbo ast
Ġser b
Ġres erve
Ġnew ly
Ġcont ext
Ġcont rovers
ag as
Ġam b
Ġdis miss
Ġte a
Ġcomm emor
Ġbu g
Ġevery day
Ġsm oking
Ġrec ru
ific ance
Ġjo e
Ġacc um
Ġno x
Ġinform ed
Ġab bey
Ġdef end
Ġsupp orter
Ġsw ift
Ġmin imal
Ġ200 5
Ġdr iven
Ġear ning
Ġtri be
Ġ3 6
Ġtax i
Ġconsider ing
Ġsl ide
Ġremain ing
Ġste ve
Ġadv anced
new s
Ġ4 5
Ġequ ally
Ġje ff
Ġstat ute
Ġ15 0
Ġmiss ouri
Ġpass age
Ġcra w
Ġbring ing
Ġdiscuss ing
Ġcoast al
Ġlate st
Ġtele phone
Ġill ino
Ġeight y
Ġheav ily
see ing
Ġmich el
Ġmich igan
Ġcy nthia
Ġpurch ased
Ġven et
Ġbor row
Ġlegisl ative
Ġattempt ed
Ġmy st
Ġfly er
Ġign ore
fin ally
Ġluck y
Ġdefe at
Ġprison er
Ġstrol l
Ġstrol ling
Ġteen ager
Ġspect acular
Ġinj ury
Ġshar p
Ġstake holder
Ġutil ized
Ġaustral ia
fig ure
Ġagricult ural
Ġeleg ant
govern ment
Ġamend ment
Ġpir ate
Ġexpos ure
7 0
f ast
i ary
s ie
w art
Ġ om
in er
in ian
re p
on ic
en ess
Ġp or
Ġp ump
Ġt ight
Ġt ired
Ġm ow
Ġm ig
Ġm ike
Ġb art
Ġb ure
ou pe
Ġl am
Ġre ly
Ġre new
Ġh ug
Ġh idden
ro t
is se
op oly
Ġk ans
am ic
Ġr ival
Ġpro of
Ġch a
Ġv ul
Ġse lect
if act
Ġex cess
Ġsh ade
Ġsh adow
ut ing
ard o
ue se
Ġknow ing
Ġlo b
lo ad
Ġro ll
Ġsp ons
Ġla id
Ġ19 0
Ġqu iz
Ġser iously
Ġfa b
Ġcont est
Ġdis agree
Ġtra ce
sh ire
Ġcol ored
ram id
Ġdes p
Ġatt ending
ib bean
Ġacc ord
Ġso viet
Ġwar ning
Ġrequ iring
Ġhelp ful
Ġcolle ague
Ġhapp ening
Ġhum or
Ġweek ly
Ġhard er
Ġhard ly
Ġfun chal
Ġenjoy s
Ġmarket ing
Ġnorth west
Ġins ight
Ġstay ing
Ġrepresent ing
Ġref uge
fe el
cl inton
Ġtru ck
Ġmiss ing
Ġsun ny
Ġassoci ate
Ġce iling
Ġparticip ation
Ġfig ured
Ġplant ing
Ġsol id
Ġbal anced
Ġexc lud
Ġsuper ior
Ġmaint ained
Ġmaint enance
Ġrecomm ended
Ġcomb at
Ġswe ater
Ġmand atory
Ġdiv orce
Ġban ned
Ġexam ined
Ġcele bration
Ġmaintain ing
rel la
Ġkill ing
Ġphil os
Ġearth quake
stru ction
Ġnom ination
Ġminor ity
Ġsev enth
Ġenter prise
Ġnur sing
Ġexpand ed
Ġsurv ive
Ġrol ler
Ġimpl ication
Ġcert ification
Ġbare ly
Ġdemonstr ated
Ġrepe ated
Ġatl anta
Ġaband oned
Ġfurn iture
Ġsanct uary
Ġumb rella
import ant
Ġintellect ual
Ġtreas ury
Ġencomp ass
c ul
d r
d og
d rew
f ield
g ate
l ay
m other
n orth
Ġ ordinary
er o
Ġs ulf
on er
Ġp p
Ġp ond
ar l
Ġt o
Ġt one
or ca
st ud
st ream
Ġd ome
Ġb our
Ġf el
Ġf ill
Ġf ired
ou red
Ġw ire
Ġw ound
Ġl ately
Ġst er
Ġst ress
Ġin novation
Ġk o
Ġv ibrant
od ox
Ġal ley
Ġal fred
Ġj ordan
lo s
Ġbe ard
Ġpl ot
Ġsa cred
Ġsa uce
Ġsp in
ign ificant
fer ent
Ġra c
ab s
es is
Ġact ress
Ġcar ibbean
Ġass ign
Ġha wa
Ġhel met
ang er
Ġso il
Ġpubl ish
Ġstud ied
Ġph rase
Ġart ifact
Ġfor um
ven ir
Ġsign ificance
Ġsw itch
Ġint ense
Ġorgan ized
Ġmod est
other s
Ġcall ing
Ġeng aging
Ġcap ability
ich e
Ġover se
ane ously
Ġresult ing
Ġ5 5
Ġcontin uing
Ġpriv ile
au gh
pro b
Ġsuccess fully
Ġcan oe
Ġbur n
Ġmiss ile
ush ed
ug g
Ġpaper work
Ġconc rete
Ġcrow n
Ġgrant ed
Ġsen ator
Ġsand y
Ġfac ilit
Ġstra w
Ġaward ed
Ġmal ay
Ġwide spread
Ġarg ued
Ġviol ent
Ġprotect ed
Ġgree ce
Ġtreat y
part icip
Ġ194 4
Ġgeor gia
Ġexcept ion
Ġafford able
Ġrestrict ed
Ġham mer
Ġmanufact urer
Ġwrite s
Ġder ry
Ġkn ight
Ġgradu ated
Ġspl it
Ġfrank lin
Ġappreci ated
Ġsev enty
Ġarchitect ural
Ġdecor ated
chan an
Ġbul let
Ġremo ved
Ġsor ry
Ġincorpor ated
Ġimmig rant
happ y
current ly
Ġhi king
Ġislam ic
Ġblank et
Ġdisclo sure
Ġath lete
Ġtig er
follow ing
Ġkil ometer
oty pe
Ġinspe ction
build ing
Ġshel ter
Ġcinem a
Ġillino is
Ġfab ric
Ġhawa ii
1 6
a ust
b et
b ased
c al
c rit
g i
p ur
s al
w ing
in ci
er ation
re ct
Ġp c
Ġp ig
Ġp upp
ar n
Ġb read
Ġf ur
Ġw an
Ġa e
Ġg ig
Ġl ane
Ġh ated
Ġh ub
Ġn h
Ġn odded
Ġst all
Ġst able
im a
se cut
ch o
Ġk y
Ġk ir
Ġk ath
Ġde ar
one stly
Ġcon ce
ment ioned
as ide
Ġj r
Ġsh ell
end ix
Ġper mit
ok ed
Ġpe er
Ġcomp are
Ġen act
Ġar thur
ru b
ru le
Ġqu ote
Ġwe igh
Ġev olution
Ġwh ittington
Ġtra sh
Ġinter rupt
Ġsc ary
Ġind ig
ach ment
Ġbu ff
Ġbr ill
Ġact ing
Ġcons ol
eth e
Ġmon day
Ġrel uct
Ġhand some
Ġsupp lement
Ġperform er
Ġ3 1
Ġ3 2
Ġeconom ically
Ġbene ath
Ġsome where
Ġfore ver
pro v
Ġstat istic
Ġreview ed
Ġconf irm
Ġcra sh
Ġnon profit
Ġeconomic s
Ġstep hen
Ġexc iting
Ġ8 00
Ġexce ed
Ġcath olic
Ġdiscover y
Ġadvert ise
Ġfast er
Ġder ived
Ġkn ife
Ġnom inated
Ġadop t
Ġcapt ured
Ġhom eland
rem ember
Ġmob ile
Ġsubsequ ent
Ġviet nam
Ġmyst ery
c ong
d own
f un
f ive
f ire
f oot
g ged
h um
j a
j oh
l ie
l ining
m and
m atter
n ant
n ight
p at
p op
p ack
r um
r ick
r ican
s ub
s ug
t able
t urn
v ada
Ã Ń
in ally
Ġs ke
Ġp unch
Ġt ied
Ġt ub
Ġt ropical
or a
or ge
le m
Ġd im
Ġd iam
Ġb id
Ġf ried
Ġw t
Ġw id
Ġw ise
Ġa er
Ġg est
Ġg pra
Ġh ip
Ġh anging
ro gen
Ġst unning
Ġin land
Ġu pr
se arch
ch anged
th a
ver y
Ġr on
ir y
Ġv endor
ist s
ter ior
Ġsh out
Ġun ivers
Ġca using
Ġper mitted
Ġro bin
old er
Ġta ught
Ġinc umb
ne cess
Ġhe el
Ġev ident
Ġte ch
Ġrep lied
Ġus a
Ġra cial
Ġmo or
Ġcol ony
Ġcol lap
Ġatt itude
Ġjo se
Ġmon opoly
Ġru b
ak ers
Ġplan o
Ġclo ak
Ġclo ser
Ġbel t
Ġter race
ost er
Ġsw ed
Ġform ula
Ġval ued
Ġgra sp
ward s
Ġunder ground
Ġnot able
Ġover whel
de velop
Ġche ek
Ġche aper
Ġlet ting
Ġeffect iveness
Ġconst antly
Ġ4 9
Ġinvol vement
Ġsum mit
Ġpal ais
Ġir an
ott oman
Ġsuccess or
Ġsix th
Ġcan cer
Ġ201 2
Ġrock y
Ġsun set
Ġge ar
Ġant ique
Ġparticip ating
Ġreach ing
Ġestabl ishing
Ġ198 9
Ġdesc ribe
Ġple asure
Ġher she
Ġinflu enced
Ġsong writer
Ġindian a
Ġdon ation
eng al
Ġadm itted
Ġattack ed
Ġbre ast
more over
Ġresident ial
Ġexpla ins
Ġren nie
bb ed
Ġintegr ation
Ġwilliam s
Ġang el
Ġregular ly
Ġrelax ed
Ġcelebr ity
Ġannoun ce
Ġpush ing
Ġscr ut
Ġbudd hist
Ġrh y
Ġped est
Ġpun ishment
Ġfu el
Ġworksh op
Ġtermin al
Ġanticip ated
Ġpy ramid
Ġnow adays
Ġalex ander
Ġens uring
Ġpill ar
Ġconven ient
Ġinh abit
Ġportug uese
Ġauthent ic
Ġrit ual
mom ent
Ġenorm ous
Ġkans a
Ġincumb ent
c ling
d y
d on
f ace
g on
i pt
m ond
m akers
n et
o ir
t ommy
u ze
Ġs i
re et
on gh
Ġc d
Ġc ance
Ġc ush
Ġc nn
Ġp om
Ġp ension
Ġt ank
Ġm att
st or
Ġd un
Ġd ating
Ġd uck
Ġd ensity
Ġb att
Ġb ible
Ġb engal
Ġf ence
Ġw agon
Ġre ar
om er
om ed
om et
il a
Ġst ark
Ġst iff
ss ed
Ġin ner
se ction
th ird
th odox
Ġpro p
Ġv enture
od a
ist ical
Ġma h
Ġlo ck
Ġro t
Ġta il
Ġar med
Ġra bb
Ġsc ope
Ġcl an
ab il
Ġor thodox
oc key
Ġpol ish
Ġha ired
Ġpla za
Ġent ering
Ġno ble
Ġgu ided
ph ant
ail ed
Ġgen us
Ġab und
Ġinst itute
Ġmin nes
Ġsou l
Ġsou venir
Ġele v
Ġmod erate
Ġsim ulation
Ġstr ing
Ġel im
Ġend or
Ġdem ocracy
ger y
Ġ3 7
Ġsouth east
Ġcontrol led
Ġann oy
au er
Ġz one
Ġpract ical
Ġmil k
ug awa
Ġvol unt
Ġthr one
Ġsuggest ion
Ġfail s
Ġident ical
Ġprom ote
Ġspecial ized
Ġprefer ence
Ġobser vation
Ġregard ed
Ġcat al
Ġ197 2
Ġarg ent
Ġsuff ered
Ġ195 8
Ġhit ler
Ġinstru ction
Ġcritic ism
Ġglo be
Ġemb arra
comp any
Ġlouis iana
Ġimmedi ate
mean while
Ġprem ature
Ġprem ium
addition ally
Ġguitar ist
Ġbut ton
azz o
Ġbeside s
Ġscient ist
Ġweak ness
Ġreve al
aud itor
Ġrat io
Ġupd ated
chest er
Ġtun nel
Ġindoor s
organ ization
Ġkos ovo
Ġexpans ion
Ġtemper ature
Ġreject ed
jac ent
Ġelimin ate
Ġwhere as
b ed
b ted
f ather
f elt
j o
l or
l ist
n or
p m
p it
p res
t w
t ic
t ained
u el
w onder
y a
Ġ ottoman
in ction
in side
Ġs ather
Ġc ant
en cing
en joy
an i
an al
Ġp in
Ġp ure
al a
Ġt in
Ġt ue
Ġt une
it able
Ġd ame
Ġd ict
Ġd ying
Ġb le
Ġb la
Ġb rew
Ġf ellow
ic ide
Ġa h
Ġl uc
Ġe scape
Ġe labor
Ġre built
Ġh itting
Ġh ob
Ġn ut
Ġst amp
id ated
ra it
ra ph
th ank
Ġde ity
ge an
Ġpro ve
Ġv a
ist ry
Ġj am
Ġj un
Ġj ung
Ġex ternal
Ġex terior
us ually
Ġsh ield
Ġsh orter
Ġun con
Ġca zar
Ġan ne
lo re
ite ment
Ġpe el
ci pl
Ġcomp an
Ġcomp ly
Ġcomp rom
Ġco in
Ġsp ouse
Ġqu e
Ġam p
Ġam id
Ġgr in
Ġsc arf
Ġind if
Ġapp endix
sh op
ach us
Ġcl ue
Ġcl ick
Ġass urance
Ġass ault
ren der
act ually
ang el
Ġrem ote
Ġrel iable
Ġout put
ph in
Ġshow er
Ġab b
Ġhand led
Ġsub mit
av or
Ġmar ry
Ġbl ade
Ġuse less
Ġob tained
Ġvis ibility
Ġform ation
Ġdep ending
Ġdep icted
Ġsk illed
Ġorgan ism
Ġworld wide
Ġdo ck
Ġ20 2
Ġmed al
Ġ3 4
Ġpar ad
Ġ18 6
Ġclass ification
Ġland mark
Ġrece ipt
Ġpain ter
Ġmet ric
Ġref use
ster s
Ġproduct ive
Ġconf ess
Ġpass ion
Ġmethod ology
Ġexist ence
Ġdesc ription
Ġprom ise
Ġpoor ly
Ġposition ed
Ġsil k
Ġtex an
Ġdu ke
Ġobser ving
Ġmal ays
Ġcivil ization
he ard
Ġut ter
Ġmass achus
Ġpers ian
Ġnorm an
Ġfem in
Ġquarter back
Ġfla w
Ġoppos ition
Ġexpert ise
Ġspeak er
Ġintegr ated
Ġrail road
comm ission
Ġful f
stru cture
Ġpra ise
Ġpra ised
Ġrid icul
Ġnav y
Ġnav ig
Ġwed ding
Ġalt ar
Ġhop ing
Ġmac au
post al
Ġoccup ied
Ġobv iously
ij sters
Ġsurf ace
Ġmaxim um
Ġprohib ited
Ġscholar ship
supp ose
Ġencoun ter
Ġcabin et
istan bul
Ġcolumb ia
Ġpac ific
Ġminim um
Ġinnoc ent
Ġmir ror
Ġconver ted
Ġsacr ifice
fam ily
Ġcot ton
Ġmcc ain
Ġvenet ian
Ġvul ner
Ġsulf ur
Ġprivile ge
prob ably
Ġae gean
Ġminnes ota
3 0
a a
c ou
c ost
e ared
f ore
j ap
m use
n ational
o que
r er
s outh
t aking
w ick
w ife
er man
on na
Ġp ap
Ġp ile
Ġp ale
al most
Ġt ong
Ġt orn
Ġt ob
or ious
st ory
Ġd iet
Ġb at
Ġb ite
Ġb ale
Ġf old
Ġf allen
Ġw iz
ic ular
Ġa qu
Ġa ci
Ġa side
Ġe ighth
Ġh ood
Ġh asting
om y
Ġn ick
Ġn ba
el la
Ġst em
ol ly
ay ing
Ġu g
im ental
th r
ad d
ate ur
Ġth ro
Ġch er
Ġne pal
oun ced
as ible
Ġv ig
ist ent
qu isite
Ġal l
Ġal p
ard in
end a
ide a
Ġen able
Ġta pe
ber ry
ru ption
og y
Ġdis m
Ġcl ijsters
Ġass igned
ren cy
und ed
Ġrec all
Ġacc us
Ġinv ited
Ġfin n
Ġno bel
ned y
Ġsub urb
Ġter r
Ġsur render
Ġfound er
Ġperson ally
Ġform at
Ġ200 3
Ġ200 6
Ġele phant
Ġdr unk
Ġsk irt
Ġga ul
Ġtur tle
Ġdel iber
Ġcur ve
Ġbar oque
Ġtri pp
gr im
Ġover sight
Ġdesign er
ex per
Ġcommun icate
Ġview ed
uc cess
Ġfinan cing
Ġmuse o
Ġcamp us
Ġappe aling
Ġimpro ving
Ġpur su
Ġpopular ity
Ġoffic ially
Ġpass enger
uff icient
Ġparticip ated
Ġ198 8
Ġdocument ary
we ight
Ġassist ant
Ġhistor ian
Ġnat alia
Ġexc itement
Ġ197 9
Ġabs urd
Ġunf air
Ġbed room
Ġexpl icit
Ġbroad er
Ġphot ographer
Ġsus pect
Ġprotect ing
Ġcy cl
oph y
Ġbor is
Ġsuit able
Ġexam ining
ett s
Ġansw ered
Ġran king
Ġchristian ity
mark et
Ġmaster piece
Ġgro ve
Ġfru str
Ġprem ier
inst ance
Ġmill enn
Ġqual ified
Ġdro ve
agon ist
Ġbomb ing
Ġcub an
Ġbath room
Ġjama ican
Ġbudd ha
Ġtransform ation
Ġvictor ia
Ġkore a
Ġmartin ique
Ġlux ury
Ġstrugg le
Ġthrow ing
Ġdepos it
Ġresem ble
Ġkentuck y
Ġuncertain ty
Ġbust ling
orig inally
Ġapplic able
Ġsoph ist
Ġhaz ard
Ġdemol ished
seem s
Ġcompl icated
Ġvoc al
Ġlob by
cong ress
joh n
Ġwt p
Ġhershe immer
Ġelim inated
Ġcompan ion
Ġmassachus etts
8 0
b as
b us
c or
d ep
d iction
e conom
g iven
m ad
m ine
m aker
o ften
s ir
s ix
w ind
w ith
in ity
Ġp iz
Ġt ed
le st
le ep
le ans
Ġb reaking
Ġf o
Ġf ist
Ġg ary
Ġl atter
Ġre agan
Ġh iring
Ġh onest
ro s
is y
is land
Ġn u
Ġn uc
il oh
Ġst ance
Ġin her
Ġin put
ra ge
ra cted
ra structure
ur ban
op her
Ġk er
Ġk nee
Ġde em
Ġr ice
Ġr ib
Ġpro jection
Ġch ee
Ġv ba
Ġv renna
qu estion
ter m
Ġal liance
Ġj ur
est er
Ġgo v
em an
Ġsh a
Ġsh o
Ġma ker
Ġun t
Ġro ger
Ġro de
Ġbe ef
ne sday
Ġbo ost
Ġqu it
Ġwe ird
Ġimp ressed
Ġimp ression
os h
Ġy ield
Ġus age
ult aneously
Ġop ted
Ġmo ham
Ġbu chanan
Ġcl er
Ġor chest
Ġor leans
Ġsm ooth
und it
Ġatt ached
Ġacc used
Ġrel ating
ph et
Ġfr ight
ak i
ak en
Ġgovernment al
Ġshow c
Ġshow case
ess el
Ġmar vel
Ġ199 1
Ġvis ion
Ġint ric
Ġpop ul
Ġcur rency
atter box
Ġfl ame
ex actly
Ġpar alle
Ġvar ied
Ġfre sco
Ġbas il
Ġrespon ded
Ġview er
Ġtem porary
Ġrece iving
Ġport rait
app ed
app ro
Ġsum mar
cle ar
Ġstat istical
Ġprof ile
Ġsix teen
Ġpat ri
Ġtrans ition
Ġsun light
ush ing
Ġconf ir
Ġconf used
Ġstar ring
Ġce ased
Ġ9 5
Ġlack ing
Ġdest ru
Ġhistor ically
Ġmult i
Ġarr anged
Ġinflu ential
Ġobser ver
Ġunf unded
Ġnecess arily
Ġcheck ing
Ġprin cess
Ġstri king
Ġdon or
Ġut ility
Ġhol ly
Ġswe at
Ġcross ing
Ġnorm ally
Ġ194 1
Ġinf rastructure
Ġoppos ed
Ġinstall ed
Ġenh anced
Ġintrodu ction
Ġlif etime
ha ust
Ġincor rect
Ġrelax ing
Ġand rew
Ġdy n
Ġqual ify
Ġsched uled
Ġsurv ived
Ġrol ling
Ġlit igation
Ġexplor ing
Ġdistrib ution
Ġfant asy
Ġlew is
Ġunlike ly
Ġtok ugawa
Ġguarant eed
Ġdrum mer
Ġrepe at
Ġreve aled
Ġevalu ate
Ġimmig ration
Ġbound ary
Ġsucceed ed
Ġpil ot
recent ly
Ġdepict ing
Ġprosper ity
Ġarchae ological
Ġstup id
Ġken nedy
Ġbrad ley
Ġic on
Ġsust ain
Ġretro fit
Ġbankrupt cy
Ġador ned
Ġconvin ced
Ġnit rogen
amer ican
Ġpic nic
quarter s
particip ant
sug gest
Ġjose ph
Ġtue sday
Ġhasting s
Ġnuc le
Ġchee se
Ġmoham med
2 00
8 6
b ring
c ame
e ither
g ent
i h
l ord
m el
p ress
r at
s at
s que
t ell
t ook
y d
Ġ ate
Ġ 00
Ġ istanbul
in qu
Ġs q
Ġs el
Ġp itt
Ġp ian
ar r
Ġt ill
st air
st reet
Ġd ip
Ġd irty
Ġb y
Ġb od
Ġf ate
Ġf ox
Ġg and
Ġg ender
Ġl ad
Ġl ub
ent ed
Ġre novation
Ġh ike
Ġh iding
is er
Ġin eff
Ġk ay
Ġr ick
Ġv ent
Ġv ivid
Ġv ital
ist a
Ġal i
Ġal ly
Ġj ess
Ġj aw
Ġex it
est ing
Ġsh annon
all ow
end ar
ell ite
Ġca iro
Ġlo ver
Ġlo ose
Ġper th
ok er
Ġpe pper
Ġro ot
Ġen velop
Ġpo em
Ġsp oken
Ġla v
Ġres olved
ag n
Ġimp ose
Ġdis aster
Ġte eth
int o
Ġtra der
Ġpr ayer
Ġag enda
con y
Ġem otion
ach t
es que
Ġor n
Ġoff ense
Ġoff set
Ġgood ness
oc aust
ren a
Ġreg ime
Ġtr unk
Ġmon et
Ġru ined
Ġbl ame
Ġdisc oura
Ġas leep
Ġob st
Ġsw ung
Ġpublic ity
Ġperform s
Ġcur ious
Ġbar b
Ġcap ut
Ġrev ision
Ġnot re
bor n
Ġbro ok
Ġpar king
Ġ18 0
Ġ18 7
Ġconst it
ley ball
Ġmonth ly
Ġste ady
Ġtest ed
au thor
ott en
Ġz eal
Ġpract icing
no thing
bo at
Ġconf idence
Ġcra zy
Ġge ograph
Ġ198 4
Ġsat ellite
Ġexist s
Ġjud ic
Ġcou ch
Ġdocument ed
we alth
Ġple ased
Ġpot entially
Ġsil ly
Ġexc luded
Ġapproach ed
Ġremember ed
Ġdemand ing
Ġut ah
Ġjump ed
Ġsus p
Ġadm it
Ġhol ocaust
Ġbreak fast
part icular
Ġclean ing
Ġexcept ional
Ġess ay
Ġexam ination
Ġscul pted
Ġfla vor
Ġbow ling
Ġintegr ity
just ice
Ġintrodu ce
stru cted
Ġsurpr ising
Ġlink ed
Ġbrief ly
Ġcry stal
Ġquiet ly
Ġexpand ing
Ġinstitution al
Ġfolk lore
Ġshe et
Ġexplor ation
Ġshar ply
ear ly
Ġsem i
under stand
Ġadvis ory
Ġpil grim
Ġnow here
Ġpu ert
Ġencoun tered
Ġquant ity
Ġmonitor ing
Ġcolon ial
Ġobl igation
Ġjewel ry
Ġaggress ive
Ġisol ated
Ġacknow led
Ġorient ed
Ġfrancis co
Ġadequ ate
Ġgraph ic
Ġintrig uing
Ġmetropol itan
Ġarrange ment
Ġfav ored
Ġearning s
Ġpor ch
abs olutely
Ġky oto
Ġcush ion
anal ysis
muse um
Ġthro at
Ġparalle l
Ġconfir med
Ġdyn asty
1 1
1 3
2 2
a way
b s
b age
d ess
d ata
f ur
f eld
h ol
l ater
m at
m id
n um
n ut
r d
v able
v ana
x ual
Ġ il
in ary
on ing
Ġc m
Ġc ater
Ġc ute
Ġc ete
Ġc fo
Ġm it
Ġm ild
or ation
or ous
le ast
st e
it i
Ġd ud
Ġd ign
Ġd imin
Ġb ork
Ġf id
Ġf ame
Ġf ert
Ġw are
Ġg i
Ġg ing
Ġl ung
Ġre cy
is ure
is pan
ce ived
et ed
el der
ra ke
ra int
se en
Ġk l
Ġde ck
am ent
ot al
Ġcon j
Ġcon rad
Ġne vada
Ġv essel
Ġse af
Ġse aside
ist ol
Ġal ign
Ġj et
Ġex otic
Ġex haust
Ġgo sh
ort ed
ut or
ut ant
Ġma id
Ġun emplo
Ġun expected
Ġca ke
Ġlo ad
Ġro th
Ġro oney
Ġbe aring
Ġpre am
Ġpre ced
Ġco b
Ġta ck
Ġar iz
Ġar row
Ġsa b
Ġsa iling
Ġsp ice
are a
iss ue
Ġfa ke
Ġhe y
Ġam ateur
Ġdis order
Ġdis cipl
Ġy elled
Ġwork place
Ġwh at
Ġrep l
Ġtra ined
so on
Ġra id
Ġem ail
ep a
Ġatt ire
Ġback ing
Ġdec ent
red ient
Ġleg it
Ġcost ly
Ġab road
Ġmar c
Ġdisc rim
Ġint act
Ġdep ression
Ġret urning
Ġrest ing
Ġsim ultaneously
Ġstr ongh
Ġmen u
Ġlast ing
ub a
Ġrev ol
Ġadd ing
Ġadd iction
Ġover ly
Ġpar ag
rib ly
Ġstudy ing
Ġless er
Ġtechn ological
Ġconsider able
pr im
Ġsl im
az i
Ġclass ified
Ġfore cast
Ġmuse e
Ġsure ly
Ġcontin u
Ġmet icul
Ġequ ipped
pro f
pro gram
Ġmember ship
Ġmor ris
Ġreview ing
Ġz en
Ġz oo
Ġbur ning
Ġbur ned
Ġmer ger
Ġprot otype
Ġcra ck
Ġ6 5
Ġflo rence
Ġhal t
Ġwa x
Ġcard inal
Ġplant ation
Ġ198 3
Ġ9 6
Ġbal cony
Ġgl ory
Ġgrand e
Ġpicture sque
Ġmind ed
Ġmal isse
Ġfle e
Ġgod dess
Ġcheck ed
Ġcondition ing
Ġimplement ing
Ġfocus ing
for ward
Ġaccept able
umb ai
Ġsuff ering
Ġcir cle
Ġ196 6
Ġmeasure ment
Ġpers u
Ġcomb ined
Ġcritic ized
Ġpurch asing
Ġreceive s
Ġmatch ing
dom in
Ġcirc us
Ġextra v
Ġformer ly
Ġoppos ing
bb ing
Ġgar age
Ġgar bage
Ġsafe guard
Ġcontra ctor
Ġdor cas
Ġrespect ively
Ġpul ling
Ġram ses
Ġib m
Ġautom atically
Ġefficient ly
Ġ192 0
Ġprint ed
Ġeditor ial
Ġwed nesday
Ġly ric
hel p
Ġadjust ment
Ġassert ion
Ġski ing
Ġdisp ute
Ġdig ital
adel oupe
sl ate
Ġpu zz
Ġvirt ually
not iced
Ġthorough ly
Ġanaly st
Ġincred ibly
Ġfal se
Ġcompos er
Ġsuspic ion
Ġcrus ader
Ġobsc ure
appropri ate
rican e
Ġinhabit ant
Ġvolunt ary
Ġhob by
Ġutter ly
cou ple
stair s
num erous
Ġstrongh old
a ar
b lo
c re
c fa
d ue
d ict
g us
g ated
h ou
l on
m i
m al
m us
m itting
p red
p ower
p ract
t our
t uppence
u a
v est
w atch
Ã ¶
Ġs ed
Ġs ic
re ach
Ġc ree
en ous
an c
Ġp ent
Ġp all
al right
at able
Ġm as
Ġm ira
st op
it ively
Ġd al
Ġb h
Ġb und
Ġb less
Ġf ier
Ġf oster
Ġw is
Ġw ool
Ġw ished
Ġg le
Ġg ab
ion e
Ġl in
Ġl one
Ġl ift
Ġre bel
Ġh ud
ro man
il ian
Ġin ev
ra p
Ġk im
Ġde i
ad rin
Ġpro phet
Ġcon vert
as ional
Ġal ler
Ġj ar
Ġj og
Ġex act
Ġex quisite
Ġsh ark
Ġsh ake
Ġun rest
Ġca f
Ġan ger
Ġan imated
Ġsu icide
Ġro y
Ġbe a
Ġpre st
Ġcomp ris
Ġar k
Ġqu int
Ġres c
Ġres erv
Ġfa ult
Ġdis pos
Ġwh is
Ġpart ially
int rodu
Ġpr on
att ing
att oo
so ever
Ġapp le
Ġapp ointed
Ġgre y
Ġgre uze
Ġdes per
Ġspe ar
Ġmon te
Ġmon arch
Ġmon key
Ġleg acy
ert on
Ġrel ic
Ġrel ie
Ġout let
sc ent
Ġloc ally
Ġsign al
Ġsur gery
Ġvis ual
Ġform ally
Ġsk ip
Ġsk etch
Ġgra ve
Ġext end
Ġbar bec
Ġdist inction
Ġchar ity
Ġbet ray
Ġmed ica
Ġadd ict
Ġau ction
Ġhead ing
Ġview point
Ġland ing
stand ard
Ġfollow er
Ġhar rison
Ġtre k
Ġtre m
Ġoper ates
Ġdol phin
Ġtw ist
Ġcompet ing
Ġmer it
Ġgener ated
abl ed
Ġconf ig
Ġpen ny
Ġ6 8
Ġvol leyball
Ġiniti ated
ira ble
Ġ198 6
Ġ198 7
Ġdeal ing
Ġlove ly
Ġtravel ed
ob ile
Ġfort une
Ġsimilar ly
Ġple a
Ġspecial ist
Ġnat o
Ġnat urally
af at
Ġexc ited
Ġabs orb
Ġfle w
Ġtit led
Ġocc asional
Ġheav en
Ġacqu ire
Ġadm ission
Ġing redient
Ġcomb ine
Ġmad onna
Ġoccur s
Ġconv ention
Ġattempt ing
Ġprinci pal
Ġsla very
Ġton ic
Ġdestro y
Ġroyal ty
Ġrap ier
Ġelement ary
cont rol
comm on
Ġpartner ship
Ġnap les
Ġstraight forward
Ġdisapp ointed
Ġindic ate
Ġmurder ed
Ġtarget ed
Ġhun ter
Ġjes uit
Ġrul ed
urb ed
Ġcompar able
Ġcitizen ship
Ġhop ed
Ġinqu iry
Ġshoot ing
Ġtradition ally
hist or
Ġcollabor ation
Ġstrugg ling
Ġnin ety
Ġaustral ian
Ġcompla int
Ġaccompl ish
Ġadvoc ate
Ġdiver se
Ġshock ed
Ġboiler makers
Ġdecre ased
Ġportray ed
Ġmemor ial
Ġenthusi ast
near by
Ġattrib uted
Ġvine yard
Ġdelight ful
Ġmun icip
Ġanx ious
Ġada pt
Ġbout ique
Ġanton io
Ġimpe achment
Ġaccum ulated
sie ur
Ġenact ed
ethe less
Ġadvertise ment
pop ular
Ġunivers al
necess ary
Ġelabor ate
Ġug ly
Ġmillenn ium
Ġpiz za
Ġgand hi
Ġenvelop e
Ġorn ate
Ġobst acle
Ġjudic ial
Ġpuert o
Ġging rich
Ġpream ble
Ġwhat soever
Ġdiscrim ination
Ġcompris es
9 0
c lass
d one
e le
f em
f are
g ian
k al
r ating
r ather
s n
s ound
s ense
s burg
t ure
t ail
u ent
v y
v ar
v iously
w in
Ġ ip
Ġs ie
re search
Ġc ite
Ġc oup
en on
Ġp ork
at ab
ar ound
Ġt oss
Ġm um
Ġm umbai
le ading
le vard
st orm
it led
Ġd ense
Ġd umb
Ġb one
Ġb az
Ġf are
Ġf ighter
Ġf bi
Ġa rena
Ġg orge
Ġl on
Ġl ush
Ġre e
Ġre h
Ġre nov
Ġh orn
ly n
om o
is a
is p
Ġn ave
el i
el ly
id ency
Ġin nov
ra ined
se ment
th al
th orn
am in
Ġr ip
Ġr ico
ke ep
Ġth rew
Ġch an
Ġch op
Ġch ocol
un ited
if ting
Ġal an
um a
Ġex em
Ġle isure
ut ch
art icle
Ġman sion
Ġwor sh
Ġca ss
Ġlo cked
Ġro c
Ġpre ach
Ġco hen
Ġta ctic
Ġsp ell
Ġla p
Ġyear ly
itt y
Ġres ign
ord on
Ġcont rary
ag g
Ġy ad
Ġpr iced
Ġra j
con tra
Ġem otional
Ġcl im
es a
cess ion
ple asant
Ġcar ving
Ġfe asible
Ġcons cious
Ġatt est
Ġreg ret
Ġmon sieur
Ġha vana
Ġprog ressive
Ġgu adeloupe
Ġpres c
Ġcost ing
sc ription
Ġprov ince
ather ine
Ġph en
ac co
Ġsub t
Ġsub urban
av ier
be gin
Ġmar g
Ġmar sh
Ġart ific
Ġwr ight
Ġsur ge
Ġperson ality
Ġed ward
Ġele ven
Ġint ent
Ġrest oration
Ġwater fall
Ġend e
Ġlast ed
Ġchar m
Ġdet ect
Ġdet ective
Ġgirl friend
ans as
bor ne
ica cy
Ġimport ed
Ġfl ash
ex am
Ġcle ver
Ġ18 5
pr int
Ġpolit ically
Ġinvest ing
Ġsuc c
Ġ4 7
Ġeast er
Ġmet re
app ing
ina i
Ġoper ational
Ġmain land
pro du
Ġpal est
fe ction
Ġprev ention
Ġcan non
Ġpat ron
Ġsecond ary
Ġer ected
Ġ6 00
Ġ17 6
Ġwood ed
Ġimpact ed
ask ed
Ġgl imp
Ġcoast line
br idge
Ġsuper b
Ġassess ing
Ġabs ent
Ġdon ald
Ġsuff er
Ġadm ir
tra ck
Ġcontrib uted
Ġpack ed
Ġdev il
Ġlabor atory
Ġgrass y
Ġ25 0
Ġess entially
Ġconne cted
Ġexam ine
Ġcand y
Ġren ted
ett o
li est
rel ated
Ġdown town
Ġgate way
Ġphil ip
Ġwild life
every one
Ġautom ated
Ġtouch ed
Ġaware ness
iab ly
wa it
Ġreflect s
Ġreflect ing
Ġpush ed
Ġcer amic
Ġexperien cing
Ġhous ed
Ġbirth day
the less
Ġremo ve
Ġcounsel ing
hel d
Ġadjust ed
Ġalle g
Ġnegot iation
Ġkentuck ian
Ġresist ance
Ġdecre asing
Ġira q
Ġterror ist
Ġdetermin ing
Ġpow ell
Ġlind a
Ġpurs ue
Ġpurs ued
Ġolym p
Ġdial ect
Ġleon ardo
contin ued
crow d
Ġlod ge
Ġproc ure
Ġsung lass
Ġbure au
Ġinterrupt ed
Ġindig enous
Ġdiam ond
Ġannounce ment
Ġpedest rian
Ġrabb it
Ġjung le
Ġindif ferent
Ġtong ue
Ġtob acco
Ġintric ate
Ġdestru ction
Ġholly wood
Ġariz ona
Ġmedica id
atab ase
Ġbaz aar
Ġchocol ate
Ġglimp se
2 6
3 4
4 2
b ell
b es
c ap
g am
g one
k ed
m ont
m illion
o op
o ard
p d
p en
p son
r un
s r
t est
t imate
u ble
v re
v as
v ised
w ed
z o
z er
er g
Ġs lo
Ġs inai
Ġc od
Ġc ord
Ġc ale
al f
al tern
ar re
Ġt oe
Ġt odd
or ia
le ft
st itution
Ġd ot
Ġd io
Ġd uc
Ġd atabase
Ġb am
Ġb ount
Ġb auer
Ġf et
Ġf ern
Ġf ena
ou l
Ġw o
Ġw ow
Ġw ore
ic ious
ic eman
Ġa k
Ġg is
Ġg op
Ġg ulf
Ġl ith
Ġre ver
Ġre cycle
Ġh ockey
Ġh ispan
Ġn erv
Ġst unt
id o
id al
iv a
im ation
se ason
ch urch
Ġk az
Ġk arf
ad ditional
Ġr ational
and y
and ise
ir c
Ġth ir
Ġch in
Ġch ase
Ġch atterbox
as ian
Ġv on
Ġv ault
un fort
ist ically
us ive
la stic
Ġ1 000
Ġsh rug
Ġsh iloh
Ġsh into
ut ory
Ġman ip
Ġun happy
Ġca ge
Ġlo yal
ire ct
Ġbe ast
Ġbe ating
ous in
Ġcomp r
Ġpo ly
Ġad jacent
Ġta g
Ġsp ar
Ġla und
ru ss
Ġinc om
Ġwe ed
Ġnew est
Ġcont ing
Ġimp osed
Ġam en
Ġam ph
Ġrep ly
Ġsc ript
Ġag ed
Ġag ing
ap ore
Ġgre g
Ġrec re
Ġneed le
ative ly
Ġpa ce
Ġpa ved
Ġpa ula
ath an
Ġtr im
Ġacc ent
Ġhel m
Ġpres um
Ġout s
Ġout lay
ph ia
Ġsch eme
Ġab oard
ac ca
Ġwar ner
be h
Ġsupp lier
Ġart istic
Ġbl ind
Ġsur pass
Ġpop ulated
Ġmod ified
rol ler
Ġsim on
Ġdel hi
Ġmus cle
Ġdist ant
less ly
Ġnot ion
Ġpartic le
Ġ3 8
Ġfil ter
pos ed
Ġvar iation
Ġaff irm
Ġ5 6
Ġcal endar
Ġste pped
Ġhar ass
Ġins ufficient
Ġquestion ed
Ġequ ival
cl ub
Ġpat rick
Ġz ero
Ġgener ate
Ġconf ront
Ġprot agonist
Ġchr is
Ġ6 7
Ġdeliver ing
Ġexecut ed
Ġsec ured
Ġwa ited
Ġbra h
Ġbra z
ira cy
Ġup coming
Ġ7 00
Ġ9 7
Ġsal am
Ġexist ed
Ġnation wide
Ġsqu ad
Ġlack ed
Ġfort unate
Ġsol o
Ġprom oted
Ġsil ence
Ġexc use
Ġmot ion
Ġdom inated
Ġap ache
Ġstrong ly
Ġconsum ing
Ġsnow y
Ġ196 9
Ġhur ricane
Ġcross ed
Ġdav is
Ġju an
ili ation
Ġfan cy
itz er
Ġautom obile
Ġther e
Ġx avier
Ġdecor ative
Ġul timate
Ġcapt ain
Ġshore line
vis or
Ġdesert ed
Ġbut ter
Ġmeaning ful
Ġexplor er
Ġinj ured
gl as
Ġesc aped
Ġmerch andise
Ġdivid end
som etimes
Ġast ron
Ġsatisf action
Ġproceed ing
adel phia
Ġsevere ly
Ġinvestig ator
Ġconqu ered
Ġalloc ation
Ġalloc ated
Ġpoet ry
Ġarrest ed
Ġrob ust
major ity
Ġbou levard
Ġaccommod ate
Ġforb es
Ġolym pic
Ġou ter
Ġsequ ence
Ġcontrovers ial
Ġrecru it
crit ic
Ġpupp y
Ġgest ure
Ġfemin ist
Ġbale ar
Ġaccus ation
uccess ful
Ġbasil ica
Ġnucle ar
elder ly
Ġparag raph
Ġbarbec ue
Ġconfig uration
Ġnerv ous
8 9
b ally
d et
d am
d av
e asy
f ight
h s
h ow
h ot
h ill
i as
l uck
m n
m aster
n ote
o is
p y
p oss
p ayer
t ical
t ole
u ber
v ance
v illa
w n
w ow
Ġ od
er ally
er able
Ġs lack
Ġc any
Ġc atherine
en c
an im
Ġp ont
Ġp tole
al o
ing e
Ġt ort
Ġt attoo
Ġm i
Ġm ound
Ġm ower
st ore
it le
it age
it ivity
Ġd ull
Ġd read
Ġd agger
Ġb ot
Ġb un
Ġb ri
Ġb og
Ġb ree
Ġf da
Ġf cc
Ġw ale
Ġw ash
Ġg agas
Ġl iv
Ġre vers
Ġn ag
Ġn bc
ce l
et een
Ġst ro
Ġst om
Ġst ir
Ġin se
Ġin ac
ol as
ay ed
Ġu ph
ch ap
ch air
op ened
Ġk u
Ġk at
Ġde emed
ad or
ad vant
am iliar
ate au
Ġr idge
Ġch asing
ment era
Ġv et
Ġv oted
Ġv inci
ck er
um ble
Ġex agger
est yle
Ġsh u
ut es
ut ral
ri el
ri pp
Ġun necessary
Ġca es
Ġbe gun
Ġcomp at
Ġcomp ound
Ġco ord
Ġco sm
her ever
Ġsp ark
Ġla k
Ġinc l
Ġres erved
Ġev olved
Ġimp osing
Ġam using
Ġdis ability
Ġdis gust
Ġdis regard
Ġy an
ther more
te chn
row ned
Ġcar bon
Ġsm ell
Ġdes ired
own er
ick ed
iver se
Ġpla id
Ġway ne
Ġso ap
ens pan
ert ed
Ġwant ing
ph y
Ġfr is
Ġclo sing
Ġloc ate
Ġsub way
Ġart isan
Ġfor got
Ġvis a
Ġinst inct
Ġpublic ly
Ġhome less
pl ane
Ġav iv
gr and
Ġnot ably
Ġfund ra
Ġair plane
mer e
Ġfar ther
Ġfl u
Ġfl ank
Ġfil ed
Ġvar iable
Ġtax payer
Ġcontrol ling
Ġaud iting
Ġinvest ed
Ġ5 4
Ġ5 9
Ġadv ent
Ġnorth east
ik h
Ġ4 3
Ġaccount ant
Ġmet ap
Ġref resh
Ġavail ability
Ġpal azzo
Ġstat utory
Ġtrans mission
Ġshort ly
Ġbad ly
Ġbur ial
ugh es
Ġexe cution
Ġ6 2
Ġlow est
Ġmodel ing
Ġrefer ral
aw ak
Ġbase ment
Ġsuggest ing
Ġdou glas
Ġdiscuss es
Ġspecial ty
br it
Ġroman esque
pa per
Ġsuper visor
Ġ8 8
Ġstru ck
Ġfrequ ency
Ġdom ain
Ġabs ence
bur ger
Ġunf amiliar
Ġspend s
Ġbeautiful ly
Ġeight een
Ġaccept ance
Ġshare holder
oint ment
Ġhur ry
Ġattack ing
lim ited
Ġtran sp
fir m
Ġcook ed
Ġ194 0
Ġconv ince
Ġsett ler
Ġbi ography
ev idence
ett a
Ġmart ial
Ġgain ing
Ġver ification
Ġpoll utant
Ġnone x
Ġcho ir
Ġsn ack
loc ated
Ġcorrect ly
Ġang le
sk y
Ġphil adelphia
Ġfra gment
estic ide
Ġautom atic
some one
Ġlif ted
Ġlif estyle
Ġelectron ics
Ġdisapp eared
Ġeth ical
Ġvir us
Ġliter ary
Ġlay ing
Ġqual itative
Ġaddition ally
Ġexclus ive
Ġflex ible
Ġspirit ual
Ġbelong s
Ġtransform ed
Ġly on
Ġveget ation
Ġenhance ment
Ġscore card
Ġcert ified
Ġhighlight ed
Ġdistrib uted
Ġlength y
Ġesc al
Ġbenefic iary
Ġcalc ulated
Ġutil ize
Ġconduct ing
Ġevalu ating
Ġrank ed
Ġalle ged
Ġperman ently
Ġrevolution ary
Ġtol l
Ġdelay ed
hor se
vi ated
Ġatl antic
Ġstair case
Ġtu ition
Ġprosper ous
clo se
wor ld
Ġtransl ation
Ġstrict ly
Ġwra p
Ġincred ible
Ġwrest ling
disc uss
Ġrig id
Ġjac ob
Ġassem bly
Ġlean ing
Ġax e
Ġdistingu ished
sum mer
Ġlic ense
Ġdismiss ed
Ġspons ored
Ġoverse as
mand u
Ġshout ed
jap an
Ġsophist icated
Ġorchest ra
Ġextrav ag
Ġbund le
Ġgab riel
Ġinnov ative
Ġyad da
Ġphen om
Ġcany on
2 1
4 8
b it
b ro
b ow
b ull
e an
e at
e ve
f r
g ame
g erton
h as
l ate
m ate
m ethod
n d
n i
n ar
o ffic
p ul
p ast
r isk
r ates
s us
s ignificant
t ion
v il
w ashington
w atched
y ment
Ã ¼
Ġ q
in tern
Ġs igh
Ġs ne
re f
re publ
on se
on ial
Ġc ed
en na
Ġt ul
Ġt usc
Ġm ent
Ġm am
or o
st ep
Ġd ow
Ġd ub
Ġb ru
Ġb ik
Ġf ict
Ġf red
Ġf aint
Ġw as
Ġw herever
Ġa z
Ġg low
Ġg ram
Ġg ordon
Ġe ater
Ġre im
Ġre ass
Ġre verse
Ġh ow
Ġh ence
Ġh int
Ġh atch
Ġh ook
Ġh ond
ro g
Ġn as
ct ive
el on
el ing
Ġst an
ay a
ow a
ig a
ig ger
im on
se emed
th m
ur t
ur ious
Ġde an
ge s
Ġr ude
and o
Ġch uck
Ġcon secut
Ġne utral
Ġcom ic
un like
qu al
qu et
Ġal ike
um in
Ġsh ifted
Ġun cover
Ġun pleasant
Ġun iverse
Ġca ut
Ġca ution
lo g
lo cked
Ġro be
ry chn
Ġar afat
Ġinc ons
per ed
ne ath
Ġqu ar
Ġqu oted
form er
Ġhe sit
ag a
Ġimp ly
Ġwh ip
Ġtra ctor
att y
Ġra w
Ġmo od
te x
Ġoff ensive
Ġgre enspan
Ġcons p
Ġback ed
Ġtr igger
Ġmon ster
Ġha ul
Ġinv ader
ty p
ty pe
ang le
Ġent itled
Ġru g
eral d
Ġout look
sc ope
Ġlaw suit
Ġprodu cing
Ġab c
Ġdef ine
Ġdef ender
Ġsub mission
Ġwar ned
be yond
Ġbl uff
Ġdisc o
olog ically
Ġob jection
Ġsw amp
Ġed gerton
Ġpay roll
Ġcor oner
Ġint im
Ġcre te
cur sion
Ġbar n
Ġbar ry
cept ive
Ġsit com
Ġpost ed
de f
Ġfl ute
ex c
Ġpar ish
Ġpoint ing
Ġche wing
Ġsing apore
Ġaff ection
Ġthought fully
Ġconst raint
Ġread ily
Ġ5 3
Ġhot line
Ġste ven
Ġfollow s
Ġport o
Ġwalk er
Ġhar lem
Ġins isted
Ġreason ably
ret t
Ġref lection
Ġcenter ed
pro blem
Ġsum mary
Ġshort age
Ġreview er
Ġjohn ny
bo o
Ġproject ed
Ġchr onic
Ġcult iv
Ġmil an
Ġ17 0
Ġrisk y
Ġbra ss
Ġbra ve
Ġ198 2
Ġcommon wealth
Ġadminist ered
Ġblo om
Ġcomment ed
Ġcomment ary
Ġdesc end
Ġhalf way
Ġher b
Ġprom pt
Ġprom otion
Ġperiod ical
Ġprefer able
Ġarr iving
Ġarr ival
Ġsound ed
Ġcat aly
Ġdraw er
Ġemer ged
Ġball oon
Ġstuff ed
Ġopt im
look ed
he art
Ġexpl od
Ġdemand ed
Ġcontain ing
Ġsus pected
Ġcru c
tra ditional
Ġeval uated
Ġinstru ctor
inc re
Ġdiv ide
Ġrequest er
Ġ194 5
Ġpan or
Ġconv iction
Ġban ana
Ġextra ordinary
Ġlimit ation
Ġnar rative
Ġinf ant
Ġowner ship
Ġsn ake
Ġtom ato
sk a
Ã© e
Ġdeep ly
Ġsupposed ly
Ġpred icted
Ġscreen play
Ġfran co
Ġdisapp ro
Ġeth ic
Ġcas a
Ġliter ally
Ġx v
Ġlay er
cour t
Ġcollect ing
Ġcollect ive
Ġimag ined
Ġaccom pan
Ġinsp iration
Ġbelong ing
want ed
Ġid iot
Ġtalent ed
Ġhell o
Ġinqu ired
Ġpossess ion
Ġadvis er
Ġcollabor ate
Ġstret ched
Ġsatisf ied
Ġi owa
Ġnin eteen
Ġconsult ant
po irot
Ġvirt ual
Ġconqu est
Ġagricult ure
exp ensive
Ġbol t
Ġremind er
Ġadvoc acy
Ġwra pped
Ġdetermin ation
Ġclin ic
Ġacknow ledge
Ġdepart ure
init ial
Ġbrow ser
Ġprecise ly
Ġforg otten
Ġconstitution al
gre en
Ġmath em
resp onse
Ġhaw ai
Ġtox ic
Ġlam b
Ġencompass es
Ġfacilit ate
Ġswed ish
Ġrhy thm
Ġabb re
Ġmalays ia
Ġridicul ous
thr oughout
Ġpursu ing
Ġjess e
fur thermore
Ġrevol t
Ġsic ily
Ġfier ce
Ġsie ge
Ġartific ial
Ġende avor
Ġolymp ics
Ġprocure ment
Ġbam boo
Ġthir teen
unfort unately
Ġequival ent
Ġphenom enon
republ ican
Ġconsecut ive
rychn ine
c od
d ie
d ale
d ave
d augh
e per
e val
f p
f ly
f ra
f man
i ar
i ard
i ated
j ul
m ir
m art
m ill
m ass
n in
n one
n ice
n amed
o iled
p ent
p resent
p ossible
r ie
r ous
r ical
r idge
s ad
t ru
t otal
t roller
v ity
w i
w s
w au
w ara
z are
in n
Ġc ott
an ian
Ġt ire
Ġt ends
Ġm ature
st ed
Ġd um
Ġd orm
Ġb in
Ġf ork
Ġf led
Ġf illing
Ġw ider
ic ating
Ġg ym
Ġl as
Ġl ump
Ġe s
Ġe ase
Ġre ed
Ġh ay
Ġh amp
Ġh cfa
Ġst or
Ġst ability
Ġin appropriate
ra k
se m
th ian
Ġk ar
Ġr iv
ke eping
Ġne o
Ġne stor
oun ce
as m
if le
Ġal ph
Ġal tered
est abl
la ud
Ġsh er
Ġsh og
Ġsh ep
now adays
Ġma us
ri o
Ġwor n
Ġun ve
Ġun aff
Ġun pre
Ġun anim
ine e
Ġan ce
Ġper tain
ci a
Ġro d
ound ed
Ġbe an
Ġcomp troller
Ġen light
Ġad her
Ġsp here
Ġla bour
Ġinc on
Ġres ide
bl er
ag le
ag ogue
Ġev olving
os a
Ġdis advant
Ġtra uma
Ġsc or
Ġind ul
Ġind ones
con ne
con struction
Ġcomm ander
Ġbu yer
Ġact ed
Ġact iv
Ġcar l
Ġcar los
Ġgre co
Ġback pack
Ġdec lining
Ġpa vement
Ġreg ent
ang ular
ph is
Ġcount ed
sc ar
Ġgen etic
Ġchild hood
ac o
Ġdef ensive
Ġwar rant
be gan
Ġmar tha
Ġbel ly
Ġbl ouse
Ġfor mentera
ose xual
Ġmin eral
cent er
Ġint ake
Ġdep iction
sp ond
Ġsk ating
Ġga ze
Ġorgan ic
Ġdo om
cur ate
Ġgra bbed
Ġbar bar
Ġbar rier
Ġunder neath
ole um
Ġover t
Ġover come
Ġover time
de fin
Ġfar ming
pr iv
Ġhard ware
Ġsl am
Ġnight life
Ġhead ed
ness ee
Ġ5 8
Ġadv ised
Ġhar vard
Ġeas iest
Ġquestion ing
Ġarch ive
Ġtrans it
Ġ201 7
Ġprob ability
Ġcra ig
Ġge omet
Ġmil o
Ġvilla ger
Ġ17 9
Ġyork er
go al
spe c
Ġcharacter ized
Ġthr ill
Ġ9 8
Ġ9 9
ony m
Ġhill ary
Ġpot tery
Ġher itage
Ġenc lo
Ġciv ic
Ġstru ct
Ġ197 4
Ġ197 7
Ġ197 8
Ġfle et
fact ory
zz ling
Ġforeign er
Ġdon key
Ġlower ed
Ġ195 3
Ġcorre spond
Ġadm ire
Ġ196 2
Ġhur dle
ouch ed
Ġmur m
Ġswe eping
Ġrecogn ition
Ġlabor er
Ġtran qu
ov itz
Ġglo bally
Ġemb ra
Ġpet ition
Ġlegisl ature
Ġban ner
Ġbi as
Ġcirc ular
Ġexpla ining
Ġmy stic
nam ic
Ġmaintain s
Ġprofit able
Ġsym path
Ġfix ing
Ġham burger
Ġign oring
Ġscen ic
sk i
Ġram p
Ġnom inee
Ġmist ress
Ġcraft ed
Ġsev ent
Ġcas ual
ta x
Ġtim ber
Ġgam ing
Ġ193 0
Ġextensive ly
Ġpros pective
Ġspect ator
Ġbirth place
pret ty
Ġmel aka
Ġaccur ately
enn ial
Ġdistinct ive
Ġpier re
Ġcalc ulation
verse ly
Ġlux or
Ġunfort unate
Ġupd ate
Ġbyzant ium
Ġillust rates
Ġalex and
Ġdepend ent
Ġcompla in
Ġoverlook ing
Ġli qu
Ġox ide
Ġfaith ful
Ġkno ck
Ġlog ical
Ġemphas ize
Ġstream lined
Ġsubsequ ently
Ġstup a
Ġprepare s
Ġhyp ocr
Ġanx iety
Ġmechan ism
Ġflour ished
dif ference
Ġreb ell
Ġuns uccessful
Ġnegoti ated
Ġwil son
Ġmini ature
worth y
mod el
Ġgran ite
Ġanalyz ed
Ġregist ered
Ġswift ly
Ġmichel angel
cul iar
Ġster e
bet ter
Ġkath mandu
Ġreluct ant
Ġrub ber
Ġoverwhel ming
Ġscrut iny
Ġcomprom ise
Ġwiz ard
Ġpian o
Ġacknowled ged
Ġdud ovitz
Ġrecy cling
Ġseaf ood
prim ary
Ġaller gy
Ġjog ging
Ġrenov ated
Ġattest ation
Ġdio x
Ġbount y
Ġlaund ry
dav id
Ġbot an
Ġfundra ising
Ġextravag ant
Ġced ar
Ġhawai ian
daugh ter
jul ius
wau kee
Ġmichelangel o
a ver
a ire
b ent
b ank
c ow
c la
c all
c ross
d ar
d ou
e or
f ree
f und
f rance
g ive
g age
g entle
h o
h ong
h uh
h onestly
i at
j m
k im
k new
l iss
l ik
m are
m ag
m atic
o en
p ark
s ant
s ia
t em
t old
w all
w ill
y p
z hou
Ã º
Ġ ie
Ġ ern
Ġ ander
Ġs r
Ġs our
Ġc p
Ġc em
Ġc elt
an cial
Ġp ud
Ġp our
Ġp atch
Ġp ony
Ġp unk
Ġp undit
Ġp esticide
al b
ar ium
Ġt ile
Ġt ooth
or us
st ar
Ġd ive
Ġd ried
Ġb ind
Ġb iz
Ġb alk
Ġb ened
Ġf rowned
Ġf wi
Ġw y
Ġw ake
Ġa ic
Ġa ired
Ġa unt
Ġa ston
Ġg in
Ġg ol
Ġg ri
Ġg ee
Ġe ve
Ġe ug
Ġe agle
Ġre act
Ġh ale
Ġh onestly
Ġh ughes
ro bert
om ic
is en
is diction
Ġn od
Ġn azi
Ġst ol
Ġst rychnine
id ation
id able
Ġin fer
ra ft
im an
im ately
im eter
se c
op y
op ed
ad io
ul ates
Ġr y
Ġr ut
Ġr ud
Ġr ust
Ġpro pose
ke st
Ġch atting
Ġcon cur
Ġv el
Ġv amp
Ġse ized
Ġse attle
Ġcom ed
Ġal ert
Ġal right
Ġal igned
Ġj a
Ġj ol
Ġj as
um an
um ed
um bling
Ġex cursion
la v
ut en
Ġma e
ri x
Ġun w
Ġun changed
Ġun related
ain ted
ill o
Ġper ception
ast ro
Ġpre par
Ġpre domin
Ġcomp aring
her d
ind ian
Ġta b
Ġta i
Ġta p
Ġar gu
pt a
pt on
pt ic
pt ical
Ġsp are
Ġsp ray
Ġla zy
ne g
Ġbo red
Ġcont ested
Ġhe ir
Ġdis band
Ġy acht
Ġte ar
Ġus ps
Ġtra pped
cy cl
Ġpr ud
Ġsc attered
Ġcomm itting
Ġbu bble
te am
low er
Ġexp ed
Ġcons ort
Ġpol o
Ġhigh land
Ġinv oice
Ġfin ishing
Ġso vere
Ġlot tery
Ġgu er
Ġout lined
Ġout law
Ġout standing
Ġprov ence
Ġmar ia
Ġter rain
Ġter ribly
Ġis le
Ġbl end
Ġob se
Ġcor rid
Ġele ctor
Ġint r
sp ring
Ġret ained
Ġga u
Ġrest ore
any way
Ġcre ates
Ġstr ive
pl ate
Ġgra b
Ġbuild er
Ġbar ber
Ġchar ging
Ġnational ity
Ġnational ist
me eting
ex hib
Ġpar ole
Ġfil ing
Ġtax ed
Ġsl ip
Ġhead quarters
Ġland ed
Ġbeh alf
ass ess
Ġfinan ced
Ġfinan cially
Ġste am
Ġste wart
Ġwalk way
ik a
Ġcontin uous
Ġ4 4
Ġaccount able
Ġhor iz
Ġann ette
Ġfront ier
Ġprev al
Ġ201 3
