{"!":0,"\"":1,"#":2,"$":3,"%":4,"&":5,"'":6,"(":7,")":8,"*":9,"+":10,",":11,"-":12,".":13,"/":14,"0":15,"1":16,"2":17,"3":18,"4":19,"5":20,"6":21,"7":22,"8":23,"9":24,":":25,";":26,"<":27,"=":28,">":29,"?":30,"@":31,"A":32,"B":33,"C":34,"D":35,"E":36,"F":37,"G":38,"H":39,"I":40,"J":41,"K":42,"L":43,"M":44,"N":45,"O":46,"P":47,"Q":48,"R":49,"S":50,"T":51,"U":52,"V":53,"W":54,"X":55,"Y":56,"Z":57,"[":58,"\\":59,"]":60,"^":61,"_":62,"`":63,"a":64,"b":65,"c":66,"d":67,"e":68,"f":69,"g":70,"h":71,"i":72,"j":73,"k":74,"l":75,"m":76,"n":77,"o":78,"p":79,"q":80,"r":81,"s":82,"t":83,"u":84,"v":85,"w":86,"x":87,"y":88,"z":89,"{":90,"|":91,"}":92,"~":93,"¡":94,"¢":95,"£":96,"¤":97,"¥":98,"¦":99,"§":100,"¨":101,"©":102,"ª":103,"«":104,"¬":105,"®":106,"¯":107,"°":108,"±":109,"²":110,"³":111,"´":112,"µ":113,"¶":114,"·":115,"¸":116,"¹":117,"º":118,"»":119,"¼":120,"½":121,"¾":122,"¿":123,"À":124,"Á":125,"Â":126,"Ã":127,"Ä":128,"Å":129,"Æ":130,"Ç":131,"È":132,"É":133,"Ê":134,"Ë":135,"Ì":136,"Í":137,"Î":138,"Ï":139,"Ð":140,"Ñ":141,"Ò":142,"Ó":143,"Ô":144,"Õ":145,"Ö":146,"×":147,"Ø":148,"Ù":149,"Ú":150,"Û":151,"Ü":152,"Ý":153,"Þ":154,"ß":155,"à":156,"á":157,"â":158,"ã":159,"ä":160,"å":161,"æ":162,"ç":163,"è":164,"é":165,"ê":166,"ë":167,"ì":168,"í":169,"î":170,"ï":171,"ð":172,"ñ":173,"ò":174,"ó":175,"ô":176,"õ":177,"ö":178,"÷":179,"ø":180,"ù":181,"ú":182,"û":183,"ü":184,"ý":185,"þ":186,"ÿ":187,"Ā":188,"ā":189,"Ă":190,"ă":191,"Ą":192,"ą":193,"Ć":194,"ć":195,"Ĉ":196,"ĉ":197,"Ċ":198,"ċ":199,"Č":200,"č":201,"Ď":202,"ď":203,"Đ":204,"đ":205,"Ē":206,"ē":207,"Ĕ":208,"ĕ":209,"Ė":210,"ė":211,"Ę":212,"ę":213,"Ě":214,"ě":215,"Ĝ":216,"ĝ":217,"Ğ":218,"ğ":219,"Ġ":220,"ġ":221,"Ģ":222,"ģ":223,"Ĥ":224,"ĥ":225,"Ħ":226,"ħ":227,"Ĩ":228,"ĩ":229,"Ī":230,"ī":231,"Ĭ":232,"ĭ":233,"Į":234,"į":235,"İ":236,"ı":237,"Ĳ":238,"ĳ":239,"Ĵ":240,"ĵ":241,"Ķ":242,"ķ":243,"ĸ":244,"Ĺ":245,"ĺ":246,"Ļ":247,"ļ":248,"Ľ":249,"ľ":250,"Ŀ":251,"ŀ":252,"Ł":253,"ł":254,"Ń":255,"in":256,"er":257,"Ġs":258,"re":259,"on":260,"Ġc":261,"en":262,"an":263,"ed":264,"Ġp":265,"al":266,"čĊ":267,"ing":268,"at":269,"ar":270,"Ġt":271,"Ġm":272,"or":273,"le":274,"st":275,"it":276,"Ġd":277,"Ġb":278,"Ġf":279,"ou":280,"Ġw":281,"ic":282,"Ġa":283,"Ġg":284,"ion":285,"Ġl":286,"ent":287,"Ġe":288,"Ġre":289,"Ġh":290,"ro":291,"ly":292,"om":293,"is":294,"Ġn":295,"ce":296,"ct":297,"il":298,"et":299,"el":300,"Ġst":301,"ss":302,"id":303,"Ġin":304,"ol":305,"ay":306,"ow":307,"ig":308,"iv":309,"Ġu":310,"ra":311,"im":312,"se":313,"ch":314,"th":315,"ation":316,"ver":317,"ur":318,"op":319,"Ġk":320,"Ġde":321,"ad":322,"am":323,"ate":324,"ul":325,"ge":326,"Ġr":327,"Ġpro":328,"ot":329,"one":330,"and":331,"ke":332,"ir":333,"Ġth":334,"Ġch":335,"Ġcon":336,"Ġne":337,"oun":338,"ment":339,"as":340,"Ġv":341,"od":342,"Ġse":343,"Ġcom":344,"ant":345,"igh":346,"un":347,"ity":348,"ive":349,"if":350,"ist":351,"qu":352,"ter":353,"ck":354,"Ġal":355,"Ġj":356,"ye":357,"um":358,"Ġex":359,"Ġle":360,"Ġo":361,"us":362,"est":363,"Ġgo":364,"la":365,"Ġ1":366,"em":367,"ort":368,"Ġsh":369,"ble":370,"ut":371,"art":372,"ie":373,"pp":374,"ure":375,"ld":376,"ard":377,"now":378,"ff":379,"ight":380,"ally":381,"Ġma":382,"Ġman":383,"all":384,"ud":385,"ice":386,"ri":387,"end":388,"Ġwor":389,"Ġun":390,"ell":391,"ine":392,"ue":393,"pe":394,"ve":395,"ide":396,"ould":397,"Ġca":398,"Ġknow":399,"Ġye":400,"Ġlo":401,"ain":402,"Ġan":403,"ill":404,"our":405,"ated":406,"Ġsu":407,"Ġper":408,"gh":409,"ast":410,"lo":411,"orm":412,"ime":413,"Ġone":414,"ike":415,"ok":416,"ire":417,"ite":418,"Ġpe":419,"ci":420,"Ġro":421,"ound":422,"ry":423,"Ġbe":424,"Ġpre":425,"ong":426,"ous":427,"Ġpl":428,"ish":429,"Ġcomp":430,"Ġen":431,"Ġpo":432,"ance":433,"Ġco":434,"old":435,"her":436,"Ġad":437,"ction":438,"ind":439,"ople":440,"ough":441,"iz":442,"Ġta":443,"Ġlike":444,"Ġim":445,"Ġuh":446,"Ġar":447,"Ġsa":448,"Ġpeople":449,"age":450,"ber":451,"pt":452,"Ġsp":453,"Ġac":454,"Ġla":455,"00":456,"ence":457,"Ġyear":458,"ru":459,"king":460,"Ġtime":461,"og":462,"Ġinc":463,"per":464,"out":465,"ount":466,"are":467,"ne":468,"ree":469,"ome":470,"ign":471,"Ġ19":472,"Ġbo":473,"Ġwould":474,"itt":475,"ack":476,"du":477,"Ġqu":478,"Ġser":479,"Ġres":480,"Ġ2":481,"ian":482,"ink":483,"iss":484,"ary":485,"Ġwe":486,"bl":487,"wo":488,"ect":489,"Ġfa":490,"Ġmu":491,"form":492,"Ġnew":493,"ah":494,"ord":495,"Ġcont":496,"Ġever":497,"Ġhe":498,"ag":499,"ip":500,"Ġev":501,"Ġimp":502,"ame":503,"Ġam":504,"able":505,"ore":506,"Ġme":507,"os":508,"Ġdis":509,"way":510,"Ġy":511,"Ġwork":512,"Ġte":513,"Ġwh":514,"ther":515,"Ġrep":516,"Ġus":517,"ild":518,"man":519,"ress":520,"ult":521,"Ġpart":522,"Ġget":523,"int":524,"ical":525,"Ġtra":526,"Ġinter":527,"fer":528,"cy":529,"ia":530,"Ġpr":531,"att":532,"ition":533,"Ġgr":534,"so":535,"Ġra":536,"Ġop":537,"Ġsc":538,"Ġag":539,"Ġind":540,"ark":541,"Ġapp":542,"con":543,"Ġcomm":544,"ory":545,"Ġem":546,"ater":547,"sh":548,"ach":549,"Ġmo":550,"Ġbu":551,"Ġcl":552,"ict":553,"thing":554,"Ġevery":555,"ab":556,"Ġbr":557,"es":558,"ap":559,"Ġtwo":560,"ved":561,"Ġor":562,"ade":563,"Ġcent":564,"te":565,"Ġstate":566,"cess":567,"ep":568,"Ġact":569,"vel":570,"ial":571,"Ġoff":572,"row":573,"ft":574,"ual":575,"low":576,"ple":577,"Ġcar":578,"Ġass":579,"Ġwell":580,"Ġthink":581,"Ġcol":582,"oman":583,"vice":584,"rea":585,"ram":586,"son":587,"Ġgre":588,"Ġsm":589,"Ġgood":590,"Ġexp":591,"oc":592,"ced":593,"Ġplay":594,"Ġdes":595,"Ġfe":596,"Ġnever":597,"ren":598,"act":599,"ning":600,"und":601,"own":602,"ust":603,"ubl":604,"Ġrec":605,"Ġcons":606,"Ġneed":607,"Ġatt":608,"ful":609,"Ġmany":610,"ative":611,"ific":612,"Ġpol":613,"Ġservice":614,"Ġback":615,"ith":616,"Ġalso":617,"Ġdec":618,"ick":619,"ious":620,"red":621,"ouse":622,"Ġpa":623,"Ġreg":624,"Ġhigh":625,"Ġjo":626,"iver":627,"Ġspe":628,"ath":629,"Ġsee":630,"ib":631,"ily":632,"der":633,"Ġtr":634,"vern":635,"eth":636,"lud":637,"Ġwoman":638,"Ġacc":639,"Ġmon":640,"Ġha":641,"Ġinv":642,"Ġleg":643,"Ġthing":644,"Ġpla":645,"ty":646,"Ġhel":647,"ang":648,"cial":649,"ating":650,"Ġfin":651,"Ġcould":652,"Ġent":653,"Ġday":654,"ident":655,"Ġno":656,"Ġany":657,"Ġway":658,"ency":659,"ican":660,"Ġprog":661,"ife":662,"Ġlook":663,"ange":664,"Ġmake":665,"Ġru":666,"eral":667,"land":668,"Ġfir":669,"ving":670,"Ġso":671,"Ġrem":672,"ood":673,"ens":674,"Ġsaid":675,"ility":676,"Ġsy":677,"ied":678,"ert":679,"Ġgovern":680,"Ġlot":681,"ise":682,"Ġgu":683,"Ġrel":684,"gan":685,"ational":686,"ury":687,"Ġpres":688,"atch":689,"ile":690,"Ġdif":691,"Ġright":692,"Ġmay":693,"Ġmuch":694,"Ġwant":695,"Ġout":696,"Ġeven":697,"ting":698,"Ġstand":699,"Ġcost":700,"Ġeff":701,"ph":702,"Ġcount":703,"sc":704,"Ġprov":705,"ought":706,"Ġfr":707,"Ġtake":708,"Ġprogram":709,"Ġcity":710,"ail":711,"Ġmade":712,"iew":713,"side":714,"Ġlong":715,"ak":716,"Ġreally":717,"ase":718,"Ġhouse":719,"Ġinclud":720,"ather":721,"Ġlaw":722,"uh":723,"ular":724,"Ġold":725,"ient":726,"ited":727,"Ġgovernment":728,"ased":729,"Ġgen":730,"ned":731,"Ġwith":732,"Ġinform":733,"Ġprodu":734,"ually":735,"Ġpubl":736,"Ġshow":737,"Ġfirst":738,"ess":739,"Ġstud":740,"Ġsch":741,"yeah":742,"alk":743,"Ġcr":744,"ool":745,"Ġab":746,"Ġph":747,"Ġsom":748,"Ġfam":749,"ible":750,"Ġchild":751,"ac":752,"Ġhand":753,"Ġdef":754,"Ġgoing":755,"Ġplan":756,"Ġclo":757,"aring":758,"Ġsay":759,"Ġloc":760,"Ġused":761,"Ġsub":762,"dition":763,"Ġbus":764,"ower":765,"Ġwar":766,"av":767,"Ġke":768,"be":769,"cted":770,"Ġsupp":771,"ork":772,"stem":773,"Ġamer":774,"Ġmar":775,"Ġgot":776,"Ġrequ":777,"ix":778,"Ġbel":779,"Ġter":780,"Ġinformation":781,"Ġis":782,"amp":783,"ivid":784,"ittle":785,"Ġsystem":786,"ital":787,"oung":788,"Ġart":789,"arge":790,"Ġyeah":791,"Ġplace":792,"oh":793,"Ġwr":794,"ene":795,"ale":796,"Ġbl":797,"oup":798,"ember":799,"Ġaround":800,"Ġstre":801,"ern":802,"Ġdiffer":803,"Ġfor":804,"Ġnum":805,"Ġlegal":806,"io":807,"Ġsmall":808,"led":809,"oy":810,"ason":811,"ven":812,"Ġsign":813,"ank":814,"ctor":815,"Ġdisc":816,"Ġstill":817,"ider":818,"Ġuse":819,"ject":820,"ute":821,"Ġ199":822,"Ġsur":823,"Ġas":824,"ost":825,"ner":826,"olog":827,"ways":828,"Ġhelp":829,"Ġob":830,"Ġvis":831,"ose":832,"Ġinst":833,"Ġsw":834,"Ġcla":835,"Ġmin":836,"Ġfound":837,"Ġperson":838,"Ġform":839,"Ġreport":840,"Ġed":841,"Ġpay":842,"Ġcentury":843,"Ġwhite":844,"cent":845,"Ġcor":846,"Ġ200":847,"Ġsou":848,"Ġele":849,"Ġint":850,"Ġlife":851,"ier":852,"Ġdep":853,"Ġcountry":854,"Ġpublic":855,"sp":856,"irl":857,"Ġdr":858,"Ġarea":859,"Ġret":860,"Ġear":861,"Ġthree":862,"Ġpop":863,"ek":864,"Ġsk":865,"Ġhome":866,"Ġmean":867,"Ġset":868,"Ġga":869,"Ġorgan":870,"ething":871,"Ġmod":872,"ace":873,"Ġfind":874,"rol":875,"Ġrest":876,"any":877,"ividual":878,"ined":879,"Ġcre":880,"other":881,"ince":882,"Ġwater":883,"xt":884,"Ġlittle":885,"ention":886,"Ġsim":887,"get":888,"ization":889,"Ġcall":890,"Ġcomple":891,"Ġstr":892,"Ġum":893,"Ġworld":894,"pl":895,"Ġrule":896,"Ġalways":897,"Ġcare":898,"Ġfed":899,"Ġel":900,"ature":901,"Ġperform":902,"fit":903,"Ġdo":904,"ract":905,"ash":906,"Ġinterest":907,"ody":908,"Ġval":909,"Ġagency":910,"Ġmen":911,"Ġstreet":912,"ont":913,"Ġav":914,"Ġcolle":915,"Ġend":916,"Ġiss":917,"Ġtown":918,"Ġcase":919,"ized":920,"Ġsomething":921,"Ġda":922,"ution":923,"oney":924,"ission":925,"cur":926,"Ġtur":927,"Ġgra":928,"pon":929,"Ġlast":930,"Ġbuild":931,"Ġdel":932,"ished":933,"Ġeng":934,"Ġindividual":935,"Ġemp":936,"Ġcour":937,"alth":938,"Ġext":939,"Ġ20":940,"ision":941,"Ġgreat":942,"Ġcur":943,"Ġbar":944,"Ġmus":945,"ether":946,"Ġdist":947,"Ġdem":948,"Ġrequire":949,"Ġtri":950,"Ġchar":951,"ward":952,"ady":953,"Ġschool":954,"Ġbelie":955,"irt":956,"Ġlead":957,"res":958,"Ġamerican":959,"lack":960,"Ġdet":961,"Ġdire":962,"Ġcome":963,"omm":964,"Ġrun":965,"Ġest":966,"Ġstart":967,"Ġcap":968,"urch":969,"less":970,"Ġbet":971,"ub":972,"itor":973,"Ġlarge":974,"Ġfederal":975,"ger":976,"Ġgirl":977,"Ġgroup":978,"Ġhapp":979,"ever":980,"gr":981,"atter":982,"Ġmoney":983,"well":984,"Ġmark":985,"ich":986,"Ġreal":987,"iness":988,"ense":989,"Ġunder":990,"Ġbook":991,"Ġyoung":992,"Ġmed":993,"Ġrev":994,"Ġnot":995,"ole":996,"Ġfund":997,"ans":998,"Ġnational":999,"ook":1000,"Ġappro":1001,"ee":1002,"cept":1003,"Ġfamily":1004,"Ġmight":1005,"Ġpartic":1006,"ling":1007,"pect":1008,"Ġbec":1009,"Ġnumber":1010,"ared":1011,"Ġ3":1012,"bor":1013,"Ġchange":1014,"Ġnear":1015,"Ġsit":1016,"min":1017,"Ġtour":1018,"ship":1019,"ted":1020,"Ġwatch":1021,"chn":1022,"que":1023,"Ġpost":1024,"Ġair":1025,"Ġadd":1026,"Ġissue":1027,"Ġtop":1028,"ica":1029,"Ġover":1030,"de":1031,"Ġnor":1032,"Ġdesign":1033,"ived":1034,"Ġanything":1035,"mer":1036,"oot":1037,"ertain":1038,"Ġau":1039,"Ġimport":1040,"conom":1041,"Ġdifferent":1042,"me":1043,"ys":1044,"iving":1045,"blem":1046,"ism":1047,"Ġfar":1048,"ically":1049,"Ġhum":1050,"jor":1051,"Ġfl":1052,"ond":1053,"Ġbro":1054,"Ġbest":1055,"velop":1056,"Ġbuilding":1057,"ex":1058,"Ġkind":1059,"order":1060,"Ġpar":1061,"Ġbig":1062,"rib":1063,"Ġblack":1064,"Ġknown":1065,"Ġstudy":1066,"alking":1067,"ulation":1068,"Ġhist":1069,"Ġproblem":1070,"Ġpoint":1071,"Ġtry":1072,"ided":1073,"Ġcompany":1074,"orn":1075,"Ġeconom":1076,"air":1077,"Ġweek":1078,"Ġaway":1079,"Ġche":1080,"Ġless":1081,"Ġsing":1082,"Ġfol":1083,"ross":1084,"itting":1085,"Ġty":1086,"rent":1087,"Ġbene":1088,"Ġanother":1089,"Ġfil":1090,"cer":1091,"Ġcle":1092,"Ġkid":1093,"Ġtechn":1094,"pos":1095,"Ġbetter":1096,"cing":1097,"Ġput":1098,"Ġexper":1099,"ral":1100,"Ġvar":1101,"ane":1102,"ently":1103,"Ġsouth":1104,"joy":1105,"ately":1106,"Ġlet":1107,"Ġseem":1108,"Ġcommun":1109,"Ġsince":1110,"Ġbusiness":1111,"know":1112,"ably":1113,"ata":1114,"Ġtax":1115,"Ġoffer":1116,"Ġconsider":1117,"Ġfour":1118,"veral":1119,"Ġmanage":1120,"Ġaff":1121,"Ġeffect":1122,"Ġ18":1123,"Ġopen":1124,"pr":1125,"iel":1126,"ural":1127,"ology":1128,"use":1129,"illion":1130,"Ġcover":1131,"ificant":1132,"gy":1133,"Ġsome":1134,"Ġthought":1135,"Ġmajor":1136,"Ġorganization":1137,"Ġred":1138,"Ġhold":1139,"Ġname":1140,"Ġpercent":1141,"Ġhard":1142,"Ġwearing":1143,"Ġcontrol":1144,"Ġdevelop":1145,"Ġside":1146,"Ġpolit":1147,"Ġconst":1148,"ize":1149,"thor":1150,"Ġaud":1151,"Ġsl":1152,"Ġalong":1153,"Ġwithout":1154,"arch":1155,"Ġnight":1156,"Ġfre":1157,"Ġread":1158,"Ġhead":1159,"Ġinvest":1160,"Ġdog":1161,"Ġfun":1162,"Ġisland":1163,"Ġemplo":1164,"Ġbas":1165,"ness":1166,"Ġoffice":1167,"Ġremain":1168,"Ġthough":1169,"az":1170,"Ġwent":1171,"Ġmust":1172,"ull":1173,"Ġsuc":1174,"Ġenjoy":1175,"Ġrespon":1176,"ource":1177,"000":1178,"ften":1179,"yer":1180,"Ġclass":1181,"ley":1182,"ilt":1183,"ument":1184,"ality":1185,"ivity":1186,"Ġnext":1187,"Ġfive":1188,"Ġview":1189,"Ġprovide":1190,"ake":1191,"Ġboy":1192,"Ġresult":1193,"Ġsignificant":1194,"Ġsupport":1195,"Ġtem":1196,"Ġfore":1197,"ball":1198,"ither":1199,"Ġshirt":1200,"ending":1201,"ional":1202,"Ġland":1203,"Ġ5":1204,"ead":1205,"uc":1206,"Ġleft":1207,"ton":1208,"riend":1209,"Ġroom":1210,"Ġcal":1211,"Ġfilm":1212,"two":1213,"ired":1214,"Ġbeh":1215,"Ġprocess":1216,"ass":1217,"fl":1218,"Ġrece":1219,"Ġposs":1220,"inton":1221,"Ġfinan":1222,"resent":1223,"Ġide":1224,"Ġgrow":1225,"Ġoften":1226,"Ġfeel":1227,"inal":1228,"Ġmuse":1229,"over":1230,"Ġmonth":1231,"work":1232,"Ġcamp":1233,"Ġhot":1234,"Ġste":1235,"gest":1236,"Ġsaving":1237,"Ġspec":1238,"stand":1239,"Ġnothing":1240,"Ġfollow":1241,"gress":1242,"Ġdata":1243,"Ġadv":1244,"Ġpresident":1245,"ery":1246,"Ġfoot":1247,"Ġmarket":1248,"Ġmanagement":1249,"Ġport":1250,"Ġallow":1251,"Ġnorth":1252,"Ġpain":1253,"Ġwalk":1254,"Ġkeep":1255,"ik":1256,"ior":1257,"ator":1258,"new":1259,"Ġsure":1260,"Ġchurch":1261,"estion":1262,"Ġcontin":1263,"Ġappe":1264,"Ġmusic":1265,"Ġ4":1266,"Ġgame":1267,"Ġhar":1268,"Ġrate":1269,"Ġimportant":1270,"iting":1271,"Ġwest":1272,"Ġeast":1273,"used":1274,"Ġplaying":1275,"body":1276,"Ġbud":1277,"Ġaccount":1278,"Ġins":1279,"Ġinit":1280,"ies":1281,"Ġintern":1282,"Ġcomplete":1283,"port":1284,"vie":1285,"Ġgive":1286,"iet":1287,"Ġmet":1288,"Ġjob":1289,"Ġblue":1290,"cond":1291,"app":1292,"Ġpark":1293,"Ġseveral":1294,"Ġmail":1295,"Ġcurrent":1296,"Ġreason":1297,"uess":1298,"up":1299,"ended":1300,"Ġorder":1301,"Ġtest":1302,"Ġwin":1303,"Ġhor":1304,"Ġimpro":1305,"ii":1306,"Ġtre":1307,"here":1308,"ensive":1309,"upp":1310,"Ġlocal":1311,"cut":1312,"ina":1313,"Ġbenefit":1314,"nt":1315,"ser":1316,"Ġstay":1317,"Ġrepresent":1318,"Ġann":1319,"ave":1320,"Ġclinton":1321,"por":1322,"ining":1323,"Ġpower":1324,"Ġeas":1325,"illa":1326,"Ġstory":1327,"owever":1328,"Ġlevel":1329,"Ġunited":1330,"Ġoper":1331,"ged":1332,"oday":1333,"Ġstandard":1334,"Ġteam":1335,"Ġinvol":1336,"ric":1337,"Ġdue":1338,"ird":1339,"Ġquestion":1340,"Ġmovie":1341,"ret":1342,"Ġdra":1343,"Ġref":1344,"Ġpriv":1345,"Ġavail":1346,"rict":1347,"Ġfree":1348,"Ġequ":1349,"ified":1350,"Ġtook":1351,"vers":1352,"Ġmain":1353,"Ġrecord":1354,"ield":1355,"au":1356,"icy":1357,"Ġje":1358,"Ġcenter":1359,"Ġfront":1360,"day":1361,"ience":1362,"Ġrele":1363,"iding":1364,"Ġeveryone":1365,"pro":1366,"Ġ000":1367,"Ġsum":1368,"Ġpal":1369,"Ġsite":1370,"Ġdol":1371,"Ġdone":1372,"Ġshop":1373,"ster":1374,"Ġother":1375,"Ġoutside":1376,"ration":1377,"Ġtw":1378,"Ġmid":1379,"Ġredu":1380,"Ġir":1381,"fe":1382,"Ġmember":1383,"omb":1384,"ample":1385,"cl":1386,"med":1387,"ibility":1388,"Ġask":1389,"ened":1390,"ott":1391,"ried":1392,"Ġperformance":1393,"Ġsuccess":1394,"Ġmuseum":1395,"Ġcongress":1396,"Ġprev":1397,"rug":1398,"Ġwithin":1399,"hn":1400,"iven":1401,"cle":1402,"Ġfriend":1403,"ump":1404,"Ġanal":1405,"Ġbeach":1406,"Ġevent":1407,"Ġstat":1408,"Ġoc":1409,"Ġarch":1410,"ney":1411,"Ġfinancial":1412,"ium":1413,"iter":1414,"Ġprof":1415,"Ġpos":1416,"Ġsix":1417,"Ġcan":1418,"Ġtru":1419,"Ġmount":1420,"Ġhour":1421,"isk":1422,"Ġroad":1423,"Ġenough":1424,"Ġeverything":1425,"rease":1426,"Ġavailable":1427,"ditional":1428,"Ġpat":1429,"Ġpur":1430,"iece":1431,"Ġtrans":1432,"Ġ201":1433,"lar":1434,"Ġmor":1435,"Ġorig":1436,"Ġ15":1437,"Ġshort":1438,"Ġproduct":1439,"Ġbelieve":1440,"Ġreview":1441,"ued":1442,"Ġbad":1443,"Ġcompet":1444,"Ġjohn":1445,"Ġz":1446,"Ġpract":1447,"Ġaf":1448,"ressed":1449,"com":1450,"uation":1451,"Ġbased":1452,"Ġlive":1453,"ivers":1454,"Ġsitting":1455,"Ġbur":1456,"Ġthe":1457,"Ġpopular":1458,"Ġmer":1459,"Ġmiss":1460,"Ġsecond":1461,"Ġ10":1462,"Ġquite":1463,"Ġpresent":1464,"uck":1465,"Ġeither":1466,"Ġoh":1467,"Ġhealth":1468,"gin":1469,"Ġseen":1470,"ogether":1471,"Ġgener":1472,"no":1473,"oward":1474,"Ġidea":1475,"abl":1476,"bo":1477,"ler":1478,"Ġrock":1479,"Ġsun":1480,"Ġrese":1481,"line":1482,"Ġterm":1483,"Ġgao":1484,"ugh":1485,"Ġmr":1486,"Ġguess":1487,"ising":1488,"Ġexe":1489,"Ġmillion":1490,"Ġactivity":1491,"Ġincluding":1492,"oice":1493,"Ġcertain":1494,"artment":1495,"ured":1496,"Ġsug":1497,"Ġusing":1498,"Ġbuilt":1499,"Ġoffic":1500,"Ġlim":1501,"Ġking":1502,"Ġcalled":1503,"rew":1504,"Ġpast":1505,"Ġprob":1506,"ush":1507,"Ġpri":1508,"Ġconf":1509,"Ġmaking":1510,"Ġparty":1511,"Ġpen":1512,"ication":1513,"Ġprot":1514,"ager":1515,"Ġpass":1516,"Ġcra":1517,"Ġmatter":1518,"ates":1519,"Ġprice":1520,"Ġtree":1521,"oci":1522,"Ġcame":1523,"Ġge":1524,"Ġproject":1525,"Ġchr":1526,"Ġlooking":1527,"fic":1528,"Ġgeneral":1529,"Ġtype":1530,"by":1531,"ethod":1532,"Ġtechnology":1533,"ken":1534,"Ġer":1535,"Ġve":1536,"Ġsecur":1537,"sure":1538,"Ġ6":1539,"Ġcult":1540,"Ġtoday":1541,"Ġfood":1542,"Ġable":1543,"Ġlow":1544,"ison":1545,"Ġstanding":1546,"Ġcut":1547,"Ġtogether":1548,"Ġstar":1549,"Ġarm":1550,"Ġfact":1551,"Ġtemple":1552,"Ġant":1553,"erous":1554,"ised":1555,"Ġworking":1556,"uss":1557,"Ġten":1558,"Ġmile":1559,"Ġcapital":1560,"lement":1561,"Ġaction":1562,"cture":1563,"Ġcourt":1564,"ique":1565,"les":1566,"ope":1567,"Ġmag":1568,"Ġmeet":1569,"Ġbudget":1570,"Ġlater":1571,"Ġdeliver":1572,"Ġmil":1573,"Ġgard":1574,"ilar":1575,"Ġyet":1576,"Ġactually":1577,"Ġeffort":1578,"Ġflo":1579,"Ġassoci":1580,"Ġexecut":1581,"icle":1582,"Ġvalue":1583,"Ġdollar":1584,"Ġtalk":1585,"Ġfut":1586,"Ġvilla":1587,"Ġ17":1588,"vement":1589,"ma":1590,"most":1591,"Ġce":1592,"Ġlsc":1593,"Ġsec":1594,"Ġsecurity":1595,"uff":1596,"Ġline":1597,"Ġleast":1598,"right":1599,"ug":1600,"Ġlist":1601,"Ġhal":1602,"Ġvol":1603,"Ġamong":1604,"ored":1605,"Ġpaper":1606,"Ġelse":1607,"Ġauthor":1608,"dle":1609,"Ġmethod":1610,"Ġago":1611,"Ġothers":1612,"Ġconc":1613,"Ġsomeone":1614,"Ġpiece":1615,"Ġtell":1616,"Ġstop":1617,"Ġpret":1618,"Ġprobably":1619,"aff":1620,"like":1621,"elt":1622,"ief":1623,"Ġyork":1624,"Ġworker":1625,"Ġgreen":1626,"acter":1627,"Ġgarden":1628,"na":1629,"ered":1630,"Ġmodel":1631,"Ġsingle":1632,"wh":1633,"urn":1634,"Ġjust":1635,"Ġhuman":1636,"rop":1637,"Ġindu":1638,"Ġbrit":1639,"Ġpolicy":1640,"Ġparticip":1641,"Ġiniti":1642,"ying":1643,"ze":1644,"Ġwa":1645,"Ġage":1646,"yes":1647,"Ġfig":1648,"Ġfish":1649,"Ġrisk":1650,"Ġlost":1651,"Ġincome":1652,"arent":1653,"go":1654,"Ġrefer":1655,"Ġreach":1656,"Ġwanted":1657,"Ġbecome":1658,"spe":1659,"itten":1660,"Ġcharacter":1661,"ien":1662,"ination":1663,"Ġcard":1664,"imate":1665,"Ġriver":1666,"ively":1667,"Ġnews":1668,"Ġestabl":1669,"Ġfuture":1670,"Ġcrow":1671,"yee":1672,"Ġword":1673,"Ġaccess":1674,"Ġunderstand":1675,"Ġcommunity":1676,"uppence":1677,"enty":1678,"Ġface":1679,"rench":1680,"iversity":1681,"Ġresearch":1682,"ering":1683,"let":1684,"Ġbra":1685,"Ġplant":1686,"aw":1687,"aut":1688,"ira":1689,"ring":1690,"Ġfoc":1691,"ote":1692,"unch":1693,"Ġ198":1694,"Ġpolitical":1695,"Ġprofess":1696,"Ġtot":1697,"Ġbase":1698,"Ġup":1699,"Ġrather":1700,"Ġjap":1701,"cient":1702,"Ġcrit":1703,"Ġearly":1704,"Ġnon":1705,"ysis":1706,"Ġconstru":1707,"Ġsan":1708,"idence":1709,"Ġseason":1710,"minist":1711,"Ġsat":1712,"Ġthr":1713,"asure":1714,"Ġindust":1715,"Ġeye":1716,"Ġdeal":1717,"Ġresource":1718,"undred":1719,"ny":1720,"par":1721,"Ġ7":1722,"Ġpropos":1723,"Ġlove":1724,"Ġincrease":1725,"Ġtravel":1726,"Ġminute":1727,"Ġmountain":1728,"Ġexecutive":1729,"Ġ9":1730,"illed":1731,"Ġvisit":1732,"Ġhistory":1733,"ock":1734,"Ġgetting":1735,"Ġcommon":1736,"ocument":1737,"Ġtrying":1738,"Ġvarious":1739,"Ġemployee":1740,"Ġwood":1741,"elf":1742,"Ġdeb":1743,"Ġeconomic":1744,"Ġsuggest":1745,"Ġinclude":1746,"Ġsal":1747,"Ġexist":1748,"Ġquality":1749,"Ġgrant":1750,"Ġfeature":1751,"Ġdecision":1752,"Ġentire":1753,"Ġdoor":1754,"Ġnation":1755,"uring":1756,"Ġadminist":1757,"Ġacross":1758,"Ġfail":1759,"Ġwhether":1760,"Ġleader":1761,"Ġbehind":1762,"Ġspecific":1763,"Ġchrist":1764,"ca":1765,"ming":1766,"Ġinfl":1767,"ording":1768,"Ġimpact":1769,"Ġwhole":1770,"Ġground":1771,"ins":1772,"Ġhundred":1773,"Ġjud":1774,"thern":1775,"Ġusually":1776,"Ġclose":1777,"Ġlocated":1778,"Ġpostal":1779,"ob":1780,"uter":1781,"atic":1782,"Ġnet":1783,"ume":1784,"Ġlawyer":1785,"den":1786,"Ġsqu":1787,"Ġcou":1788,"Ġtalking":1789,"Ġtuppence":1790,"Ġblo":1791,"Ġprivate":1792,"ening":1793,"Ġlack":1794,"Ġinterv":1795,"Ġforce":1796,"ging":1797,"Ġident":1798,"also":1799,"Ġwind":1800,"cially":1801,"Ġplayer":1802,"Ġwritten":1803,"iam":1804,"yle":1805,"Ġfort":1806,"ption":1807,"Ġclear":1808,"Ġsol":1809,"Ġcam":1810,"Ġfield":1811,"ety":1812,"Ġstep":1813,"ask":1814,"Ġcomment":1815,"Ġincre":1816,"Ġcolor":1817,"Ġdesc":1818,"Ġheld":1819,"play":1820,"Ġcourse":1821,"ll":1822,"Ġagree":1823,"Ġcompletely":1824,"Ġpretty":1825,"ron":1826,"Ġdocument":1827,"Ġamount":1828,"Ġparticular":1829,"Ġtourist":1830,"band":1831,"we":1832,"ony":1833,"Ġfull":1834,"Ġwalking":1835,"Ġhuh":1836,"Ġdest":1837,"Ġalb":1838,"Ġ12":1839,"Ġbeaut":1840,"Ġclaim":1841,"Ġsimilar":1842,"Ġanalysis":1843,"bel":1844,"Ġdou":1845,"ability":1846,"Ġbring":1847,"Ġassist":1848,"Ġfinal":1849,"Ġdetail":1850,"Ġhistor":1851,"ipp":1852,"Ġsen":1853,"Ġple":1854,"Ġhill":1855,"rown":1856,"Ġneeded":1857,"Ġdiscuss":1858,"hold":1859,"iod":1860,"tern":1861,"Ġ16":1862,"aur":1863,"Ġpractice":1864,"Ġhalf":1865,"Ġpot":1866,"Ġmult":1867,"ained":1868,"Ġtable":1869,"Ġsocial":1870,"come":1871,"icient":1872,"Ġher":1873,"Ġalmost":1874,"Ġenv":1875,"Ġcoun":1876,"Ġdrug":1877,"Ġbal":1878,"etime":1879,"ung":1880,"Ġjon":1881,"vor":1882,"Ġit":1883,"icated":1884,"eter":1885,"Ġalc":1886,"ification":1887,"ready":1888,"Ġtold":1889,"Ġgl":1890,"though":1891,"Ġrout":1892,"asing":1893,"allen":1894,"Ġcoast":1895,"Ġrepubl":1896,"Ġcommitt":1897,"Ġeduc":1898,"inking":1899,"Ġwall":1900,"ential":1901,"Ġprom":1902,"iron":1903,"Ġenc":1904,"Ġscre":1905,"Ġdeter":1906,"Ġrespons":1907,"do":1908,"onder":1909,"atory":1910,"Ġbill":1911,"Ġfrench":1912,"Ġspecial":1913,"Ġcollection":1914,"Ġhorse":1915,"br":1916,"Ġital":1917,"Ġsand":1918,"Ġstore":1919,"pected":1920,"Ġpoor":1921,"Ġtaken":1922,"ogra":1923,"Ġposition":1924,"Ġtoward":1925,"Ġgiven":1926,"Ġnat":1927,"Ġroman":1928,"Ġdepartment":1929,"ficult":1930,"Ġvillage":1931,"Ġbritish":1932,"Ġsil":1933,"Ġgrand":1934,"Ġdaan":1935,"ommy":1936,"uro":1937,"woman":1938,"Ġmention":1939,"Ġwill":1940,"Ġlight":1941,"imal":1942,"Ġsection":1943,"Ġperiod":1944,"fully":1945,"Ġpossible":1946,"Ġsummer":1947,"af":1948,"Ġii":1949,"Ġfire":1950,"Ġger":1951,"Ġlake":1952,"Ġelect":1953,"Ġmom":1954,"itch":1955,"amed":1956,"Ġexc":1957,"Ġgoal":1958,"Ġprefer":1959,"Ġcomputer":1960,"Ġarr":1961,"ohol":1962,"read":1963,"itary":1964,"Ġach":1965,"iful":1966,"Ġstudent":1967,"Ġplanning":1968,"Ġcollege":1969,"Ġhotel":1970,"aurant":1971,"Ġclient":1972,"Ġcentral":1973,"Ġrestaurant":1974,"Ġrequirement":1975,"Ġfigure":1976,"ironment":1977,"co":1978,"however":1979,"Ġsound":1980,"Ġlate":1981,"think":1982,"une":1983,"ister":1984,"aint":1985,"aged":1986,"icture":1987,"Ġdefin":1988,"ped":1989,"reme":1990,"Ġbank":1991,"Ġstaff":1992,"ival":1993,"Ġfac":1994,"osed":1995,"Ġtex":1996,"Ġregion":1997,"Ġexperience":1998,"Ġalcohol":1999,"Ġachie":2000,"pa":2001,"sy":2002,"Ġvi":2003,"iously":2004,"Ġtrue":2005,"Ġdifficult":2006,"Ġstarted":2007,"Ġapproach":2008,"Ġbecame":2009,"Ġinflu":2010,"gu":2011,"Ġciv":2012,"Ġmot":2013,"lect":2014,"Ġdan":2015,"Ġgold":2016,"Ġinside":2017,"Ġsuper":2018,"Ġprim":2019,"Ġbuy":2020,"Ġrelated":2021,"Ġconsidered":2022,"Ġ8":2023,"Ġflow":2024,"Ġstru":2025,"ift":2026,"Ġalready":2027,"ousand":2028,"bert":2029,"osp":2030,"Ġholding":2031,"oss":2032,"where":2033,"Ġpicture":2034,"Ġdu":2035,"Ġaw":2036,"Ġaid":2037,"Ġjour":2038,"reak":2039,"Ġanyone":2040,"Ġobser":2041,"Ġturn":2042,"Ġappear":2043,"Ġasked":2044,"Ġenvironment":2045,"Ġmaint":2046,"Ġpress":2047,"Ġregard":2048,"Ġmodern":2049,"Ġfrequ":2050,"Ġjustice":2051,"Ġcrowd":2052,"Ġindustry":2053,"pite":2054,"pose":2055,"Ġdom":2056,"Ġstra":2057,"Ġchamp":2058,"istic":2059,"Ġuniversity":2060,"Ġheard":2061,"Ġsent":2062,"Ġcat":2063,"Ġlear":2064,"Ġcast":2065,"Ġrole":2066,"Ġbegan":2067,"iction":2068,"Ġitem":2069,"set":2070,"val":2071,"Ġsong":2072,"Ġmind":2073,"Ġdeath":2074,"Ġdirect":2075,"Ġrunning":2076,"Ġofficial":2077,"Ġtotal":2078,"Ġtv":2079,"Ġliving":2080,"Ġtele":2081,"Ġdistrict":2082,"Ġinvestment":2083,"hib":2084,"sed":2085,"Ġtaking":2086,"Ġtrain":2087,"Ġconsist":2088,"Ġdraw":2089,"Ġcouple":2090,"time":2091,"itive":2092,"Ġfelt":2093,"Ġap":2094,"Ġmanager":2095,"Ġ197":2096,"many":2097,"Ġassess":2098,"Ġabs":2099,"ashing":2100,"Ġalbum":2101,"young":2102,"Ġill":2103,"Ġaward":2104,"Ġeuro":2105,"Ġbegin":2106,"Ġcommission":2107,"Ġsituation":2108,"Ġinvolved":2109,"ape":2110,"Ġsort":2111,"Ġsold":2112,"Ġcred":2113,"Ġmal":2114,"Ġfle":2115,"Ġthousand":2116,"Ġquick":2117,"Ġemer":2118,"Ġguy":2119,"Ġrelig":2120,"Ġstrate":2121,"Ġeasy":2122,"Ġmiddle":2123,"bur":2124,"Ġtit":2125,"Ġball":2126,"Ġlou":2127,"Ġexample":2128,"iro":2129,"Ġat":2130,"Ġstuff":2131,"Ġworth":2132,"Ġunf":2133,"Ġindian":2134,"sw":2135,"ana":2136,"Ġband":2137,"Ġgod":2138,"Ġnice":2139,"Ġvict":2140,"Ġamerica":2141,"Ġpopulation":2142,"Ġseems":2143,"Ġreceived":2144,"Ġstyle":2145,"Ġknew":2146,"ellow":2147,"Ġopt":2148,"Ġavo":2149,"ground":2150,"Ġdevelopment":2151,"Ġcontinue":2152,"Ġdelivery":2153,"etimes":2154,"Ġchampion":2155,"ino":2156,"ers":2157,"erv":2158,"Ġson":2159,"Ġtommy":2160,"Ġbrown":2161,"Ġnecess":2162,"Ġalthough":2163,"look":2164,"ocr":2165,"Ġown":2166,"Ġsell":2167,"arter":2168,"Ġbed":2169,"Ġbody":2170,"Ġwide":2171,"Ġwife":2172,"Ġstation":2173,"Ġyes":2174,"Ġboat":2175,"Ġboard":2176,"Ġappl":2177,"Ġcheck":2178,"lish":2179,"Ġsle":2180,"ics":2181,"Ġespe":2182,"Ġcondition":2183,"Ġjack":2184,"Ġ14":2185,"Ġarg":2186,"Ġsaw":2187,"Ġfavor":2188,"anged":2189,"Ġremember":2190,"Ġaddress":2191,"Ġroute":2192,"sa":2193,"reat":2194,"vert":2195,"Ġlikely":2196,"Ġimplement":2197,"Ġentity":2198,"Ġkey":2199,"Ġcivil":2200,"Ġeurope":2201,"fact":2202,"Ġlang":2203,"ify":2204,"Ġnumerous":2205,"Ġespecially":2206,"era":2207,"outh":2208,"usband":2209,"empt":2210,"Ġprin":2211,"Ġlooked":2212,"Ġinteresting":2213,"Ġsquare":2214,"fect":2215,"he":2216,"zz":2217,"Ġcust":2218,"Ġfall":2219,"lass":2220,"rible":2221,"Ġspend":2222,"epend":2223,"Ġexpl":2224,"Ġpayment":2225,"Ġstrong":2226,"Ġforeign":2227,"Ġpatient":2228,"Ġbeautiful":2229,"ius":2230,"rest":2231,"Ġfight":2232,"ama":2233,"Ġchallen":2234,"Ġok":2235,"Ġfrance":2236,"Ġfamous":2237,"Ġdirector":2238,"Ġocc":2239,"Ġrepublican":2240,"back":2241,"ding":2242,"ping":2243,"Ġwonder":2244,"Ġaut":2245,"Ġhall":2246,"Ġdecided":2247,"Ġcreated":2248,"Ġorigin":2249,"Ġfocus":2250,"for":2251,"Ġborn":2252,"Ġeight":2253,"Ġstri":2254,"Ġcause":2255,"ames":2256,"Ġconsum":2257,"Ġrequired":2258,"ograph":2259,"Ġparent":2260,"Ġdon":2261,"Ġstone":2262,"Ġjer":2263,"Ġplayed":2264,"Ġobject":2265,"Ġreleased":2266,"yed":2267,"Ġfif":2268,"Ġaccept":2269,"Ġprovided":2270,"Ġdemand":2271,"Ġmilitary":2272,"got":2273,"oe":2274,"ann":2275,"Ġbit":2276,"Ġhusband":2277,"Ġchance":2278,"umb":2279,"Ġheav":2280,"Ġhair":2281,"Ġcrime":2282,"Ġinstead":2283,"Ġarchite":2284,"oke":2285,"Ġdark":2286,"Ġfine":2287,"Ġlower":2288,"Ġlady":2289,"Ġut":2290,"Ġrich":2291,"Ġsuff":2292,"Ġcarry":2293,"Ġregulation":2294,"Ġengine":2295,"Ġbroad":2296,"Ġviol":2297,"Ġcir":2298,"eng":2299,"Ġpick":2300,"Ġthird":2301,"Ġjames":2302,"ogn":2303,"Ġphot":2304,"Ġjew":2305,"Ġdam":2306,"Ġjump":2307,"Ġleave":2308,"Ġmass":2309,"Ġancient":2310,"Ġ195":2311,"Ġcontain":2312,"Ġsky":2313,"Ġenglish":2314,"gypt":2315,"uge":2316,"Ġsus":2317,"iling":2318,"idge":2319,"unt":2320,"Ġsport":2321,"Ġacqu":2322,"Ġcorre":2323,"see":2324,"attle":2325,"Ġincludes":2326,"Ġsometimes":2327,"Ġcorpor":2328,"Ġgave":2329,"Ġculture":2330,"Ġstructure":2331,"head":2332,"ror":2333,"Ġcru":2334,"Ġride":2335,"Ġexce":2336,"Ġadm":2337,"Ġdifference":2338,"Ġdesigned":2339,"Ġprotect":2340,"Ġtexas":2341,"light":2342,"tra":2343,"ille":2344,"eme":2345,"itely":2346,"Ġspace":2347,"Ġhigher":2348,"Ġcommittee":2349,"Ġsnow":2350,"Ġmich":2351,"Ġden":2352,"Ġpeace":2353,"Ġ196":2354,"Ġseries":2355,"Ġeval":2356,"Ġindepend":2357,"Ġclub":2358,"Ġletter":2359,"Ġprior":2360,"19":2361,"pri":2362,"Ġcy":2363,"Ġhit":2364,"Ġhol":2365,"isc":2366,"unity":2367,"lace":2368,"Ġshare":2369,"oughout":2370,"Ġcontrib":2371,"Ġmeasure":2372,"Ġmove":2373,"ledge":2374,"Ġvisitor":2375,"Ġpalace":2376,"Ġlangu":2377,"of":2378,"oint":2379,"yal":2380,"Ġsource":2381,"arily":2382,"Ġtower":2383,"Ġhur":2384,"Ġweb":2385,"Ġemission":2386,"Ġattack":2387,"Ġproduction":2388,"Ġwrong":2389,"Ġinstru":2390,"Ġfollowing":2391,"lim":2392,"round":2393,"Ġpack":2394,"Ġbreak":2395,"iff":2396,"Ġmoved":2397,"Ġdrive":2398,"Ġaffect":2399,"Ġmoment":2400,"ef":2401,"een":2402,"ga":2403,"oth":2404,"Ġing":2405,"ouch":2406,"isl":2407,"Ġpers":2408,"Ġspot":2409,"Ġteach":2410,"Ġtraining":2411,"Ġlonger":2412,"venue":2413,"ashington":2414,"aign":2415,"iber":2416,"Ġchair":2417,"Ġmess":2418,"Ġrecomm":2419,"Ġhappy":2420,"Ġcustom":2421,"Ġcath":2422,"oura":2423,"Ġhat":2424,"rael":2425,"Ġround":2426,"pture":2427,"Ġheart":2428,"Ġrace":2429,"Ġmaybe":2430,"Ġextreme":2431,"Ġestimate":2432,"Ġlanguage":2433,"inc":2434,"Ġself":2435,"Ġmur":2436,"Ġdrew":2437,"Ġgree":2438,"Ġegypt":2439,"Ġdead":2440,"Ġchoice":2441,"pped":2442,"Ġsoon":2443,"Ġphys":2444,"Ġinternational":2445,"Ġfloor":2446,"aking":2447,"ply":2448,"rin":2449,"sm":2450,"str":2451,"Ġstock":2452,"Ġdev":2453,"Ġcomb":2454,"Ġjul":2455,"Ġspent":2456,"Ġserved":2457,"Ġdisplay":2458,"Ġtrack":2459,"Ġswe":2460,"Ġreporting":2461,"Ġeconomy":2462,"Ġmorning":2463,"Ġinitiative":2464,"vision":2465,"Ġcross":2466,"Ġbre":2467,"Ġlie":2468,"room":2469,"Ġproper":2470,"Ġrecogn":2471,"Ġruss":2472,"Ġcounty":2473,"Ġreturn":2474,"Ġvalley":2475,"Ġcampaign":2476,"Ġpainting":2477,"Ġcritic":2478,"Ġtar":2479,"Ġmic":2480,"Ġmand":2481,"Ġdiv":2482,"Ġseven":2483,"Ġexpect":2484,"Ġanimal":2485,"Ġlabor":2486,"Ġfactor":2487,"Ġstatement":2488,"Ġexpensive":2489,"Ġsubject":2490,"Ġhappened":2491,"Ġfunding":2492,"Ġwatching":2493,"Ġtreat":2494,"Ġpurpose":2495,"Ġconstruction":2496,"Ġcredit":2497,"eed":2498,"ially":2499,"Ġpage":2500,"Ġmad":2501,"Ġfather":2502,"Ġhowever":2503,"Ġsepar":2504,"Ġprep":2505,"Ġtran":2506,"Ġsurround":2507,"Ġpersonal":2508,"Ġoccur":2509,"Ġmeeting":2510,"Ġprofessional":2511,"nal":2512,"ov":2513,"part":2514,"reg":2515,"itution":2516,"Ġdav":2517,"Ġaim":2518,"Ġhope":2519,"Ġ11":2520,"Ġspan":2521,"ague":2522,"Ġmother":2523,"Ġsoci":2524,"Ġeffective":2525,"clus":2526,"Ġauthority":2527,"Ġeducation":2528,"Ġsleep":2529,"fir":2530,"Ġsaint":2531,"Ġpurch":2532,"ston":2533,"rodu":2534,"oph":2535,"Ġperfect":2536,"Ġcook":2537,"Ġtraditional":2538,"actly":2539,"Ġrecent":2540,"Ġallowed":2541,"gust":2542,"Ġmos":2543,"ician":2544,"Ġnorm":2545,"Ġpool":2546,"Ġrequest":2547,"Ġgrass":2548,"Ġmajority":2549,"Ġintervention":2550,"ket":2551,"more":2552,"iced":2553,"Ġglo":2554,"ental":2555,"oted":2556,"Ġven":2557,"ode":2558,"Ġ194":2559,"Ġresort":2560,"Ġfair":2561,"aps":2562,"Ġaccording":2563,"Ġisrael":2564,"Ġartist":2565,"Ġdemon":2566,"Ġdemocr":2567,"Ġauditor":2568,"Ġreceive":2569,"portunity":2570,"Ġgeor":2571,"Ġvers":2572,"Ġmem":2573,"Ġled":2574,"Ġlived":2575,"ously":2576,"Ġ25":2577,"Ġevidence":2578,"Ġemb":2579,"Ġdiscover":2580,"Ġappropri":2581,"Ġtyp":2582,"Ġoriginal":2583,"Ġsecret":2584,"Ġjapan":2585,"aper":2586,"orney":2587,"Ġ13":2588,"izing":2589,"Ġincluded":2590,"acc":2591,"Ġturned":2592,"Ġestablished":2593,"Ġthroughout":2594,"Ġpan":2595,"Ġpet":2596,"Ġdut":2597,"Ġbor":2598,"Ġbay":2599,"Ġfem":2600,"olf":2601,"Ġconv":2602,"aste":2603,"Ġbrought":2604,"Ġlegisl":2605,"Ġswim":2606,"Ġcomplex":2607,"Ġclean":2608,"Ġremains":2609,"Ġproposed":2610,"Ġdeterm":2611,"Ġemerg":2612,"Ġmary":2613,"Ġreform":2614,"Ġhost":2615,"urance":2616,"Ġrange":2617,"ipment":2618,"Ġyellow":2619,"Ġopportunity":2620,"Ġattempt":2621,"Ġsett":2622,"Ġtrip":2623,"Ġdefinitely":2624,"Ġprinci":2625,"rit":2626,"would":2627,"Ġsense":2628,"anced":2629,"Ġmatch":2630,"Ġban":2631,"Ġwashington":2632,"Ġstage":2633,"Ġexcept":2634,"Ġquarter":2635,"Ġresident":2636,"Ġproduced":2637,"Ġkept":2638,"Ġnote":2639,"door":2640,"Ġmentioned":2641,"dom":2642,"sing":2643,"Ġsla":2644,"Ġbott":2645,"Ġess":2646,"Ġseat":2647,"Ġexpected":2648,"Ġsuit":2649,"Ġ30":2650,"Ġassociation":2651,"bu":2652,"even":2653,"Ġbi":2654,"Ġur":2655,"verage":2656,"Ġchap":2657,"Ġcondu":2658,"asion":2659,"Ġju":2660,"Ġattention":2661,"Ġnobody":2662,"Ġ2000":2663,"Ġretire":2664,"group":2665,"Ġnotice":2666,"Ġdeveloped":2667,"iety":2668,"Ġimprove":2669,"Ġtrust":2670,"board":2671,"Ġcirc":2672,"hood":2673,"Ġton":2674,"Ġkm":2675,"ada":2676,"Ġconne":2677,"Ġexam":2678,"ude":2679,"inese":2680,"Ġsave":2681,"ference":2682,"Ġexpla":2683,"Ġsubst":2684,"Ġextra":2685,"Ġtwenty":2686,"Ġstatue":2687,"Ġmultip":2688,"Ġtitle":2689,"des":2690,"ev":2691,"ox":2692,"Ġsir":2693,"Ġcand":2694,"Ġmy":2695,"stly":2696,"Ġdied":2697,"Ġdressed":2698,"Ġren":2699,"ett":2700,"olution":2701,"key":2702,"Ġadditional":2703,"itted":2704,"Ġrad":2705,"Ġrelation":2706,"Ġolder":2707,"Ġcloth":2708,"Ġfunction":2709,"Ġ50":2710,"Ġwindow":2711,"Ġflower":2712,"Ġjournal":2713,"Ġquickly":2714,"gen":2715,"haps":2716,"rant":2717,"Ġfly":2718,"ico":2719,"Ġho":2720,"ili":2721,"atever":2722,"Ġknowledge":2723,"Ġscul":2724,"Ġregul":2725,"anese":2726,"Ġaudit":2727,"Ġfootball":2728,"medi":2729,"Ġlimit":2730,"Ġcele":2731,"ospital":2732,"Ġnecessary":2733,"ai":2734,"li":2735,"wide":2736,"Ġmart":2737,"Ġaltern":2738,"Ġ100":2739,"Ġansw":2740,"Ġworked":2741,"teen":2742,"Ġattorney":2743,"ological":2744,"Ġcurrently":2745,"Ġdescrib":2746,"Ġavoid":2747,"acy":2748,"nam":2749,"su":2750,"Ġgain":2751,"Ġnamed":2752,"iled":2753,"Ġsea":2754,"Ġcoming":2755,"irot":2756,"Ġemergency":2757,"Ġben":2758,"Ġhospital":2759,"Ġnar":2760,"ceed":2761,"igation":2762,"odd":2763,"Ġmanu":2764,"Ġunit":2765,"cience":2766,"Ġtrou":2767,"Ġfirm":2768,"Ġformer":2769,"Ġafford":2770,"Ġnatural":2771,"Ġgerman":2772,"Ġmaintain":2773,"rance":2774,"ream":2775,"Ġinf":2776,"Ġran":2777,"Ġprofit":2778,"Ġcharge":2779,"Ġspending":2780,"Ġtrade":2781,"Ġphone":2782,"Ġafr":2783,"Ġtowards":2784,"Ġoption":2785,"ban":2786,"Ġcop":2787,"Ġfla":2788,"sequ":2789,"Ġchinese":2790,"uted":2791,"Ġdespite":2792,"Ġability":2793,"Ġbelief":2794,"Ġhappen":2795,"ornia":2796,"Ġbasket":2797,"Ġgenerally":2798,"Ġinfluence":2799,"Ġmicro":2800,"Ġsociety":2801,"case":2802,"house":2803,"lier":2804,"yond":2805,"Ġver":2806,"Ġsant":2807,"Ġpath":2808,"Ġbon":2809,"Ġadvert":2810,"Ġhear":2811,"Ġoppos":2812,"Ġassum":2813,"Ġpoll":2814,"Ġremark":2815,"Ġmarch":2816,"Ġarticle":2817,"Ġelection":2818,"Ġgrowth":2819,"Ġwinter":2820,"Ġsuccessful":2821,"Ġchristian":2822,"Ġdestro":2823,"Ġitalian":2824,"Ġmultiple":2825,"ham":2826,"xim":2827,"inated":2828,"Ġded":2829,"three":2830,"Ġsex":2831,"Ġsector":2832,"Ġroyal":2833,"Ġweather":2834,"Ġwhatever":2835,"Ġrap":2836,"Ġexplo":2837,"Ġattract":2838,"Ġbackground":2839,"Ġsym":2840,"Ġhousehold":2841,"Ġequipment":2842,"ughter":2843,"Ġtelevision":2844,"action":2845,"mit":2846,"uary":2847,"inion":2848,"Ġtask":2849,"lethor":2850,"Ġbow":2851,"Ġgall":2852,"Ġgather":2853,"Ġhy":2854,"Ġchina":2855,"ighbor":2856,"umn":2857,"Ġwear":2858,"bling":2859,"Ġpublished":2860,"Ġelement":2861,"Ġcareer":2862,"Ġexpert":2863,"comp":2864,"bb":2865,"vant":2866,"reci":2867,"Ġdress":2868,"Ġfix":2869,"Ġglass":2870,"ander":2871,"Ġterrible":2872,"Ġtried":2873,"Ġwestern":2874,"Ġoperation":2875,"Ġarmy":2876,"Ġcamera":2877,"uated":2878,"west":2879,"Ġsale":2880,"Ġcio":2881,"Ġmission":2882,"Ġdate":2883,"Ġbattle":2884,"rote":2885,"Ġdece":2886,"irty":2887,"ends":2888,"ishing":2889,"Ġimm":2890,"Ġrain":2891,"Ġspeak":2892,"Ġoutdoor":2893,"Ġrestrict":2894,"Ġmedical":2895,"Ġremained":2896,"Ġresponse":2897,"Ġprovides":2898,"Ġcalif":2899,"Ġowner":2900,"fort":2901,"mark":2902,"ura":2903,"Ġcold":2904,"Ġfan":2905,"icip":2906,"Ġhan":2907,"Ġnone":2908,"Ġriding":2909,"Ġexactly":2910,"ression":2911,"cont":2912,"Ġconserv":2913,"anging":2914,"Ġsouthern":2915,"Ġdoctor":2916,"Ġempire":2917,"Ġassistance":2918,"Ġcathed":2919,"Ġgreek":2920,"Ġretirement":2921,"lethorp":2922,"Ġsize":2923,"rel":2924,"Ġdown":2925,"Ġham":2926,"raction":2927,"imb":2928,"Ġcho":2929,"unk":2930,"Ġserve":2931,"Ġrecently":2932,"Ġsimple":2933,"Ġbrother":2934,"Ġcovered":2935,"Ġlouis":2936,"Ġjulius":2937,"Ġdavid":2938,"gic":2939,"iant":2940,"Ġign":2941,"inct":2942,"Ġsn":2943,"Ġsad":2944,"Ġslow":2945,"inger":2946,"Ġfer":2947,"Ġwrote":2948,"Ġaverage":2949,"Ġinte":2950,"Ġneighbor":2951,"asc":2952,"Ġalone":2953,"Ġexhib":2954,"loc":2955,"Ġimmedi":2956,"Ġlocation":2957,"Ġ2001":2958,"Ġinterested":2959,"Ġlimited":2960,"Ġincreased":2961,"Ġencoura":2962,"Ġinglethorp":2963,"Ġmanufact":2964,"Ġintegr":2965,"gal":2966,"just":2967,"really":2968,"Ġtom":2969,"orter":2970,"Ġdin":2971,"Ġgar":2972,"Ġgate":2973,"adem":2974,"Ġconcer":2975,"Ġasset":2976,"Ġfee":2977,"Ġdefending":2978,"Ġinstall":2979,"although":2980,"Ġinternet":2981,"Ġadministration":2982,"Ġwilliam":2983,"Ġfavorite":2984,"first":2985,"inter":2986,"Ġmc":2987,"Ġdram":2988,"Ġlik":2989,"iring":2990,"Ġsele":2991,"Ġshr":2992,"Ġenh":2993,"Ġsafe":2994,"Ġcontra":2995,"Ġrail":2996,"Ġscen":2997,"Ġpaid":2998,"Ġsword":2999,"Ġparticularly":3000,"Ġresponsibility":3001,"Ġexcell":3002,"bal":3003,"cast":3004,"comm":3005,"itar":3006,"Ġdor":3007,"Ġfast":3008,"Ġgun":3009,"Ġkill":3010,"Ġvote":3011,"Ġopinion":3012,"Ġguid":3013,"Ġaugust":3014,"mean":3015,"Ġcorrect":3016,"iny":3017,"Ġful":3018,"oud":3019,"Ġrevenue":3020,"ula":3021,"Ġvoice":3022,"Ġexpense":3023,"Ġsaying":3024,"sport":3025,"Ġbasis":3026,"azine":3027,"Ġeastern":3028,"Ġextremely":3029,"mon":3030,"ray":3031,"ara":3032,"Ġlu":3033,"change":3034,"Ġthinking":3035,"Ġang":3036,"Ġensure":3037,"Ġpoirot":3038,"Ġpolice":3039,"Ġcrim":3040,"Ġwrite":3041,"Ġreported":3042,"Ġintrodu":3043,"Ġparis":3044,"Ġgrowing":3045,"Ġjapanese":3046,"Ġfacility":3047,"Ġassessment":3048,"Ġalternative":3049,"cise":3050,"rary":3051,"sk":3052,"Ġmine":3053,"Ġep":3054,"Ġchanged":3055,"rupt":3056,"Ġrespect":3057,"Ġwealth":3058,"aging":3059,"Ġregular":3060,"Ġphil":3061,"Ġhandle":3062,"Ġearth":3063,"Ġaccounting":3064,"Ġ60":3065,"Ġincreasing":3066,"Ġmotor":3067,"Ġchallenge":3068,"Ġcalifornia":3069,"Ġcathedral":3070,"erve":3071,"Ġscience":3072,"Ġpul":3073,"stru":3074,"Ġder":3075,"Ġbag":3076,"Ġaust":3077,"Ġthank":3078,"pper":3079,"Ġmaster":3080,"Ġsole":3081,"scape":3082,"Ġbelieved":3083,"Ġleading":3084,"Ġmedium":3085,"Ġshopping":3086,"Ġblood":3087,"Ġrecommend":3088,"Ġversion":3089,"Ġprinciple":3090,"ba":3091,"jon":3092,"Ã©":3093,"Ġmater":3094,"Ġmale":3095,"Ġbike":3096,"Ġfra":3097,"Ġlar":3098,"Ġeat":3099,"Ġkn":3100,"Ġdeep":3101,"people":3102,"Ġindia":3103,"Ġnovel":3104,"Ġproduce":3105,"Ġsupposed":3106,"Ġsetting":3107,"Ġdirected":3108,"Ġnearby":3109,"Ġreduce":3110,"Ġveh":3111,"Ġsenior":3112,"Ġstrategy":3113,"Ġconservative":3114,"Ġdance":3115,"Ġwild":3116,"Ġconvers":3117,"cked":3118,"Ġjan":3119,"using":3120,"estic":3121,"Ġmach":3122,"Ġbeyond":3123,"Ġcompared":3124,"Ġacadem":3125,"Ġlargest":3126,"Ġwatched":3127,"Ġjudge":3128,"Ġnetwork":3129,"ossible":3130,"Ġreligious":3131,"Ġokay":3132,"yz":3133,"Ġcit":3134,"itz":3135,"Ġgro":3136,"Ġhuge":3137,"Ġnature":3138,"asant":3139,"Ġpred":3140,"Ġspring":3141,"Ġmex":3142,"Ġram":3143,"Ġguide":3144,"Ġclosed":3145,"Ġsurpr":3146,"Ġgradu":3147,"Ġmedic":3148,"Ġnearly":3149,"Ġinsurance":3150,"Ġinitial":3151,"nov":3152,"Ġassociated":3153,"Ġfrequently":3154,"Ġtrouble":3155,"put":3156,"Ġib":3157,"Ġwish":3158,"Ġapr":3159,"olute":3160,"Ġoct":3161,"ffic":3162,"Ġbox":3163,"Ġpartner":3164,"Ġmoving":3165,"apon":3166,"Ġsimply":3167,"Ġdaughter":3168,"every":3169,"Ġsits":3170,"Ġreading":3171,"Ġsignificantly":3172,"Ġreduction":3173,"Ġscreen":3174,"Ġautom":3175,"Ġheavy":3176,"Ġexcellent":3177,"little":3178,"sday":3179,"Ġcatch":3180,"Ġpra":3181,"Ġtomb":3182,"Ġhon":3183,"Ġnom":3184,"ulated":3185,"Ġthreat":3186,"Ġunion":3187,"Ġener":3188,"Ġadrin":3189,"Ġminor":3190,"spaper":3191,"Ġvariety":3192,"Ġprevent":3193,"Ġmagazine":3194,"Ġbasketball":3195,"Ġvehicle":3196,"bin":3197,"good":3198,"some":3199,"wr":3200,"ini":3201,"Ġtouch":3202,"stic":3203,"Ġbab":3204,"Ġfru":3205,"Ġgone":3206,"Ġspl":3207,"bled":3208,"Ġbridge":3209,"avior":3210,"Ġfinding":3211,"Ġstayed":3212,"Ġprimary":3213,"Ġaware":3214,"ae":3215,"boy":3216,"sim":3217,"site":3218,"tr":3219,"Ġpas":3220,"Ġtal":3221,"Ġdang":3222,"Ġbird":3223,"Ġfell":3224,"Ġlif":3225,"Ġproced":3226,"vey":3227,"Ġrobert":3228,"Ġprem":3229,"Ġweapon":3230,"Ġuser":3231,"Ġmovement":3232,"Ġdecade":3233,"Ġsoft":3234,"Ġfrank":3235,"Ġbush":3236,"ught":3237,"belie":3238,"Ġelectron":3239,"Ġregulatory":3240,"Ġmaterial":3241,"may":3242,"pre":3243,"reh":3244,"reed":3245,"Ġwal":3246,"Ġlink":3247,"eline":3248,"imated":3249,"urned":3250,"Ġther":3251,"Ġvan":3252,"Ġloss":3253,"rence":3254,"Ġattraction":3255,"Ġentertain":3256,"phone":3257,"Ġsmaller":3258,"Ġfishing":3259,"Ġjacket":3260,"Ġcustomer":3261,"aving":3262,"gree":3263,"Ġice":3264,"Ġtool":3265,"Ġmist":3266,"Ġgas":3267,"Ġnap":3268,"Ġupon":3269,"lax":3270,"labor":3271,"Ġworry":3272,"person":3273,"Ġentrance":3274,"Ġfran":3275,"Ġvolume":3276,"Ġconcern":3277,"Ġhistorical":3278,"Ġdiscussion":3279,"Ġstraight":3280,"Ġindependent":3281,"efore":3282,"Ġrelationship":3283,"Ġcriminal":3284,"ha":3285,"pan":3286,"walk":3287,"Ġon":3288,"Ġliber":3289,"aded":3290,"addition":3291,"usal":3292,"Ġcaused":3293,"Ġloan":3294,"Ġdisapp":3295,"ressive":3296,"Ġappreci":3297,"Ġhighly":3298,"Ġ1996":3299,"Ġseemed":3300,"Ġforest":3301,"Ġspecie":3302,"Ġannual":3303,"Ġfailed":3304,"Ġbeginning":3305,"Ġspanish":3306,"Ġduty":3307,"Ġclothes":3308,"certain":3309,"ech":3310,"za":3311,"Ġsight":3312,"ania":3313,"Ġtro":3314,"Ġbought":3315,"Ġeth":3316,"Ġship":3317,"ender":3318,"Ġincor":3319,"iab":3320,"Ġscene":3321,"Ġbrand":3322,"Ġcreate":3323,"Ġadded":3324,"Ġtopic":3325,"Ġtheater":3326,"Ġpassed":3327,"Ġoriginally":3328,"Ġanswer":3329,"ection":3330,"mar":3331,"place":3332,"zen":3333,"Ġsens":3334,"Ġpink":3335,"Ġmix":3336,"Ġrelax":3337,"Ġna":3338,"iday":3339,"Ġvot":3340,"Ġvir":3341,"Ġshot":3342,"Ġbeat":3343,"Ġarab":3344,"Ġyard":3345,"Ġindic":3346,"Ġmostly":3347,"Ġclimb":3348,"Ġcolumn":3349,"Ġevening":3350,"Ġpaying":3351,"Ġoffering":3352,"Ġbehavior":3353,"Ġcraft":3354,"Ġmurder":3355,"pal":3356,"wise":3357,"Ġand":3358,"inst":3359,"Ġsud":3360,"Ġti":3361,"ateg":3362,"Ġrise":3363,"Ġsev":3364,"Ġnewspaper":3365,"Ġcontent":3366,"Ġrare":3367,"Ġbrief":3368,"Ġefficient":3369,"ashion":3370,"Ġcritical":3371,"Ġentirely":3372,"Ġpotential":3373,"Ġcastle":3374,"Ġcorporation":3375,"Ġgeorge":3376,"Ġcelebr":3377,"Ġgallery":3378,"ael":3379,"bol":3380,"mber":3381,"wa":3382,"Ġcash":3383,"Ġmill":3384,"Ġbillion":3385,"Ġeating":3386,"idate":3387,"Ġneg":3388,"tered":3389,"Ġadop":3390,"Ġspir":3391,"Ġcontract":3392,"Ġrelative":3393,"Ġ1999":3394,"Ġintended":3395,"Ġfeeling":3396,"Ġrepresentation":3397,"Ġprevious":3398,"Ġparticipant":3399,"Ġproposal":3400,"Ġexisting":3401,"Ġadministr":3402,"Ġconsumer":3403,"Ġarchitect":3404,"Ġseparate":3405,"according":3406,"Ġfemale":3407,"Ġsculpture":3408,"cil":3409,"fin":3410,"gg":3411,"lined":3412,"Ġsoc":3413,"Ġcas":3414,"orth":3415,"Ġdy":3416,"Ġgiving":3417,"Ġliter":3418,"oming":3419,"Ġjune":3420,"Ġlose":3421,"ishment":3422,"Ġadult":3423,"Ġwhose":3424,"rame":3425,"Ġrequires":3426,"Ġannoun":3427,"Ġreflect":3428,"Ġeventually":3429,"Ġregarding":3430,"force":3431,"tain":3432,"ule":3433,"Ġx":3434,"Ġcry":3435,"Ġwine":3436,"ici":3437,"Ġlay":3438,"Ġluck":3439,"Ġready":3440,"Ġalien":3441,"Ġleaf":3442,"Ġleague":3443,"Ġqual":3444,"Ġamaz":3445,"Ġcommer":3446,"Ġorange":3447,"Ġoutcome":3448,"Ġdefense":3449,"Ġclock":3450,"Ġdrink":3451,"Ġnorthern":3452,"Ġfreed":3453,"Ġenjoyed":3454,"Ġdouble":3455,"Ġresponsible":3456,"Ġelectric":3457,"Ġobjective":3458,"Ġinstrument":3459,"Ġproperty":3460,"Ġtarget":3461,"Ġtransport":3462,"Ġswimming":3463,"usalem":3464,"ta":3465,"ware":3466,"Ġpush":3467,"Ġconcept":3468,"never":3469,"Ġscr":3470,"rend":3471,"Ġenter":3472,"Ġnov":3473,"Ġproviding":3474,"Ġsched":3475,"Ġwriting":3476,"Ġforward":3477,"pective":3478,"example":3479,"Ġaudience":3480,"Ġcontinued":3481,"Ġinvolve":3482,"Ġequal":3483,"Ġrecorded":3484,"Ġjean":3485,"Ġdebt":3486,"Ġitaly":3487,"Ġdirectly":3488,"Ġenergy":3489,"Ġsoccer":3490,"bt":3491,"gment":3492,"ober":3493,"Ġcateg":3494,"aling":3495,"Ġdro":3496,"Ġfashion":3497,"Ġhate":3498,"antly":3499,"Ġquiet":3500,"abit":3501,"Ġgreater":3502,"icket":3503,"ibly":3504,"Ġguitar":3505,"Ġplanned":3506,"Ġearlier":3507,"Ġskin":3508,"Ġended":3509,"Ġmuslim":3510,"Ġstarting":3511,"Ġstopped":3512,"Ġcontains":3513,"iscal":3514,"Ġmachine":3515,"olutely":3516,"cour":3517,"iation":3518,"Ġcer":3519,"Ġtim":3520,"Ġtend":3521,"itude":3522,"Ġgam":3523,"Ġhun":3524,"Ġnur":3525,"Ġnative":3526,"ays":3527,"Ġthirty":3528,"Ġjes":3529,"allas":3530,"Ġlos":3531,"Ġweight":3532,"agon":3533,"Ġexpand":3534,"luded":3535,"Ġdefe":3536,"Ġclothing":3537,"Ġuseful":3538,"Ġsurv":3539,"Ġformed":3540,"Ġcollect":3541,"Ġtrial":3542,"Ġexperien":3543,"Ġreached":3544,"Ġlearn":3545,"Ġmessage":3546,"Ġimmediately":3547,"bar":3548,"met":3549,"oon":3550,"uch":3551,"edy":3552,"iture":3553,"icit":3554,"Ġlib":3555,"road":3556,"Ġrid":3557,"Ġrul":3558,"antage":3559,"riage":3560,"Ġrol":3561,"Ġaddition":3562,"Ġimage":3563,"Ġimag":3564,"Ġ193":3565,"Ġgray":3566,"Ġdecor":3567,"Ġanymore":3568,"Ġextensive":3569,"Ġfarm":3570,"Ġcamping":3571,"Ġafter":3572,"Ġmagn":3573,"Ġsuggested":3574,"Ġgrantee":3575,"sych":3576,"Ġjerusalem":3577,"iliar":3578,"Ġbaby":3579,"oo":3580,"Ġdallas":3581,"Ġbir":3582,"Ġbomb":3583,"Ġgolf":3584,"Ġul":3585,"Ġprote":3586,"Ġsept":3587,"Ġunique":3588,"Ġeverybody":3589,"Ġdecide":3590,"ension":3591,"Ġwarm":3592,"Ġinstitution":3593,"Ġedge":3594,"Ġskill":3595,"Ġdave":3596,"Ġcommunication":3597,"Ġ40":3598,"Ġeasily":3599,"Ġtheory":3600,"Ġwaiting":3601,"Ġsoldier":3602,"Ġradio":3603,"Ġrecommendation":3604,"Ġprocedure":3605,"cr":3606,"ky":3607,"say":3608,"ario":3609,"Ġft":3610,"Ġfilled":3611,"Ġgh":3612,"Ġhind":3613,"several":3614,"chan":3615,"Ġchose":3616,"Ġexclus":3617,"Ġshown":3618,"Ġcapt":3619,"izen":3620,"igned":3621,"ordin":3622,"aped":3623,"Ġfeed":3624,"Ġgovernor":3625,"Ġsupply":3626,"Ġ1990":3627,"Ġhelped":3628,"Ġ2002":3629,"Ġweekend":3630,"Ġopened":3631,"Ġgeneration":3632,"Ġcertainly":3633,"Ġbaseball":3634,"Ġpurchase":3635,"Ġdedicated":3636,"Ġdecember":3637,"Ġapril":3638,"eff":3639,"nic":3640,"rid":3641,"zy":3642,"Ġomb":3643,"enth":3644,"Ġepa":3645,"Ġhous":3646,"Ġnav":3647,"Ġkilled":3648,"Ġseated":3649,"Ġshore":3650,"Ġcompreh":3651,"Ġprison":3652,"Ġraised":3653,"icted":3654,"Ġbron":3655,"Ġspeaking":3656,"Ġaccom":3657,"Ġproducer":3658,"Ġfoundation":3659,"Ġfolk":3660,"Ġfresh":3661,"Ġpainted":3662,"Ġpenn":3663,"making":3664,"Ġrussian":3665,"Ġtreatment":3666,"Ġdemocrat":3667,"Ġcandidate":3668,"Ġfreedom":3669,"han":3670,"ons":3671,"Ġcow":3672,"Ġpsych":3673,"Ġmis":3674,"Ġba":3675,"Ġber":3676,"Ġinsp":3677,"imin":3678,"Ġkong":3679,"Ġdegree":3680,"ado":3681,"Ġconfl":3682,"antic":3683,"peror":3684,"Ġimpossible":3685,"Ġscot":3686,"Ġ1998":3687,"Ġaspect":3688,"Ġpublication":3689,"Ġdriving":3690,"Ġslate":3691,"Ġadvantage":3692,"Ġinternal":3693,"Ġenvironmental":3694,"Ġreligion":3695,"Ġtypically":3696,"Ġhanson":3697,"Ġdinner":3698,"Ġoctober":3699,"ji":3700,"nel":3701,"Ġcub":3702,"ena":3703,"Ġbye":3704,"Ġborder":3705,"Ġstrol":3706,"iment":3707,"Ġrural":3708,"Ġchief":3709,"Ġconference":3710,"Ġvac":3711,"Ġperhaps":3712,"Ġsaf":3713,"Ġspain":3714,"Ġ192":3715,"Ġhearing":3716,"Ġtext":3717,"Ġprint":3718,"Ġactual":3719,"Ġseek":3720,"Ġmonument":3721,"Ġfinished":3722,"Ġmarried":3723,"Ġ1997":3724,"Ġasian":3725,"Ġcorner":3726,"Ġbasic":3727,"Ġwalked":3728,"Ġrepresentative":3729,"Ġpreviously":3730,"Ġofficer":3731,"Ġparticipate":3732,"Ġeuropean":3733,"Ġappropriate":3734,"Ġliked":3735,"Ġlarger":3736,"iciency":3737,"Ġseptember":3738,"take":3739,"vis":3740,"Ġol":3741,"Ġcup":3742,"Ġbath":3743,"cean":3744,"Ġvia":3745,"Ġjama":3746,"umber":3747,"Ġocean":3748,"cious":3749,"Ġrow":3750,"Ġdesert":3751,"Ġspeech":3752,"Ġguard":3753,"Ġsurvey":3754,"Ġeditor":3755,"Ġyounger":3756,"Ġsituated":3757,"Ġbudd":3758,"Ġoccasion":3759,"Ġcontribution":3760,"Ġdescribed":3761,"Ġdestroyed":3762,"dp":3763,"ded":3764,"east":3765,"iest":3766,"sel":3767,"Ġcro":3768,"anch":3769,"arm":3770,"Ġbut":3771,"Ġfest":3772,"Ġwed":3773,"urb":3774,"oper":3775,"Ġpros":3776,"ones":3777,"Ġcompar":3778,"Ġ21":3779,"Ġtraffic":3780,"cons":3781,"Ġactor":3782,"Ġgrew":3783,"Ġshowed":3784,"Ġcompleted":3785,"Ġperforming":3786,"Ġdaily":3787,"Ġaffair":3788,"Ġpercentage":3789,"azz":3790,"Ġdraft":3791,"Ġrelease":3792,"Ġtruly":3793,"Ġinitially":3794,"week":3795,"Ġdancing":3796,"Ġflex":3797,"Ġnarrow":3798,"Ġadvertising":3799,"Ġshrine":3800,"Ġelectronic":3801,"Ġspirit":3802,"sur":3803,"ano":3804,"Ġlit":3805,"entle":3806,"enture":3807,"Ġhoward":3808,"ette":3809,"vere":3810,"last":3811,"Ġshe":3812,"oulder":3813,"Ġcave":3814,"illing":3815,"ago":3816,"Ġteen":3817,"Ġempt":3818,"Ġemperor":3819,"Ġspect":3820,"Ġstudio":3821,"Ġbelong":3822,"Ġforced":3823,"Ġdiscount":3824,"Ġmeaning":3825,"Ġissued":3826,"Ġengage":3827,"Ġsinger":3828,"Ġappeared":3829,"Ġtransform":3830,"Ġwooden":3831,"Ġagreement":3832,"Ġcouncil":3833,"Ġevaluation":3834,"Ġslave":3835,"Ġrapid":3836,"Ġconcerned":3837,"Ġfully":3838,"Ġcitizen":3839,"believe":3840,"Ġsudden":3841,"Ġbirth":3842,"Ġprotection":3843,"ein":3844,"lv":3845,"lin":3846,"off":3847,"pret":3848,"ten":3849,"want":3850,"Ġsam":3851,"arant":3852,"Ġmel":3853,"Ġmouth":3854,"Ġwel":3855,"Ġhom":3856,"rier":3857,"Ġange":3858,"okay":3859,"Ġbear":3860,"Ġcool":3861,"Ġcoff":3862,"Ġbob":3863,"Ġqueen":3864,"Ġaccur":3865,"Ġentry":3866,"Ġprogress":3867,"aker":3868,"Ġcreating":3869,"Ġdirection":3870,"Ġpolitics":3871,"Ġfollowed":3872,"Ġimprovement":3873,"Ġbalance":3874,"Ġachieve":3875,"Ġapplication":3876,"Ġexplor":3877,"Ġarchitecture":3878,"Ġneighborhood":3879,"Ġconversation":3880,"could":3881,"miss":3882,"erved":3883,"real":3884,"Ġpant":3885,"Ġdie":3886,"Ġbul":3887,"Ġframe":3888,"Ġfiscal":3889,"Ġgal":3890,"Ġly":3891,"entive":3892,"Ġeld":3893,"etic":3894,"Ġstood":3895,"Ġrh":3896,"Ġvide":3897,"ifying":3898,"Ġcafe":3899,"issance":3900,"Ġfeat":3901,"unday":3902,"Ġfinally":3903,"Ġpresence":3904,"Ġwriter":3905,"Ġsidewalk":3906,"Ġfunny":3907,"Ġ500":3908,"porary":3909,"Ġera":3910,"Ġveget":3911,"Ġsatis":3912,"Ġprimarily":3913,"said":3914,"Ġsurrounding":3915,"Ġessential":3916,"Ġsubstant":3917,"liance":3918,"Ġenhance":3919,"Ġjanuary":3920,"hi":3921,"pet":3922,"since":3923,"uing":3924,"Ġid":3925,"enn":3926,"Ġtor":3927,"Ġdry":3928,"Ġdish":3929,"Ġinj":3930,"Ġrough":3931,"Ġchem":3932,"unately":3933,"Ġalt":3934,"Ġshut":3935,"Ġshoulder":3936,"Ġbeside":3937,"Ġbother":3938,"Ġimpl":3939,"Ġscore":3940,"Ġagreed":3941,"Ġlawn":3942,"Ġbusy":3943,"Ġ1995":3944,"Ġirish":3945,"Ġtruth":3946,"naissance":3947,"Ġwait":3948,"Ġfocused":3949,"Ġvictor":3950,"Ġwonderful":3951,"Ġcarrying":3952,"Ġmichael":3953,"Ġteacher":3954,"Ġbottle":3955,"Ġbono":3956,"Ġrestriction":3957,"Ġcategory":3958,"Ġconflict":3959,"Ġangeles":3960,"lam":3961,"long":3962,"mitted":3963,"tim":3964,"wer":3965,"Ġsar":3966,"Ġcart":3967,"Ġcert":3968,"Ġped":3969,"Ġtall":3970,"Ġtrend":3971,"Ġbare":3972,"Ġhop":3973,"Ġnine":3974,"Ġstated":3975,"Ġstick":3976,"imp":3977,"the":3978,"Ġrue":3979,"Ġexer":3980,"Ġshar":3981,"Ġmac":3982,"iza":3983,"Ġacid":3984,"Ġmeal":3985,"Ġhighlight":3986,"Ġremo":3987,"Ġorganiz":3988,"Ġdistrib":3989,"Ġbiggest":3990,"Ġcheap":3991,"Ġportion":3992,"Ġreduced":3993,"Ġinterview":3994,"Ġdoubt":3995,"Ġhistoric":3996,"Ġpleasant":3997,"Ġdiscussed":3998,"Ġcounsel":3999,"Ġfrequent":4000,"Ġfifty":4001,"ength":4002,"Ġdetermine":4003,"Ġsymbol":4004,"book":4005,"da":4006,"ear":4007,"hand":4008,"post":4009,"Ġscient":4010,"Ġfant":4011,"Ġgdp":4012,"Ġlunch":4013,"iler":4014,"cket":4015,"Ġlew":4016,"Ġleaving":4017,"Ġgoth":4018,"rian":4019,"elled":4020,"cip":4021,"Ġserious":4022,"wood":4023,"Ġjoined":4024,"Ġanyway":4025,"aked":4026,"Ġinstance":4027,"Ġdrinking":4028,"Ġengland":4029,"Ġcharles":4030,"Ġslight":4031,"Ġharm":4032,"Ġkingdom":4033,"Ġcultural":4034,"Ġanti":4035,"ipped":4036,"Ġscreening":4037,"Ġwilling":4038,"Ġpressure":4039,"Ġdomestic":4040,"Ġoccup":4041,"Ġglobal":4042,"Ġdemonstr":4043,"Ġchoose":4044,"Ġcommercial":4045,"Ġfestival":4046,"Ġelder":4047,"Ġ0":4048,"Ġsor":4049,"rem":4050,"Ġpatter":4051,"Ġtoy":4052,"Ġmort":4053,"Ġww":4054,"Ġrenaissance":4055,"raw":4056,"Ġkent":4057,"Ġkore":4058,"ading":4059,"atest":4060,"Ġtheme":4061,"Ġsem":4062,"Ġoil":4063,"laced":4064,"Ġadvice":4065,"Ġlaunch":4066,"under":4067,"Ġfounded":4068,"Ġreturned":4069,"onto":4070,"Ġflat":4071,"Ġtechnique":4072,"Ġvega":4073,"Ġidentify":4074,"Ġgolden":4075,"Ġappears":4076,"Ġargument":4077,"Ġsufficient":4078,"Ġdiscovered":4079,"Ġlegislation":4080,"Ġconnection":4081,"iability":4082,"Ġvirgin":4083,"Ġlibrary":4084,"12":4085,"gl":4086,"girl":4087,"hen":4088,"lied":4089,"pic":4090,"point":4091,"ris":4092,"Ġsunday":4093,"Ġdi":4094,"isition":4095,"laim":4096,"Ġunlike":4097,"need":4098,"Ġweak":4099,"Ġmeant":4100,"cycle":4101,"Ġcommit":4102,"Ġexpress":4103,"Ġdistance":4104,"Ġoffered":4105,"Ġemployer":4106,"Ġapartment":4107,"Ġcorporate":4108,"Ġhurt":4109,"despite":4110,"Ġoutdoors":4111,"Ġtalent":4112,"Ġincorpor":4113,"Ġvideo":4114,"col":4115,"another":4116,"Ġtok":4117,"Ġdream":4118,"Ġlength":4119,"Ġhell":4120,"Ġinqu":4121,"Ġupper":4122,"ched":4123,"Ġrand":4124,"Ġchic":4125,"Ġconcent":4126,"unte":4127,"rial":4128,"Ġplenty":4129,"Ġincentive":4130,"aret":4131,"ultan":4132,"Ġbright":4133,"Ġactive":4134,"Ġdecline":4135,"Ġaccident":4136,"Ġguarant":4137,"Ġdrum":4138,"Ġperformed":4139,"Ġdistinct":4140,"Ġpolitician":4141,"Ġmetal":4142,"Ġrelevant":4143,"rugg":4144,"Ġcompetition":4145,"Ġvolunte":4146,"Ġblock":4147,"Ġengineering":4148,"Ġphoto":4149,"Ġjewish":4150,"Ġwebsite":4151,"Ġdivision":4152,"ritory":4153,"Ġchapel":4154,"Ġmartin":4155,"Ġafrican":4156,"Ġcopy":4157,"hel":4158,"life":4159,"my":4160,"Ġille":4161,"Ġsister":4162,"Ġcell":4163,"Ġticket":4164,"Ġwage":4165,"icate":4166,"Ġrecon":4167,"Ġhong":4168,"lying":4169,"Ġstake":4170,"oln":4171,"Ġkal":4172,"otic":4173,"Ġthom":4174,"law":4175,"ortion":4176,"Ġshoot":4177,"nes":4178,"Ġ22":4179,"Ġtradition":4180,"Ġattend":4181,"Ġplain":4182,"Ġterritory":4183,"Ġobv":4184,"Ġcongressional":4185,"Ġtransfer":4186,"Ġstrategic":4187,"Ġvictory":4188,"Ġfighting":4189,"Ġphotograph":4190,"Ġdamage":4191,"incoln":4192,"Ġphysical":4193,"small":4194,"Ġrecognized":4195,"Ġnormal":4196,"Ġdetermined":4197,"Ġbench":4198,"Ġattractive":4199,"Ġexhibit":4200,"Ġfraud":4201,"Ġentertainment":4202,"cra":4203,"gra":4204,"hist":4205,"ij":4206,"iable":4207,"mo":4208,"mosp":4209,"Ġpier":4210,"Ġtough":4211,"Ġmat":4212,"Ġdad":4213,"Ġfit":4214,"Ġahead":4215,"Ġesc":4216,"Ġrepe":4217,"isode":4218,"olina":4219,"urer":4220,"Ġcomedy":4221,"Ġexchange":4222,"Ġworse":4223,"Ġcaught":4224,"Ġrom":4225,"Ġadjust":4226,"Ġsmith":4227,"Ġfeb":4228,"Ġhighest":4229,"Ġmont":4230,"Ġanywhere":4231,"ensus":4232,"Ġprovision":4233,"Ġsubs":4234,"Ġmarriage":4235,"Ġvisited":4236,"plus":4237,"Ġreality":4238,"Ġaddressed":4239,"Ġbenefic":4240,"Ġsomebody":4241,"Ġcalc":4242,"Ġpossess":4243,"Ġadvis":4244,"Ġtesting":4245,"Ġotherwise":4246,"Ġtwice":4247,"Ġpositive":4248,"Ġmerch":4249,"Ġconstructed":4250,"Ġutil":4251,"Ġacquisition":4252,"Ġmosque":4253,"Ġmemory":4254,"Ġconduct":4255,"Ġjuly":4256,"Ġencourage":4257,"Ġnovember":4258,"course":4259,"Ġexperienced":4260,"Ġgothic":4261,"car":4262,"friend":4263,"lot":4264,"enced":4265,"Ġpun":4266,"arf":4267,"Ġdivid":4268,"Ġbell":4269,"Ġfu":4270,"Ġfinger":4271,"Ġwaste":4272,"Ġreve":4273,"child":4274,"verse":4275,"Ġkitch":4276,"ader":4277,"ota":4278,"Ġvast":4279,"iform":4280,"Ġleather":4281,"ription":4282,"aster":4283,"pted":4284,"Ġspoke":4285,"ruary":4286,"Ġraise":4287,"Ġcollabor":4288,"Ġfear":4289,"Ġfamiliar":4290,"Ġmarble":4291,"Ġrulemaking":4292,"Ġelig":4293,"Ġflight":4294,"Ġharbor":4295,"Ġimproved":4296,"Ġiron":4297,"what":4298,"Ġdetailed":4299,"holder":4300,"burgh":4301,"Ġevalu":4302,"Ġlux":4303,"Ġamazing":4304,"Ġjesus":4305,"Ġempty":4306,"Ġpattern":4307,"18":4308,"might":4309,"much":4310,"nis":4311,"ront":4312,"som":4313,"today":4314,"Ã¡":4315,"Ġcig":4316,"Ġtaste":4317,"Ġast":4318,"Ġhole":4319,"Ġstrugg":4320,"che":4321,"Ġrank":4322,"Ġthrow":4323,"Ġalle":4324,"emp":4325,"Ġshape":4326,"Ġmanner":4327,"Ġund":4328,"elling":4329,"berg":4330,"Ġspread":4331,"iazz":4332,"Ġscale":4333,"Ġmob":4334,"Ġcarved":4335,"Ġplaced":4336,"Ġphase":4337,"Ġstret":4338,"Ġeffectively":4339,"Ġpossibility":4340,"Ġrefused":4341,"Ġstatus":4342,"Ġprotest":4343,"Ġstarr":4344,"Ġtalked":4345,"Ġlisten":4346,"sylv":4347,"Ġjourney":4348,"Ġcontinues":4349,"Ġaccepted":4350,"Ġbroadcast":4351,"Ġjumping":4352,"Ġcrucial":4353,"Ġpackage":4354,"Ġsleeping":4355,"Ġurban":4356,"Ġimmig":4357,"Ġliberal":4358,"Ġpennsylv":4359,"Ġsafety":4360,"Ġfeaturing":4361,"Ġfebruary":4362,"aud":4363,"happ":4364,"uct":4365,"water":4366,"Ġsultan":4367,"Ġpound":4368,"Ġpiazz":4369,"aled":4370,"Ġmall":4371,"itute":4372,"Ġbound":4373,"Ġfat":4374,"Ġhen":4375,"raid":4376,"adian":4377,"Ġnegot":4378,"Ġsearch":4379,"Ġcomfort":4380,"Ġshared":4381,"Ġperman":4382,"Ġworksh":4383,"Ġcarried":4384,"Ġassert":4385,"Ġlegend":4386,"Ġsurf":4387,"Ġcorp":4388,"Ġski":4389,"Ġestimated":4390,"Ġrevolution":4391,"Ġoverall":4392,"Ġimportance":4393,"ondon":4394,"Ġsupported":4395,"Ġmusician":4396,"coming":4397,"Ġpresented":4398,"Ġreferred":4399,"aware":4400,"Ġ70":4401,"Ġ90":4402,"Ġcounter":4403,"Ġsilver":4404,"Ġabsolutely":4405,"Ġatmosp":4406,"Ġunfort":4407,"Ġviolence":4408,"Ġperspective":4409,"Ġsurrounded":4410,"Ġsecretary":4411,"Ġmanufacturing":4412,"Ġepisode":4413,"Ġmexico":4414,"Ġibiza":4415,"Ġschedule":4416,"Ġsatisf":4417,"Ġpennsylvania":4418,"ford":4419,"mission":4420,"rated":4421,"sion":4422,"Ġblow":4423,"Ġbyz":4424,"Ġfasc":4425,"Ġgay":4426,"Ġgift":4427,"Ġgentle":4428,"Ġegg":4429,"Ġstren":4430,"ida":4431,"Ġinn":4432,"race":4433,"Ġrat":4434,"isted":4435,"Ġjury":4436,"oking":4437,"Ġroof":4438,"Ġcoat":4439,"indeed":4440,"Ġdisp":4441,"soft":4442,"Ġgreatest":4443,"Ġpaul":4444,"Ġgenre":4445,"Ġtermin":4446,"Ġnoted":4447,"Ġsucceed":4448,"Ġlandscape":4449,"Ġirs":4450,"Ġcanal":4451,"Ġ2010":4452,"while":4453,"arently":4454,"Ġupd":4455,"elfare":4456,"Ġsolution":4457,"Ġhero":4458,"Ġselling":4459,"Ġscenario":4460,"Ġdoro":4461,"Ġfruit":4462,"Ġdangerous":4463,"Ġsoftware":4464,"Ġexclusively":4465,"Ġhousing":4466,"Ġorganizational":4467,"Ġbyzant":4468,"eal":4469,"fol":4470,"four":4471,"gd":4472,"guess":4473,"ka":4474,"nie":4475,"pol":4476,"rig":4477,"Ġi":4478,"Ġpil":4479,"ald":4480,"Ġtol":4481,"Ġwave":4482,"Ġwelfare":4483,"Ġhide":4484,"rom":4485,"Ġnin":4486,"sey":4487,"aming":4488,"amber":4489,"ulf":4490,"Ġproceed":4491,"anta":4492,"Ġshall":4493,"Ġsharing":4494,"Ġuniform":4495,"astic":4496,"Ġrome":4497,"Ġimpressive":4498,"Ġbuying":4499,"Ġdecrease":4500,"Ġfinance":4501,"Ġefficiency":4502,"Ġsurplus":4503,"Ġrealized":4504,"Ġwinning":4505,"Ġpowerful":4506,"Ġoperating":4507,"Ġburden":4508,"Ġanticip":4509,"Ġcommonly":4510,"Ġleadership":4511,"Ġobserved":4512,"Ġpicked":4513,"Ġegyptian":4514,"Ġbreath":4515,"Ġdemocratic":4516,"Ġholy":4517,"Ġaustral":4518,"Ġwww":4519,"Ġchicago":4520,"ault":4521,"bon":4522,"ext":4523,"gth":4524,"gain":4525,"rich":4526,"ville":4527,"recent":4528,"Ġpm":4529,"Ġpy":4530,"still":4531,"Ġdig":4532,"Ġgiant":4533,"Ġlat":4534,"Ġlondon":4535,"olar":4536,"olved":4537,"adel":4538,"irm":4539,"Ġvand":4540,"Ġsevere":4541,"Ġunable":4542,"Ġunless":4543,"ellig":4544,"Ġpover":4545,"Ġimper":4546,"Ġserving":4547,"Ġ23":4548,"Ġcontact":4549,"Ġbranch":4550,"Ġspeed":4551,"Ġseeing":4552,"Ġstrange":4553,"Ġdelay":4554,"Ġemploy":4555,"Ġcompete":4556,"Ġ1980":4557,"Ġdestination":4558,"Ġillust":4559,"burg":4560,"Ġconducted":4561,"Ġafrica":4562,"Ġsanta":4563,"Ġpollution":4564,"ximately":4565,"Ġsexual":4566,"Ġnegative":4567,"Ġcoffee":4568,"Ġaccurate":4569,"Ġexercise":4570,"eel":4571,"hor":4572,"sch":4573,"to":4574,"town":4575,"view":4576,"Ġonto":4577,"Ġpeter":4578,"always":4579,"Ġtiny":4580,"stration":4581,"Ġdubl":4582,"Ġbicy":4583,"icul":4584,"Ġlincoln":4585,"Ġnow":4586,"ola":4587,"chest":4588,"Ġdevice":4589,"Ġchann":4590,"emy":4591,"emed":4592,"Ġshoe":4593,"Ġmanaged":4594,"Ġworst":4595,"Ġpeak":4596,"Ġrose":4597,"Ġcompens":4598,"Ġacre":4599,"Ġserf":4600,"Ġ26":4601,"Ġmeat":4602,"Ġmeas":4603,"Ġreplaced":4604,"Ġscott":4605,"Ġindo":4606,"Ġcentre":4607,"Ġcarolina":4608,"Ġconsult":4609,"Ġguest":4610,"Ġdiscus":4611,"Ġ1992":4612,"ologist":4613,"Ġobtain":4614,"current":4615,"Ġ33":4616,"Ġauth":4617,"Ġlesson":4618,"Ġinvestig":4619,"Ġinvestigation":4620,"Ġsteel":4621,"Ġprivacy":4622,"Ġmainly":4623,"Ġmere":4624,"Ġpriest":4625,"Ġprofessor":4626,"Ġupset":4627,"clusion":4628,"Ġtypical":4629,"built":4630,"Ġexplore":4631,"Ġguideline":4632,"Ġthanks":4633,"novation":4634,"writer":4635,"Ġonline":4636,"Ġstrength":4637,"Ġpoverty":4638,"Ġdublin":4639,"Ġchannel":4640,"equ":4641,"ease":4642,"nth":4643,"publ":4644,"sl":4645,"sman":4646,"alty":4647,"ingu":4648,"Ġdiss":4649,"Ġhang":4650,"Ġchanging":4651,"ighter":4652,"Ġalex":4653,"Ġlee":4654,"Ġmaxim":4655,"Ġunus":4656,"Ġloved":4657,"ountain":4658,"Ġcontem":4659,"Ġdisease":4660,"Ġscout":4661,"Ġhighway":4662,"acity":4663,"Ġdefined":4664,"Ġsigned":4665,"Ġintellig":4666,"Ġdepend":4667,"Ġskate":4668,"Ġdole":4669,"Ġturk":4670,"Ġbecoming":4671,"Ġputting":4672,"Ġsomewhat":4673,"Ġreader":4674,"insky":4675,"Ġarrived":4676,"Ġmassive":4677,"199":4678,"Ġaffected":4679,"nament":4680,"Ġassumption":4681,"Ġselection":4682,"Ġselected":4683,"Ġhonor":4684,"Ġflexibility":4685,"Ġsubstantial":4686,"Ġkitchen":4687,"Ġpiazza":4688,"50":4689,"mas":4690,"make":4691,"po":4692,"top":4693,"uine":4694,"vi":4695,"Ġpu":4696,"ato":4697,"stance":4698,"Ġwit":4699,"Ġreward":4700,"Ġhi":4701,"rad":4702,"adow":4703,"Ġprohib":4704,"Ġthor":4705,"Ġvirt":4706,"tery":4707,"pping":4708,"lock":4709,"Ġcompla":4710,"agger":4711,"Ġindeed":4712,"Ġcommand":4713,"Ġcarter":4714,"Ġregional":4715,"Ġscholar":4716,"Ġislam":4717,"Ġforth":4718,"oleon":4719,"Ġoverlook":4720,"Ġflor":4721,"Ġfourth":4722,"Ġsupporting":4723,"Ġcalm":4724,"Ġgrown":4725,"Ġeasier":4726,"ricult":4727,"Ġafraid":4728,"box":4729,"Ġcommitted":4730,"Ġconsistently":4731,"Ġdrawing":4732,"Ġatl":4733,"Ġrussia":4734,"Ġprepared":4735,"Ġperfectly":4736,"Ġbottom":4737,"Ġcircum":4738,"Ġmicrosoft":4739,"Ġfixed":4740,"uracy":4741,"Ġacademy":4742,"Ġrelatively":4743,"Ġhindu":4744,"Ġbronze":4745,"Ġaccompl":4746,"Ġvolunteer":4747,"Ġsubsid":4748,"Ġbicycle":4749,"ipe":4750,"not":4751,"Ġsample":4752,"aly":4753,"atically":4754,"Ġfool":4755,"Ġli":4756,"Ġrecip":4757,"Ġstair":4758,"otion":4759,"Ġconqu":4760,"usion":4761,"Ġens":4762,"Ġenemy":4763,"ected":4764,"Ġfaced":4765,"Ġheat":4766,"Ġprime":4767,"Ġprince":4768,"Ġagent":4769,"Ġmoon":4770,"Ġpair":4771,"Ġjoin":4772,"phas":4773,"Ġabuse":4774,"Ġabortion":4775,"Ġblank":4776,"Ġdisclo":4777,"Ġdepict":4778,"Ġmusical":4779,"ception":4780,"Ġbroke":4781,"Ġparl":4782,"Ġsinging":4783,"Ġtechnical":4784,"Ġcoverage":4785,"Ġclassical":4786,"Ġ2016":4787,"Ġmoral":4788,"noon":4789,"Ġdefinition":4790,"Ġcrowded":4791,"Ġimplementation":4792,"Ġrichard":4793,"emeyer":4794,"Ġferry":4795,"Ġguidance":4796,"Ġpredict":4797,"Ġfeedback":4798,"emplo":4799,"Ġvandemeyer":4800,"Ġthorough":4801,"Ġrecipient":4802,"bour":4803,"can":4804,"cover":4805,"fig":4806,"fall":4807,"ker":4808,"pass":4809,"supp":4810,"va":4811,"Ġath":4812,"Ġodd":4813,"inburgh":4814,"Ġsin":4815,"Ġsought":4816,"Ġpine":4817,"Ġtig":4818,"Ġwing":4819,"Ġhabit":4820,"Ġthick":4821,"Ġchamber":4822,"Ġalloc":4823,"Ġworried":4824,"Ġplus":4825,"Ġ27":4826,"agree":4827,"Ġinterpret":4828,"Ġagricult":4829,"Ġcliff":4830,"Ġprovider":4831,"Ġhelping":4832,"Ġextended":4833,"Ġapproval":4834,"exp":4835,"known":4836,"Ġappeal":4837,"Ġaccountability":4838,"Ġmerc":4839,"Ġtotally":4840,"Ġindustrial":4841,"Ġdebate":4842,"Ġsalt":4843,"Ġglad":4844,"Ġencoun":4845,"Ġlearning":4846,"Ġexplan":4847,"Ġmandate":4848,"Ġsettlement":4849,"Ġmedicare":4850,"ordinary":4851,"Ġvacation":4852,"Ġthomas":4853,"high":4854,"jection":4855,"main":4856,"ooth":4857,"rate":4858,"uous":4859,"war":4860,"yo":4861,"Ġow":4862,"inem":4863,"requ":4864,"oned":4865,"Ġtent":4866,"Ġtun":4867,"stood":4868,"Ġbol":4869,"Ġbull":4870,"Ġbass":4871,"entially":4872,"ilty":4873,"second":4874,"Ġthorn":4875,"Ġchain":4876,"Ġchick":4877,"Ġconsequ":4878,"Ġconclusion":4879,"usi":4880,"ria":4881,"Ġcabin":4882,"Ġrope":4883,"Ġlaugh":4884,"ipa":4885,"Ġscared":4886,"ached":4887,"Ġentered":4888,"Ġrelief":4889,"ixon":4890,"Ġ1994":4891,"Ġdozen":4892,"Ġengaged":4893,"Ġcapacity":4894,"Ġapproximately":4895,"Ġtournament":4896,"Ġcanadian":4897,"Ġproductivity":4898,"Ġreference":4899,"Ġunderstanding":4900,"Ġsatur":4901,"Ġdealer":4902,"Ġidentified":4903,"Ġbeauty":4904,"Ġclaimed":4905,"Ġfacade":4906,"Ġappearance":4907,"Ġlearned":4908,"Ġmadrid":4909,"Ġisraeli":4910,"Ġjournalist":4911,"Ġadopted":4912,"Ġafternoon":4913,"Ġcomprehensive":4914,"Ġscotland":4915,"Ġjamaica":4916,"Ġelderly":4917,"follow":4918,"10":4919,"find":4920,"final":4921,"word":4922,"yard":4923,"erate":4924,"atre":4925,"Ġtu":4926,"state":4927,"itation":4928,"Ġbunch":4929,"Ġfountain":4930,"Ġack":4931,"Ġrenow":4932,"oma":4933,"isan":4934,"eland":4935,"Ġkil":4936,"kee":4937,"Ġchos":4938,"asy":4939,"Ġvice":4940,"Ġox":4941,"astery":4942,"Ġplat":4943,"Ġcore":4944,"izes":4945,"perhaps":4946,"Ġquant":4947,"Ġfaith":4948,"Ġscand":4949,"Ġdesk":4950,"Ġpoland":4951,"Ġdecla":4952,"Ġseeking":4953,"Ġmonica":4954,"Ġremind":4955,"Ġmadeira":4956,"Ġcris":4957,"acle":4958,"Ġeleg":4959,"Ġnoticed":4960,"Ġfunded":4961,"Ġbroken":4962,"Ġcheer":4963,"Ġadvoc":4964,"Ġreducing":4965,"iveness":4966,"Ġsixty":4967,"Ġprize":4968,"Ġsecure":4969,"Ġfailure":4970,"Ġclearly":4971,"Ġdaniel":4972,"Ġconsistent":4973,"Ġ1970":4974,"Ġchallenging":4975,"Ġfifteen":4976,"ointed":4977,"Ġnapoleon":4978,"Ġfranc":4979,"Ġcerem":4980,"Ġprosper":4981,"Ġsuddenly":4982,"Ġeligible":4983,"Ġatmosphere":4984,"Ġcircumstance":4985,"ax":4986,"aic":4987,"bul":4988,"kind":4989,"name":4990,"uit":4991,"went":4992,"Ġire":4993,"report":4994,"Ġcensus":4995,"alle":4996,"Ġdiver":4997,"Ġdrop":4998,"icing":4999,"Ġash":5000,"idden":5001,"ayer":5002,"rain":5003,"urd":5004,"Ġkno":5005,"ulate":5006,"Ġrider":5007,"Ġthur":5008,"unning":5009,"Ġjane":5010,"ested":5011,"Ġgore":5012,"lah":5013,"Ġshock":5014,"Ġshift":5015,"ieval":5016,"ript":5017,"ribe":5018,"Ġlog":5019,"iana":5020,"ective":5021,"Ġdisney":5022,"therefore":5023,"Ġtrail":5024,"Ġemphas":5025,"Ġeverywhere":5026,"Ġfewer":5027,"Ġdeclined":5028,"Ġregister":5029,"Ġmonitor":5030,"Ġmonastery":5031,"Ġenth":5032,"Ġguilty":5033,"Ġoldest":5034,"enever":5035,"Ġstream":5036,"Ġrestored":5037,"minent":5038,"Ġtourism":5039,"Ġfarmer":5040,"Ġarchae":5041,"Ġsugar":5042,"Ġfactory":5043,"Ġdelivered":5044,"insula":5045,"Ġcolorado":5046,"guard":5047,"Ġ80":5048,"Ġowned":5049,"Ġwidely":5050,"Ġpriority":5051,"Ġpanel":5052,"Ġchapter":5053,"Ġtonight":5054,"Ġflying":5055,"Ġgathered":5056,"Ġdrama":5057,"Ġcontrast":5058,"Ġsolely":5059,"true":5060,"maybe":5061,"Ġannounced":5062,"Ġslightly":5063,"Ġindoor":5064,"15":5065,"40":5066,"cc":5067,"clo":5068,"iy":5069,"iance":5070,"wor":5071,"Ġcode":5072,"stone":5073,"stein":5074,"ita":5075,"itan":5076,"Ġgang":5077,"Ġgained":5078,"Ġet":5079,"Ġhunt":5080,"lym":5081,"Ġnixon":5082,"Ġstorm":5083,"racy":5084,"oty":5085,"istan":5086,"Ġunified":5087,"Ġyester":5088,"Ġcompliance":5089,"Ġboiler":5090,"Ġ29":5091,"Ġreput":5092,"Ġproud":5093,"Ġapply":5094,"Ġapparently":5095,"Ġcolumb":5096,"Ġexport":5097,"Ġaband":5098,"Ġplane":5099,"Ġsubsequ":5100,"Ġasking":5101,"Ġ2004":5102,"Ġintention":5103,"Ġdepos":5104,"ponent":5105,"Ġ189":5106,"Ġrespond":5107,"Ġallows":5108,"Ġannually":5109,"Ġopera":5110,"Ġcanada":5111,"Ġtransl":5112,"Ġ2015":5113,"Ġresem":5114,"Ġpenalty":5115,"Ġconcert":5116,"iament":5117,"Ġsenate":5118,"Ġplease":5119,"ternal":5120,"guy":5121,"Ġregardless":5122,"Ġindependence":5123,"Ġphysician":5124,"Ġexpectation":5125,"Ġoccurred":5126,"Ġaimed":5127,"Ġrailway":5128,"Ġsplend":5129,"Ġtherefore":5130,"Ġvoter":5131,"Ġadministrator":5132,"Ġhunting":5133,"Ġruler":5134,"Ġultim":5135,"Ġoccasionally":5136,"Ġkentuck":5137,"arette":5138,"Ġcigarette":5139,"Ġrenowned":5140,"Ġchosen":5141,"dis":5142,"kin":5143,"non":5144,"sit":5145,"sight":5146,"uk":5147,"Ġiv":5148,"Ġsend":5149,"rec":5150,"ancy":5151,"Ġpill":5152,"Ġtie":5153,"organ":5154,"Ġfiction":5155,"illy":5156,"elve":5157,"Ġstup":5158,"Ġken":5159,"adays":5160,"Ġviet":5161,"unate":5162,"Ġalter":5163,"Ġjones":5164,"enditure":5165,"Ġbeer":5166,"Ġpoet":5167,"Ġpoison":5168,"Ġcooper":5169,"individual":5170,"Ġarrest":5171,"ogue":5172,"Ġbos":5173,"Ġresist":5174,"Ġ28":5175,"Ġfacing":5176,"Ġwhenever":5177,"Ġusual":5178,"she":5179,"Ġcolon":5180,"Ġsmiled":5181,"Ġdecre":5182,"Ġpac":5183,"atched":5184,"acular":5185,"Ġhandling":5186,"Ġgotten":5187,"Ġminister":5188,"Ġformal":5189,"Ġ2008":5190,"Ġearn":5191,"Ġstrict":5192,"Ġgrace":5193,"Ġapproved":5194,"Ġ35":5195,"Ġalongside":5196,"Ġsteward":5197,"Ġpresidential":5198,"Ġhorrible":5199,"Ġrepresented":5200,"Ġanaly":5201,"Ġjohnson":5202,"Ġerror":5203,"Ġtennis":5204,"Ġflood":5205,"Ġestablish":5206,"Ġaccessible":5207,"Ġspecifically":5208,"Ġdocumentation":5209,"Ġdomin":5210,"Ġstrike":5211,"Ġengineer":5212,"Ġacquired":5213,"Ġdevoted":5214,"Ġfairly":5215,"Ġappropriation":5216,"Ġboring":5217,"suit":5218,"Ġslowly":5219,"Ġinstallation":5220,"Ġintroduced":5221,"Ġmistake":5222,"Ġinvolves":5223,"Ġmortality":5224,"Ġillegal":5225,"Ġparliament":5226,"Ġyesterday":5227,"20":5228,"gia":5229,"great":5230,"hal":5231,"mr":5232,"ps":5233,"piece":5234,"sen":5235,"tle":5236,"ari":5237,"Ġdod":5238,"Ġfurn":5239,"Ġfgd":5240,"Ġrent":5241,"immer":5242,"ses":5243,"Ġkos":5244,"Ġkick":5245,"Ġthus":5246,"Ġchart":5247,"umph":5248,"Ġobl":5249,"Ġmap":5250,"Ġuncertain":5251,"Ġcav":5252,"Ġrob":5253,"Ġpose":5254,"Ġtrading":5255,"Ġbust":5256,"Ġclar":5257,"Ġsmart":5258,"Ġexpressed":5259,"Ġexpression":5260,"Ġdesire":5261,"Ġdeserve":5262,"Ġshowing":5263,"bey":5264,"Ġminim":5265,"Ġturning":5266,"result":5267,"Ġmedieval":5268,"Ġcommunist":5269,"Ġportray":5270,"portion":5271,"Ġreasonable":5272,"Ġrecording":5273,"Ġpurple":5274,"Ġburied":5275,"major":5276,"Ġtelling":5277,"Ġprofession":5278,"Ġchristmas":5279,"Ġforty":5280,"Ġimplemented":5281,"Ġjewel":5282,"Ġsusan":5283,"Ġchairman":5284,"Ġflag":5285,"Ġethnic":5286,"Ġelectricity":5287,"Ġmagnific":5288,"Ġcuba":5289,"Ġvegetable":5290,"Ġrandom":5291,"Ġbeneficial":5292,"Ġchicken":5293,"Ġscandal":5294,"Ġultimately":5295,"ais":5296,"draw":5297,"fed":5298,"far":5299,"fish":5300,"ios":5301,"ko":5302,"kid":5303,"number":5304,"oid":5305,"rane":5306,"rison":5307,"uis":5308,"zar":5309,"zone":5310,"Ġira":5311,"inv":5312,"Ġcrop":5313,"Ġpull":5314,"alia":5315,"orce":5316,"orig":5317,"lection":5318,"its":5319,"Ġdirt":5320,"Ġdiversity":5321,"Ġbern":5322,"Ġfro":5323,"Ġwra":5324,"Ġasc":5325,"Ġgross":5326,"eld":5327,"ssion":5328,"ige":5329,"thought":5330,"uration":5331,"Ġconven":5332,"Ġvary":5333,"Ġjazz":5334,"year":5335,"Ġenforce":5336,"Ġincred":5337,"next":5338,"osing":5339,"Ġwheel":5340,"Ġinterior":5341,"Ġaggress":5342,"show":5343,"ache":5344,"Ġexpans":5345,"Ġexpenditure":5346,"Ġinvent":5347,"Ġfinish":5348,"Ġruin":5349,"Ġgenuine":5350,"Ġhanded":5351,"Ġterror":5352,"Ġvisiting":5353,"Ġintel":5354,"Ġdriver":5355,"Ġcreation":5356,"Ġvalid":5357,"ommod":5358,"Ġhappens":5359,"cery":5360,"Ġtemper":5361,"Ġprocessing":5362,"Ġpossibly":5363,"Ġideal":5364,"Ġadvance":5365,"Ġpaint":5366,"Ġinspe":5367,"Ġtreasure":5368,"Ġcompeted":5369,"Ġbrad":5370,"Ġsanct":5371,"Ġcolorful":5372,"Ġiii":5373,"Ġsentence":5374,"Ġconsists":5375,"Ġchampionship":5376,"Ġapplic":5377,"Ġstriped":5378,"Ġcombination":5379,"regard":5380,"Ġmemor":5381,"build":5382,"Ġopposite":5383,"Ġmotorcycle":5384,"Ġappreciate":5385,"Ġdefeated":5386,"Ġchemical":5387,"Ġmerchant":5388,"Ġstretch":5389,"Ġunfortunately":5390,"Ġinnoc":5391,"Ġinterpretation":5392,"Ġexplanation":5393,"Ġsaturday":5394,"Ġenthusi":5395,"Ġreputation":5396,"city":5397,"fa":5398,"gun":5399,"lady":5400,"men":5401,"must":5402,"pher":5403,"san":5404,"uable":5405,"yet":5406,"zed":5407,"zing":5408,"inform":5409,"Ġtier":5410,"Ġmir":5411,"Ġmud":5412,"lete":5413,"Ġbou":5414,"Ġwet":5415,"Ġwrest":5416,"icking":5417,"Ġgon":5418,"Ġhung":5419,"Ġstad":5420,"Ġinh":5421,"urally":5422,"onest":5423,"Ġconver":5424,"Ġalive":5425,"emor":5426,"Ġmanual":5427,"asty":5428,"near":5429,"Ġcarrier":5430,"Ġsmiling":5431,"Ġattrib":5432,"Ġjoy":5433,"Ġaccuracy":5434,"Ġplastic":5435,"Ġreliability":5436,"Ġoutfit":5437,"Ġcostume":5438,"Ġfriday":5439,"Ġlawrence":5440,"Ġisol":5441,"Ġedinburgh":5442,"Ġdepends":5443,"Ġretain":5444,"Ġcream":5445,"Ġvaluable":5446,"Ġtriumph":5447,"Ġfundam":5448,"Ġairport":5449,"Ġinvestor":5450,"Ġemployed":5451,"Ġenjoying":5452,"Ġadventure":5453,"Ġportug":5454,"Ġallowing":5455,"Ġallowance":5456,"Ġ48":5457,"Ġtheatre":5458,"Ġpeninsula":5459,"Ġrefers":5460,"Ġdebut":5461,"ipping":5462,"Ġdetermin":5463,"Ġobserve":5464,"Ġdrawn":5465,"Ġvictim":5466,"Ġargue":5467,"ography":5468,"Ġjersey":5469,"annon":5470,"Ġ1950":5471,"Ġholiday":5472,"Ġprepare":5473,"Ġmosaic":5474,"Ġhyp":5475,"Ġmedicine":5476,"Ġtroop":5477,"Ġtransportation":5478,"Ġgambling":5479,"craft":5480,"Ġhenry":5481,"Ġbyzantine":5482,"Ġauthent":5483,"Ġunusual":5484,"Ġireland":5485,"big":5486,"cred":5487,"disc":5488,"gar":5489,"hard":5490,"oly":5491,"pra":5492,"saw":5493,"Ġic":5494,"Ġought":5495,"Ġsoph":5496,"Ġpow":5497,"Ġpad":5498,"arian":5499,"Ġfal":5500,"Ġlind":5501,"Ġec":5502,"ctic":5503,"eting":5504,"igan":5505,"thus":5506,"Ġrig":5507,"Ġrum":5508,"Ġthin":5509,"Ġneither":5510,"Ġvine":5511,"quite":5512,"Ġjac":5513,"usc":5514,"ines":5515,"Ġplate":5516,"Ġcoach":5517,"Ġsacr":5518,"Ġincident":5519,"Ġboston":5520,"Ġheight":5521,"agan":5522,"short":5523,"Ġclin":5524,"Ġstatewide":5525,"eping":5526,"Ġsmile":5527,"Ġsmoke":5528,"ocracy":5529,"Ġaccommod":5530,"Ġinvasion":5531,"Ġnoise":5532,"Ġanybody":5533,"Ġplanet":5534,"Ġforb":5535,"Ġsignature":5536,"Ġswing":5537,"Ġedition":5538,"Ġcountryside":5539,"Ġearned":5540,"Ġumb":5541,"Ġdelight":5542,"Ġextent":5543,"Ġgreatly":5544,"Ġrunner":5545,"attered":5546,"Ġrealize":5547,"Ġdesignated":5548,"Ġopening":5549,"prise":5550,"Ġenjoyable":5551,"Ġ400":5552,"Ġtwelve":5553,"Ġfriendly":5554,"Ġpurs":5555,"Ġcompetitive":5556,"Ġhealthy":5557,"Ġcutting":5558,"Ġmagic":5559,"going":5560,"Ġfeatured":5561,"Ġidentity":5562,"Ġfortress":5563,"Ġgermany":5564,"Ġachievement":5565,"Ġ1960":5566,"Ġteaching":5567,"Ġrequested":5568,"Ġmaryland":5569,"Ġexplain":5570,"Ġexplained":5571,"Ġsubstance":5572,"Ġremarkable":5573,"Ġsurprise":5574,"Ġvoting":5575,"Ġadministrative":5576,"Ġpermanent":5577,"Ġimperial":5578,"Ġacknow":5579,"Ġcrisis":5580,"bi":5581,"black":5582,"found":5583,"fred":5584,"lsc":5585,"nn":5586,"oing":5587,"path":5588,"vation":5589,"yl":5590,"rey":5591,"ona":5592,"onent":5593,"ancing":5594,"Ġpitch":5595,"Ġmun":5596,"orb":5597,"orrow":5598,"Ġdust":5599,"Ġdining":5600,"Ġbond":5601,"Ġesp":5602,"Ġreject":5603,"Ġnile":5604,"ilm":5605,"olic":5606,"imony":5607,"char":5608,"Ġring":5609,"Ġchest":5610,"Ġseed":5611,"ifice":5612,"ifies":5613,"Ġjim":5614,"Ġolym":5615,"lap":5616,"rior":5617,"Ġuncle":5618,"Ġanx":5619,"Ġsust":5620,"asting":5621,"Ġcoal":5622,"Ġada":5623,"Ġsaved":5624,"Ġlabel":5625,"Ġ24":5626,"Ġmechan":5627,"Ġreplace":5628,"Ġraising":5629,"Ġorient":5630,"Ġassem":5631,"Ġfinest":5632,"Ġsyn":5633,"Ġsuppose":5634,"Ġ1993":5635,"Ġasia":5636,"Ġelected":5637,"Ġretro":5638,"Ġretired":5639,"Ġpope":5640,"Ġsimpl":5641,"Ġcareful":5642,"Ġcollected":5643,"Ġgrade":5644,"Ġestate":5645,"Ġ300":5646,"Ġflour":5647,"Ġsouthwest":5648,"Ġ188":5649,"Ġconstant":5650,"Ġordered":5651,"Ġcompetitor":5652,"Ġbritain":5653,"govern":5654,"Ġnewsweek":5655,"Ġresearcher":5656,"awa":5657,"Ġtraveler":5658,"Ġclosely":5659,"Ġdifficulty":5660,"Ġdenied":5661,"Ġpeaceful":5662,"Ġdemonstration":5663,"Ġacademic":5664,"Ġmexican":5665,"Ġliterature":5666,"Ġscientific":5667,"Ġlewinsky":5668,"Ġvirginia":5669,"Ġguarantee":5670,"Ġdivided":5671,"something":5672,"Ġmeasured":5673,"Ġwitness":5674,"Ġplatform":5675,"Ġstewardship":5676,"card":5677,"dif":5678,"dem":5679,"front":5680,"jac":5681,"mary":5682,"made":5683,"wan":5684,"inating":5685,"Ġsick":5686,"rete":5687,"Ġpit":5688,"ingly":5689,"Ġtan":5690,"Ġtip":5691,"ito":5692,"Ġdial":5693,"Ġfond":5694,"Ġwolf":5695,"icity":5696,"Ġreb":5697,"Ġhire":5698,"Ġhired":5699,"Ġrising":5700,"Ġproportion":5701,"oto":5702,"Ġleon":5703,"Ġlean":5704,"Ġoak":5705,"Ġshel":5706,"Ġshook":5707,"Ġshaped":5708,"Ġmanaging":5709,"endish":5710,"Ġworship":5711,"Ġuns":5712,"Ġcable":5713,"Ġcompos":5714,"Ġresidence":5715,"Ġcontained":5716,"agency":5717,"Ġamend":5718,"Ġdislike":5719,"Ġyouth":5720,"Ġcloud":5721,"active":5722,"Ġrecover":5723,"Ġdepart":5724,"Ġbargain":5725,"Ġtrib":5726,"Ġcharming":5727,"Ġlargely":5728,"Ġunderstood":5729,"Ġbigger":5730,"Ġclassic":5731,"Ġrepresents":5732,"Ġoperate":5733,"Ġ2014":5734,"Ġohio":5735,"Ġconfident":5736,"Ġestablishment":5737,"Ġsuggests":5738,"Ġjudgment":5739,"ographer":5740,"Ġbankrupt":5741,"Ġachieved":5742,"Ġjackson":5743,"Ġcruise":5744,"gao":5745,"Ġmicrophone":5746,"Ġgathering":5747,"contin":5748,"Ġexhibition":5749,"Ġdramatic":5750,"Ġpulled":5751,"Ġgraduate":5752,"Ġinspired":5753,"Ġolive":5754,"Ġframework":5755,"Ġfantastic":5756,"Ġromantic":5757,"Ġnegoti":5758,"Ġlatin":5759,"Ġscottish":5760,"Ġcontemporary":5761,"Ġintelligence":5762,"Ġskateboard":5763,"Ġconsequence":5764,"Ġfrancis":5765,"Ġsplendid":5766,"Ġcavendish":5767,"Ġmagnificent":5768,"ranean":5769,"information":5770,"Ġfundamental":5771,"bly":5772,"bra":5773,"best":5774,"crow":5775,"fam":5776,"film":5777,"nat":5778,"vard":5779,"init":5780,"Ġcinem":5781,"Ġpir":5782,"start":5783,"Ġbout":5784,"Ġbrow":5785,"Ġwil":5786,"Ġward":5787,"Ġlod":5788,"ete":5789,"olving":5790,"import":5791,"cher":5792,"chal":5793,"thur":5794,"Ġrating":5795,"ighth":5796,"Ġunaware":5797,"Ġunknown":5798,"Ġlosing":5799,"Ġprecise":5800,"Ġcomposed":5801,"Ġcomponent":5802,"Ġpocket":5803,"Ġcock":5804,"Ġador":5805,"Ġadequ":5806,"Ġrepair":5807,"Ġbuck":5808,"Ġclimate":5809,"Ġassume":5810,"reaking":5811,"Ġjoke":5812,"Ġnose":5813,"aka":5814,"Ġwarrior":5815,"Ġforg":5816,"Ġmini":5817,"Ġpersonnel":5818,"roll":5819,"Ġelimin":5820,"Ġaircraft":5821,"expected":5822,"Ġbasically":5823,"Ġkeeping":5824,"profit":5825,"Ġpalm":5826,"Ġmissed":5827,"ropol":5828,"ropri":5829,"ropical":5830,"Ġtraveling":5831,"Ġsalary":5832,"Ġpreferred":5833,"Ġmotiv":5834,"Ġawful":5835,"Ġloud":5836,"Ġconsumption":5837,"Ġcycle":5838,"Ġsweet":5839,"Ġbreed":5840,"Ġrecognize":5841,"Ġvenice":5842,"event":5843,"Ġremarked":5844,"Ġbowl":5845,"Ġignored":5846,"Ġwealthy":5847,"Ġgrocery":5848,"Ġmixed":5849,"Ġclimbing":5850,"Ġrarely":5851,"Ġghost":5852,"Ġcomparison":5853,"Ġwelcome":5854,"Ġlaunched":5855,"Ġcomfortable":5856,"Ġemployment":5857,"Ġflorida":5858,"Ġmercury":5859,"lahoma":5860,"Ġintellect":5861,"17":5862,"din":5863,"uce":5864,"vin":5865,"worth":5866,"ym":5867,"Ġou":5868,"enance":5869,"Ġmask":5870,"oring":5871,"legal":5872,"Ġfought":5873,"ouri":5874,"Ġax":5875,"ioned":5876,"Ġlip":5877,"Ġlined":5878,"Ġlying":5879,"Ġreaction":5880,"rovers":5881,"ilit":5882,"ulating":5883,"Ġray":5884,"Ġprominent":5885,"Ġvic":5886,"Ġveter":5887,"ifted":5888,"ello":5889,"Ġcapture":5890,"Ġsup":5891,"Ġpole":5892,"Ġarc":5893,"Ġopponent":5894,"Ġindicated":5895,"renna":5896,"Ġattended":5897,"Ġjoint":5898,"Ġtrick":5899,"Ġtrump":5900,"Ġhaz":5901,"tyard":5902,"Ġpreserved":5903,"phe":5904,"sco":5905,"bec":5906,"Ġforget":5907,"Ġvisible":5908,"Ġ2007":5909,"spread":5910,"Ġretail":5911,"Ġgraph":5912,"Ġdemol":5913,"dec":5914,"Ġeconomist":5915,"Ġconsideration":5916,"Ġcovering":5917,"Ġdeveloping":5918,"Ġconstitution":5919,"Ġslope":5920,"standing":5921,"iker":5922,"Ġmeter":5923,"Ġmailer":5924,"Ġwinner":5925,"Ġimproper":5926,"iterion":5927,"Ġpresentation":5928,"Ġanton":5929,"Ġelsewhere":5930,"whel":5931,"Ġbecomes":5932,"Ġcharacteristic":5933,"Ġbrain":5934,"Ġ75":5935,"ipper":5936,"Ġrepublic":5937,"Ġsilent":5938,"Ġavoided":5939,"Ġapplied":5940,"heim":5941,"Ġfifth":5942,"Ġsuspic":5943,"Ġproperly":5944,"Ġcooking":5945,"Ġconnect":5946,"Ġmyth":5947,"Ġdescribes":5948,"Ġassumed":5949,"Ġtomorrow":5950,"Ġconcerning":5951,"Ġincreasingly":5952,"Ġindicates":5953,"Ġcasino":5954,"Ġdropped":5955,"Ġnurse":5956,"Ġcowboy":5957,"Ġkorean":5958,"Ġconcentration":5959,"Ġgentleman":5960,"Ġcompensation":5961,"Ġmerely":5962,"nthia":5963,"Ġturkish":5964,"federal":5965,"Ġstadium":5966,"gre":5967,"greg":5968,"mod":5969,"rist":5970,"viet":5971,"reason":5972,"Ġcot":5973,"Ġcuis":5974,"enger":5975,"Ġtale":5976,"Ġmath":5977,"lected":5978,"stal":5979,"itative":5980,"Ġfile":5981,"Ġwhere":5982,"Ġavenue":5983,"ometer":5984,"Ġnipa":5985,"olve":5986,"rase":5987,"seem":5988,"Ġrit":5989,"Ġproc":5990,"iration":5991,"Ġsequ":5992,"Ġsession":5993,"Ġalbert":5994,"Ġleap":5995,"Ġozone":5996,"alled":5997,"ides":5998,"ongoing":5999,"Ġimpe":6000,"Ġsav":6001,"Ġspa":6002,"Ġboot":6003,"Ġreporter":6004,"Ġgran":6005,"Ġracing":6006,"Ġbrick":6007,"Ġassass":6008,"ibrant":6009,"Ġmayor":6010,"Ġwithdraw":6011,"Ġcrus":6012,"Ġdeficit":6013,"bean":6014,"Ġblond":6015,"Ġcorn":6016,"Ġintrig":6017,"irline":6018,"Ġmodification":6019,"plan":6020,"Ġcarefully":6021,"Ġturkey":6022,"Ġcourtyard":6023,"Ġdistingu":6024,"Ġcharged":6025,"Ġcapable":6026,"Ġpointed":6027,"ittington":6028,"Ġexperiment":6029,"Ġresulted":6030,"Ġsteep":6031,"Ġmetropol":6032,"Ġtestimony":6033,"Ġhorror":6034,"Ġtreas":6035,"Ġtwin":6036,"Ġanalyz":6037,"Ġlively":6038,"Ġsung":6039,"Ġlisted":6040,"Ġlistening":6041,"Ġconcluded":6042,"white":6043,"Ġarrange":6044,"Ġapart":6045,"Ġillness":6046,"Ġfalling":6047,"Ġoklahoma":6048,"Ġstrip":6049,"ovo":6050,"Ġvenue":6051,"Ġconvin":6052,"odded":6053,"Ġmcc":6054,"Ġsurprised":6055,"similar":6056,"Ġcelebrated":6057,"Ġimagine":6058,"Ġengagement":6059,"laimed":6060,"Ġobvious":6061,"Ġfascinating":6062,"Ġsubsidy":6063,"Ġdeclared":6064,"Ġsupreme":6065,"cas":6066,"gue":6067,"iot":6068,"kins":6069,"large":6070,"rative":6071,"sum":6072,"try":6073,"Ġongoing":6074,"resh":6075,"resp":6076,"Ġcried":6077,"Ġdil":6078,"ouston":6079,"Ġairline":6080,"Ġgap":6081,"Ġlion":6082,"Ġlord":6083,"Ġeager":6084,"Ġreign":6085,"Ġhouston":6086,"Ġnit":6087,"Ġnic":6088,"Ġuk":6089,"Ġkiss":6090,"amer":6091,"anda":6092,"Ġneat":6093,"Ġneck":6094,"Ġvest":6095,"Ġjail":6096,"Ġos":6097,"Ġanse":6098,"Ġanth":6099,"Ġcompl":6100,"Ġspr":6101,"rust":6102,"nee":6103,"Ġfav":6104,"ordan":6105,"Ġevil":6106,"Ġworkforce":6107,"Ġinterim":6108,"Ġpride":6109,"Ġscar":6110,"Ġorg":6111,"Ġcarpet":6112,"Ġexpos":6113,"ocol":6114,"Ġregist":6115,"Ġmonk":6116,"Ġhaw":6117,"ensity":6118,"Ġproven":6119,"Ġcriterion":6120,"Ġsubmitted":6121,"Ġartwork":6122,"Ġobsc":6123,"Ġ2009":6124,"Ġcreative":6125,"Ġcreature":6126,"ashed":6127,"Ġmarked":6128,"Ġmediter":6129,"Ġparade":6130,"Ġharsh":6131,"appropri":6132,"Ġtreated":6133,"Ġinvolving":6134,"Ġtransaction":6135,"Ġ2011":6136,"Ġpassing":6137,"Ġceo":6138,"Ġconclud":6139,"Ġconstruct":6140,"Ġbrings":6141,"Ġroutine":6142,"Ġeducational":6143,"Ġarrive":6144,"Ġachieving":6145,"Ġaddressing":6146,"Ġdamaged":6147,"Ġcontribute":6148,"Ġpreparing":6149,"Ġdutch":6150,"Ġsettled":6151,"general":6152,"Ġencouraged":6153,"Ġscenery":6154,"Ġangry":6155,"Ġdanger":6156,"Ġsensitive":6157,"instead":6158,"consider":6159,"Ġrapidly":6160,"Ġroughly":6161,"Ġcommitment":6162,"Ġtokyo":6163,"Ġceremony":6164,"Ġthursday":6165,"Ġenforcement":6166,"Ġveteran":6167,"Ġcuisine":6168,"Ġmediterranean":6169,"14":6170,"bc":6171,"bble":6172,"bration":6173,"count":6174,"care":6175,"cution":6176,"dist":6177,"fo":6178,"gram":6179,"har":6180,"jud":6181,"lan":6182,"mom":6183,"rim":6184,"ux":6185,"yn":6186,"rele":6187,"Ġpic":6188,"Ġpub":6189,"arra":6190,"Ġtel":6191,"Ġtox":6192,"Ġmut":6193,"Ġmental":6194,"Ġdiving":6195,"Ġlic":6196,"rose":6197,"isite":6198,"Ġny":6199,"Ġnaked":6200,"etch":6201,"Ġstared":6202,"Ġstuck":6203,"Ġinch":6204,"urning":6205,"among":6206,"uled":6207,"Ġproved":6208,"oting":6209,"otional":6210,"Ġvoc":6211,"ante":6212,"quake":6213,"quarter":6214,"endor":6215,"eller":6216,"oken":6217,"Ġenorm":6218,"Ġencomp":6219,"Ġlab":6220,"Ġincur":6221,"Ġboast":6222,"Ġserb":6223,"Ġreserve":6224,"Ġnewly":6225,"Ġcontext":6226,"Ġcontrovers":6227,"agas":6228,"Ġamb":6229,"Ġdismiss":6230,"Ġtea":6231,"Ġcommemor":6232,"Ġbug":6233,"Ġeveryday":6234,"Ġsmoking":6235,"Ġrecru":6236,"ificance":6237,"Ġjoe":6238,"Ġaccum":6239,"Ġnox":6240,"Ġinformed":6241,"Ġabbey":6242,"Ġdefend":6243,"Ġsupporter":6244,"Ġswift":6245,"Ġminimal":6246,"Ġ2005":6247,"Ġdriven":6248,"Ġearning":6249,"Ġtribe":6250,"Ġ36":6251,"Ġtaxi":6252,"Ġconsidering":6253,"Ġslide":6254,"Ġremaining":6255,"Ġsteve":6256,"Ġadvanced":6257,"news":6258,"Ġ45":6259,"Ġequally":6260,"Ġjeff":6261,"Ġstatute":6262,"Ġ150":6263,"Ġmissouri":6264,"Ġpassage":6265,"Ġcraw":6266,"Ġbringing":6267,"Ġdiscussing":6268,"Ġcoastal":6269,"Ġlatest":6270,"Ġtelephone":6271,"Ġillino":6272,"Ġeighty":6273,"Ġheavily":6274,"seeing":6275,"Ġmichel":6276,"Ġmichigan":6277,"Ġcynthia":6278,"Ġpurchased":6279,"Ġvenet":6280,"Ġborrow":6281,"Ġlegislative":6282,"Ġattempted":6283,"Ġmyst":6284,"Ġflyer":6285,"Ġignore":6286,"finally":6287,"Ġlucky":6288,"Ġdefeat":6289,"Ġprisoner":6290,"Ġstroll":6291,"Ġstrolling":6292,"Ġteenager":6293,"Ġspectacular":6294,"Ġinjury":6295,"Ġsharp":6296,"Ġstakeholder":6297,"Ġutilized":6298,"Ġaustralia":6299,"figure":6300,"Ġagricultural":6301,"Ġelegant":6302,"government":6303,"Ġamendment":6304,"Ġpirate":6305,"Ġexposure":6306,"70":6307,"fast":6308,"iary":6309,"sie":6310,"wart":6311,"Ġom":6312,"iner":6313,"inian":6314,"rep":6315,"onic":6316,"eness":6317,"Ġpor":6318,"Ġpump":6319,"Ġtight":6320,"Ġtired":6321,"Ġmow":6322,"Ġmig":6323,"Ġmike":6324,"Ġbart":6325,"Ġbure":6326,"oupe":6327,"Ġlam":6328,"Ġrely":6329,"Ġrenew":6330,"Ġhug":6331,"Ġhidden":6332,"rot":6333,"isse":6334,"opoly":6335,"Ġkans":6336,"amic":6337,"Ġrival":6338,"Ġproof":6339,"Ġcha":6340,"Ġvul":6341,"Ġselect":6342,"ifact":6343,"Ġexcess":6344,"Ġshade":6345,"Ġshadow":6346,"uting":6347,"ardo":6348,"uese":6349,"Ġknowing":6350,"Ġlob":6351,"load":6352,"Ġroll":6353,"Ġspons":6354,"Ġlaid":6355,"Ġ190":6356,"Ġquiz":6357,"Ġseriously":6358,"Ġfab":6359,"Ġcontest":6360,"Ġdisagree":6361,"Ġtrace":6362,"shire":6363,"Ġcolored":6364,"ramid":6365,"Ġdesp":6366,"Ġattending":6367,"ibbean":6368,"Ġaccord":6369,"Ġsoviet":6370,"Ġwarning":6371,"Ġrequiring":6372,"Ġhelpful":6373,"Ġcolleague":6374,"Ġhappening":6375,"Ġhumor":6376,"Ġweekly":6377,"Ġharder":6378,"Ġhardly":6379,"Ġfunchal":6380,"Ġenjoys":6381,"Ġmarketing":6382,"Ġnorthwest":6383,"Ġinsight":6384,"Ġstaying":6385,"Ġrepresenting":6386,"Ġrefuge":6387,"feel":6388,"clinton":6389,"Ġtruck":6390,"Ġmissing":6391,"Ġsunny":6392,"Ġassociate":6393,"Ġceiling":6394,"Ġparticipation":6395,"Ġfigured":6396,"Ġplanting":6397,"Ġsolid":6398,"Ġbalanced":6399,"Ġexclud":6400,"Ġsuperior":6401,"Ġmaintained":6402,"Ġmaintenance":6403,"Ġrecommended":6404,"Ġcombat":6405,"Ġsweater":6406,"Ġmandatory":6407,"Ġdivorce":6408,"Ġbanned":6409,"Ġexamined":6410,"Ġcelebration":6411,"Ġmaintaining":6412,"rella":6413,"Ġkilling":6414,"Ġphilos":6415,"Ġearthquake":6416,"struction":6417,"Ġnomination":6418,"Ġminority":6419,"Ġseventh":6420,"Ġenterprise":6421,"Ġnursing":6422,"Ġexpanded":6423,"Ġsurvive":6424,"Ġroller":6425,"Ġimplication":6426,"Ġcertification":6427,"Ġbarely":6428,"Ġdemonstrated":6429,"Ġrepeated":6430,"Ġatlanta":6431,"Ġabandoned":6432,"Ġfurniture":6433,"Ġsanctuary":6434,"Ġumbrella":6435,"important":6436,"Ġintellectual":6437,"Ġtreasury":6438,"Ġencompass":6439,"cul":6440,"dr":6441,"dog":6442,"drew":6443,"field":6444,"gate":6445,"lay":6446,"mother":6447,"north":6448,"Ġordinary":6449,"ero":6450,"Ġsulf":6451,"oner":6452,"Ġpp":6453,"Ġpond":6454,"arl":6455,"Ġto":6456,"Ġtone":6457,"orca":6458,"stud":6459,"stream":6460,"Ġdome":6461,"Ġbour":6462,"Ġfel":6463,"Ġfill":6464,"Ġfired":6465,"oured":6466,"Ġwire":6467,"Ġwound":6468,"Ġlately":6469,"Ġster":6470,"Ġstress":6471,"Ġinnovation":6472,"Ġko":6473,"Ġvibrant":6474,"odox":6475,"Ġalley":6476,"Ġalfred":6477,"Ġjordan":6478,"los":6479,"Ġbeard":6480,"Ġplot":6481,"Ġsacred":6482,"Ġsauce":6483,"Ġspin":6484,"ignificant":6485,"ferent":6486,"Ġrac":6487,"abs":6488,"esis":6489,"Ġactress":6490,"Ġcaribbean":6491,"Ġassign":6492,"Ġhawa":6493,"Ġhelmet":6494,"anger":6495,"Ġsoil":6496,"Ġpublish":6497,"Ġstudied":6498,"Ġphrase":6499,"Ġartifact":6500,"Ġforum":6501,"venir":6502,"Ġsignificance":6503,"Ġswitch":6504,"Ġintense":6505,"Ġorganized":6506,"Ġmodest":6507,"others":6508,"Ġcalling":6509,"Ġengaging":6510,"Ġcapability":6511,"iche":6512,"Ġoverse":6513,"aneously":6514,"Ġresulting":6515,"Ġ55":6516,"Ġcontinuing":6517,"Ġprivile":6518,"augh":6519,"prob":6520,"Ġsuccessfully":6521,"Ġcanoe":6522,"Ġburn":6523,"Ġmissile":6524,"ushed":6525,"ugg":6526,"Ġpaperwork":6527,"Ġconcrete":6528,"Ġcrown":6529,"Ġgranted":6530,"Ġsenator":6531,"Ġsandy":6532,"Ġfacilit":6533,"Ġstraw":6534,"Ġawarded":6535,"Ġmalay":6536,"Ġwidespread":6537,"Ġargued":6538,"Ġviolent":6539,"Ġprotected":6540,"Ġgreece":6541,"Ġtreaty":6542,"particip":6543,"Ġ1944":6544,"Ġgeorgia":6545,"Ġexception":6546,"Ġaffordable":6547,"Ġrestricted":6548,"Ġhammer":6549,"Ġmanufacturer":6550,"Ġwrites":6551,"Ġderry":6552,"Ġknight":6553,"Ġgraduated":6554,"Ġsplit":6555,"Ġfranklin":6556,"Ġappreciated":6557,"Ġseventy":6558,"Ġarchitectural":6559,"Ġdecorated":6560,"chanan":6561,"Ġbullet":6562,"Ġremoved":6563,"Ġsorry":6564,"Ġincorporated":6565,"Ġimmigrant":6566,"happy":6567,"currently":6568,"Ġhiking":6569,"Ġislamic":6570,"Ġblanket":6571,"Ġdisclosure":6572,"Ġathlete":6573,"Ġtiger":6574,"following":6575,"Ġkilometer":6576,"otype":6577,"Ġinspection":6578,"building":6579,"Ġshelter":6580,"Ġcinema":6581,"Ġillinois":6582,"Ġfabric":6583,"Ġhawaii":6584,"16":6585,"aust":6586,"bet":6587,"based":6588,"cal":6589,"crit":6590,"gi":6591,"pur":6592,"sal":6593,"wing":6594,"inci":6595,"eration":6596,"rect":6597,"Ġpc":6598,"Ġpig":6599,"Ġpupp":6600,"arn":6601,"Ġbread":6602,"Ġfur":6603,"Ġwan":6604,"Ġae":6605,"Ġgig":6606,"Ġlane":6607,"Ġhated":6608,"Ġhub":6609,"Ġnh":6610,"Ġnodded":6611,"Ġstall":6612,"Ġstable":6613,"ima":6614,"secut":6615,"cho":6616,"Ġky":6617,"Ġkir":6618,"Ġkath":6619,"Ġdear":6620,"onestly":6621,"Ġconce":6622,"mentioned":6623,"aside":6624,"Ġjr":6625,"Ġshell":6626,"endix":6627,"Ġpermit":6628,"oked":6629,"Ġpeer":6630,"Ġcompare":6631,"Ġenact":6632,"Ġarthur":6633,"rub":6634,"rule":6635,"Ġquote":6636,"Ġweigh":6637,"Ġevolution":6638,"Ġwhittington":6639,"Ġtrash":6640,"Ġinterrupt":6641,"Ġscary":6642,"Ġindig":6643,"achment":6644,"Ġbuff":6645,"Ġbrill":6646,"Ġacting":6647,"Ġconsol":6648,"ethe":6649,"Ġmonday":6650,"Ġreluct":6651,"Ġhandsome":6652,"Ġsupplement":6653,"Ġperformer":6654,"Ġ31":6655,"Ġ32":6656,"Ġeconomically":6657,"Ġbeneath":6658,"Ġsomewhere":6659,"Ġforever":6660,"prov":6661,"Ġstatistic":6662,"Ġreviewed":6663,"Ġconfirm":6664,"Ġcrash":6665,"Ġnonprofit":6666,"Ġeconomics":6667,"Ġstephen":6668,"Ġexciting":6669,"Ġ800":6670,"Ġexceed":6671,"Ġcatholic":6672,"Ġdiscovery":6673,"Ġadvertise":6674,"Ġfaster":6675,"Ġderived":6676,"Ġknife":6677,"Ġnominated":6678,"Ġadopt":6679,"Ġcaptured":6680,"Ġhomeland":6681,"remember":6682,"Ġmobile":6683,"Ġsubsequent":6684,"Ġvietnam":6685,"Ġmystery":6686,"cong":6687,"down":6688,"fun":6689,"five":6690,"fire":6691,"foot":6692,"gged":6693,"hum":6694,"ja":6695,"joh":6696,"lie":6697,"lining":6698,"mand":6699,"matter":6700,"nant":6701,"night":6702,"pat":6703,"pop":6704,"pack":6705,"rum":6706,"rick":6707,"rican":6708,"sub":6709,"sug":6710,"table":6711,"turn":6712,"vada":6713,"ÃŃ":6714,"inally":6715,"Ġske":6716,"Ġpunch":6717,"Ġtied":6718,"Ġtub":6719,"Ġtropical":6720,"ora":6721,"orge":6722,"lem":6723,"Ġdim":6724,"Ġdiam":6725,"Ġbid":6726,"Ġfried":6727,"Ġwt":6728,"Ġwid":6729,"Ġwise":6730,"Ġaer":6731,"Ġgest":6732,"Ġgpra":6733,"Ġhip":6734,"Ġhanging":6735,"rogen":6736,"Ġstunning":6737,"Ġinland":6738,"Ġupr":6739,"search":6740,"changed":6741,"tha":6742,"very":6743,"Ġron":6744,"iry":6745,"Ġvendor":6746,"ists":6747,"terior":6748,"Ġshout":6749,"Ġunivers":6750,"Ġcausing":6751,"Ġpermitted":6752,"Ġrobin":6753,"older":6754,"Ġtaught":6755,"Ġincumb":6756,"necess":6757,"Ġheel":6758,"Ġevident":6759,"Ġtech":6760,"Ġreplied":6761,"Ġusa":6762,"Ġracial":6763,"Ġmoor":6764,"Ġcolony":6765,"Ġcollap":6766,"Ġattitude":6767,"Ġjose":6768,"Ġmonopoly":6769,"Ġrub":6770,"akers":6771,"Ġplano":6772,"Ġcloak":6773,"Ġcloser":6774,"Ġbelt":6775,"Ġterrace":6776,"oster":6777,"Ġswed":6778,"Ġformula":6779,"Ġvalued":6780,"Ġgrasp":6781,"wards":6782,"Ġunderground":6783,"Ġnotable":6784,"Ġoverwhel":6785,"develop":6786,"Ġcheek":6787,"Ġcheaper":6788,"Ġletting":6789,"Ġeffectiveness":6790,"Ġconstantly":6791,"Ġ49":6792,"Ġinvolvement":6793,"Ġsummit":6794,"Ġpalais":6795,"Ġiran":6796,"ottoman":6797,"Ġsuccessor":6798,"Ġsixth":6799,"Ġcancer":6800,"Ġ2012":6801,"Ġrocky":6802,"Ġsunset":6803,"Ġgear":6804,"Ġantique":6805,"Ġparticipating":6806,"Ġreaching":6807,"Ġestablishing":6808,"Ġ1989":6809,"Ġdescribe":6810,"Ġpleasure":6811,"Ġhershe":6812,"Ġinfluenced":6813,"Ġsongwriter":6814,"Ġindiana":6815,"Ġdonation":6816,"engal":6817,"Ġadmitted":6818,"Ġattacked":6819,"Ġbreast":6820,"moreover":6821,"Ġresidential":6822,"Ġexplains":6823,"Ġrennie":6824,"bbed":6825,"Ġintegration":6826,"Ġwilliams":6827,"Ġangel":6828,"Ġregularly":6829,"Ġrelaxed":6830,"Ġcelebrity":6831,"Ġannounce":6832,"Ġpushing":6833,"Ġscrut":6834,"Ġbuddhist":6835,"Ġrhy":6836,"Ġpedest":6837,"Ġpunishment":6838,"Ġfuel":6839,"Ġworkshop":6840,"Ġterminal":6841,"Ġanticipated":6842,"Ġpyramid":6843,"Ġnowadays":6844,"Ġalexander":6845,"Ġensuring":6846,"Ġpillar":6847,"Ġconvenient":6848,"Ġinhabit":6849,"Ġportuguese":6850,"Ġauthentic":6851,"Ġritual":6852,"moment":6853,"Ġenormous":6854,"Ġkansa":6855,"Ġincumbent":6856,"cling":6857,"dy":6858,"don":6859,"face":6860,"gon":6861,"ipt":6862,"mond":6863,"makers":6864,"net":6865,"oir":6866,"tommy":6867,"uze":6868,"Ġsi":6869,"reet":6870,"ongh":6871,"Ġcd":6872,"Ġcance":6873,"Ġcush":6874,"Ġcnn":6875,"Ġpom":6876,"Ġpension":6877,"Ġtank":6878,"Ġmatt":6879,"stor":6880,"Ġdun":6881,"Ġdating":6882,"Ġduck":6883,"Ġdensity":6884,"Ġbatt":6885,"Ġbible":6886,"Ġbengal":6887,"Ġfence":6888,"Ġwagon":6889,"Ġrear":6890,"omer":6891,"omed":6892,"omet":6893,"ila":6894,"Ġstark":6895,"Ġstiff":6896,"ssed":6897,"Ġinner":6898,"section":6899,"third":6900,"thodox":6901,"Ġprop":6902,"Ġventure":6903,"oda":6904,"istical":6905,"Ġmah":6906,"Ġlock":6907,"Ġrot":6908,"Ġtail":6909,"Ġarmed":6910,"Ġrabb":6911,"Ġscope":6912,"Ġclan":6913,"abil":6914,"Ġorthodox":6915,"ockey":6916,"Ġpolish":6917,"Ġhaired":6918,"Ġplaza":6919,"Ġentering":6920,"Ġnoble":6921,"Ġguided":6922,"phant":6923,"ailed":6924,"Ġgenus":6925,"Ġabund":6926,"Ġinstitute":6927,"Ġminnes":6928,"Ġsoul":6929,"Ġsouvenir":6930,"Ġelev":6931,"Ġmoderate":6932,"Ġsimulation":6933,"Ġstring":6934,"Ġelim":6935,"Ġendor":6936,"Ġdemocracy":6937,"gery":6938,"Ġ37":6939,"Ġsoutheast":6940,"Ġcontrolled":6941,"Ġannoy":6942,"auer":6943,"Ġzone":6944,"Ġpractical":6945,"Ġmilk":6946,"ugawa":6947,"Ġvolunt":6948,"Ġthrone":6949,"Ġsuggestion":6950,"Ġfails":6951,"Ġidentical":6952,"Ġpromote":6953,"Ġspecialized":6954,"Ġpreference":6955,"Ġobservation":6956,"Ġregarded":6957,"Ġcatal":6958,"Ġ1972":6959,"Ġargent":6960,"Ġsuffered":6961,"Ġ1958":6962,"Ġhitler":6963,"Ġinstruction":6964,"Ġcriticism":6965,"Ġglobe":6966,"Ġembarra":6967,"company":6968,"Ġlouisiana":6969,"Ġimmediate":6970,"meanwhile":6971,"Ġpremature":6972,"Ġpremium":6973,"additionally":6974,"Ġguitarist":6975,"Ġbutton":6976,"azzo":6977,"Ġbesides":6978,"Ġscientist":6979,"Ġweakness":6980,"Ġreveal":6981,"auditor":6982,"Ġratio":6983,"Ġupdated":6984,"chester":6985,"Ġtunnel":6986,"Ġindoors":6987,"organization":6988,"Ġkosovo":6989,"Ġexpansion":6990,"Ġtemperature":6991,"Ġrejected":6992,"jacent":6993,"Ġeliminate":6994,"Ġwhereas":6995,"bed":6996,"bted":6997,"father":6998,"felt":6999,"jo":7000,"lor":7001,"list":7002,"nor":7003,"pm":7004,"pit":7005,"pres":7006,"tw":7007,"tic":7008,"tained":7009,"uel":7010,"wonder":7011,"ya":7012,"Ġottoman":7013,"inction":7014,"inside":7015,"Ġsather":7016,"Ġcant":7017,"encing":7018,"enjoy":7019,"ani":7020,"anal":7021,"Ġpin":7022,"Ġpure":7023,"ala":7024,"Ġtin":7025,"Ġtue":7026,"Ġtune":7027,"itable":7028,"Ġdame":7029,"Ġdict":7030,"Ġdying":7031,"Ġble":7032,"Ġbla":7033,"Ġbrew":7034,"Ġfellow":7035,"icide":7036,"Ġah":7037,"Ġluc":7038,"Ġescape":7039,"Ġelabor":7040,"Ġrebuilt":7041,"Ġhitting":7042,"Ġhob":7043,"Ġnut":7044,"Ġstamp":7045,"idated":7046,"rait":7047,"raph":7048,"thank":7049,"Ġdeity":7050,"gean":7051,"Ġprove":7052,"Ġva":7053,"istry":7054,"Ġjam":7055,"Ġjun":7056,"Ġjung":7057,"Ġexternal":7058,"Ġexterior":7059,"usually":7060,"Ġshield":7061,"Ġshorter":7062,"Ġuncon":7063,"Ġcazar":7064,"Ġanne":7065,"lore":7066,"itement":7067,"Ġpeel":7068,"cipl":7069,"Ġcompan":7070,"Ġcomply":7071,"Ġcomprom":7072,"Ġcoin":7073,"Ġspouse":7074,"Ġque":7075,"Ġamp":7076,"Ġamid":7077,"Ġgrin":7078,"Ġscarf":7079,"Ġindif":7080,"Ġappendix":7081,"shop":7082,"achus":7083,"Ġclue":7084,"Ġclick":7085,"Ġassurance":7086,"Ġassault":7087,"render":7088,"actually":7089,"angel":7090,"Ġremote":7091,"Ġreliable":7092,"Ġoutput":7093,"phin":7094,"Ġshower":7095,"Ġabb":7096,"Ġhandled":7097,"Ġsubmit":7098,"avor":7099,"Ġmarry":7100,"Ġblade":7101,"Ġuseless":7102,"Ġobtained":7103,"Ġvisibility":7104,"Ġformation":7105,"Ġdepending":7106,"Ġdepicted":7107,"Ġskilled":7108,"Ġorganism":7109,"Ġworldwide":7110,"Ġdock":7111,"Ġ202":7112,"Ġmedal":7113,"Ġ34":7114,"Ġparad":7115,"Ġ186":7116,"Ġclassification":7117,"Ġlandmark":7118,"Ġreceipt":7119,"Ġpainter":7120,"Ġmetric":7121,"Ġrefuse":7122,"sters":7123,"Ġproductive":7124,"Ġconfess":7125,"Ġpassion":7126,"Ġmethodology":7127,"Ġexistence":7128,"Ġdescription":7129,"Ġpromise":7130,"Ġpoorly":7131,"Ġpositioned":7132,"Ġsilk":7133,"Ġtexan":7134,"Ġduke":7135,"Ġobserving":7136,"Ġmalays":7137,"Ġcivilization":7138,"heard":7139,"Ġutter":7140,"Ġmassachus":7141,"Ġpersian":7142,"Ġnorman":7143,"Ġfemin":7144,"Ġquarterback":7145,"Ġflaw":7146,"Ġopposition":7147,"Ġexpertise":7148,"Ġspeaker":7149,"Ġintegrated":7150,"Ġrailroad":7151,"commission":7152,"Ġfulf":7153,"structure":7154,"Ġpraise":7155,"Ġpraised":7156,"Ġridicul":7157,"Ġnavy":7158,"Ġnavig":7159,"Ġwedding":7160,"Ġaltar":7161,"Ġhoping":7162,"Ġmacau":7163,"postal":7164,"Ġoccupied":7165,"Ġobviously":7166,"ijsters":7167,"Ġsurface":7168,"Ġmaximum":7169,"Ġprohibited":7170,"Ġscholarship":7171,"suppose":7172,"Ġencounter":7173,"Ġcabinet":7174,"istanbul":7175,"Ġcolumbia":7176,"Ġpacific":7177,"Ġminimum":7178,"Ġinnocent":7179,"Ġmirror":7180,"Ġconverted":7181,"Ġsacrifice":7182,"family":7183,"Ġcotton":7184,"Ġmccain":7185,"Ġvenetian":7186,"Ġvulner":7187,"Ġsulfur":7188,"Ġprivilege":7189,"probably":7190,"Ġaegean":7191,"Ġminnesota":7192,"30":7193,"aa":7194,"cou":7195,"cost":7196,"eared":7197,"fore":7198,"jap":7199,"muse":7200,"national":7201,"oque":7202,"rer":7203,"south":7204,"taking":7205,"wick":7206,"wife":7207,"erman":7208,"onna":7209,"Ġpap":7210,"Ġpile":7211,"Ġpale":7212,"almost":7213,"Ġtong":7214,"Ġtorn":7215,"Ġtob":7216,"orious":7217,"story":7218,"Ġdiet":7219,"Ġbat":7220,"Ġbite":7221,"Ġbale":7222,"Ġfold":7223,"Ġfallen":7224,"Ġwiz":7225,"icular":7226,"Ġaqu":7227,"Ġaci":7228,"Ġaside":7229,"Ġeighth":7230,"Ġhood":7231,"Ġhasting":7232,"omy":7233,"Ġnick":7234,"Ġnba":7235,"ella":7236,"Ġstem":7237,"olly":7238,"aying":7239,"Ġug":7240,"imental":7241,"thr":7242,"add":7243,"ateur":7244,"Ġthro":7245,"Ġcher":7246,"Ġnepal":7247,"ounced":7248,"asible":7249,"Ġvig":7250,"istent":7251,"quisite":7252,"Ġall":7253,"Ġalp":7254,"ardin":7255,"enda":7256,"idea":7257,"Ġenable":7258,"Ġtape":7259,"berry":7260,"ruption":7261,"ogy":7262,"Ġdism":7263,"Ġclijsters":7264,"Ġassigned":7265,"rency":7266,"unded":7267,"Ġrecall":7268,"Ġaccus":7269,"Ġinvited":7270,"Ġfinn":7271,"Ġnobel":7272,"nedy":7273,"Ġsuburb":7274,"Ġterr":7275,"Ġsurrender":7276,"Ġfounder":7277,"Ġpersonally":7278,"Ġformat":7279,"Ġ2003":7280,"Ġ2006":7281,"Ġelephant":7282,"Ġdrunk":7283,"Ġskirt":7284,"Ġgaul":7285,"Ġturtle":7286,"Ġdeliber":7287,"Ġcurve":7288,"Ġbaroque":7289,"Ġtripp":7290,"grim":7291,"Ġoversight":7292,"Ġdesigner":7293,"exper":7294,"Ġcommunicate":7295,"Ġviewed":7296,"uccess":7297,"Ġfinancing":7298,"Ġmuseo":7299,"Ġcampus":7300,"Ġappealing":7301,"Ġimproving":7302,"Ġpursu":7303,"Ġpopularity":7304,"Ġofficially":7305,"Ġpassenger":7306,"ufficient":7307,"Ġparticipated":7308,"Ġ1988":7309,"Ġdocumentary":7310,"weight":7311,"Ġassistant":7312,"Ġhistorian":7313,"Ġnatalia":7314,"Ġexcitement":7315,"Ġ1979":7316,"Ġabsurd":7317,"Ġunfair":7318,"Ġbedroom":7319,"Ġexplicit":7320,"Ġbroader":7321,"Ġphotographer":7322,"Ġsuspect":7323,"Ġprotecting":7324,"Ġcycl":7325,"ophy":7326,"Ġboris":7327,"Ġsuitable":7328,"Ġexamining":7329,"etts":7330,"Ġanswered":7331,"Ġranking":7332,"Ġchristianity":7333,"market":7334,"Ġmasterpiece":7335,"Ġgrove":7336,"Ġfrustr":7337,"Ġpremier":7338,"instance":7339,"Ġmillenn":7340,"Ġqualified":7341,"Ġdrove":7342,"agonist":7343,"Ġbombing":7344,"Ġcuban":7345,"Ġbathroom":7346,"Ġjamaican":7347,"Ġbuddha":7348,"Ġtransformation":7349,"Ġvictoria":7350,"Ġkorea":7351,"Ġmartinique":7352,"Ġluxury":7353,"Ġstruggle":7354,"Ġthrowing":7355,"Ġdeposit":7356,"Ġresemble":7357,"Ġkentucky":7358,"Ġuncertainty":7359,"Ġbustling":7360,"originally":7361,"Ġapplicable":7362,"Ġsophist":7363,"Ġhazard":7364,"Ġdemolished":7365,"seems":7366,"Ġcomplicated":7367,"Ġvocal":7368,"Ġlobby":7369,"congress":7370,"john":7371,"Ġwtp":7372,"Ġhersheimmer":7373,"Ġeliminated":7374,"Ġcompanion":7375,"Ġmassachusetts":7376,"80":7377,"bas":7378,"bus":7379,"cor":7380,"dep":7381,"diction":7382,"econom":7383,"given":7384,"mad":7385,"mine":7386,"maker":7387,"often":7388,"sir":7389,"six":7390,"wind":7391,"with":7392,"inity":7393,"Ġpiz":7394,"Ġted":7395,"lest":7396,"leep":7397,"leans":7398,"Ġbreaking":7399,"Ġfo":7400,"Ġfist":7401,"Ġgary":7402,"Ġlatter":7403,"Ġreagan":7404,"Ġhiring":7405,"Ġhonest":7406,"ros":7407,"isy":7408,"island":7409,"Ġnu":7410,"Ġnuc":7411,"iloh":7412,"Ġstance":7413,"Ġinher":7414,"Ġinput":7415,"rage":7416,"racted":7417,"rastructure":7418,"urban":7419,"opher":7420,"Ġker":7421,"Ġknee":7422,"Ġdeem":7423,"Ġrice":7424,"Ġrib":7425,"Ġprojection":7426,"Ġchee":7427,"Ġvba":7428,"Ġvrenna":7429,"question":7430,"term":7431,"Ġalliance":7432,"Ġjur":7433,"ester":7434,"Ġgov":7435,"eman":7436,"Ġsha":7437,"Ġsho":7438,"Ġmaker":7439,"Ġunt":7440,"Ġroger":7441,"Ġrode":7442,"Ġbeef":7443,"nesday":7444,"Ġboost":7445,"Ġquit":7446,"Ġweird":7447,"Ġimpressed":7448,"Ġimpression":7449,"osh":7450,"Ġyield":7451,"Ġusage":7452,"ultaneously":7453,"Ġopted":7454,"Ġmoham":7455,"Ġbuchanan":7456,"Ġcler":7457,"Ġorchest":7458,"Ġorleans":7459,"Ġsmooth":7460,"undit":7461,"Ġattached":7462,"Ġaccused":7463,"Ġrelating":7464,"phet":7465,"Ġfright":7466,"aki":7467,"aken":7468,"Ġgovernmental":7469,"Ġshowc":7470,"Ġshowcase":7471,"essel":7472,"Ġmarvel":7473,"Ġ1991":7474,"Ġvision":7475,"Ġintric":7476,"Ġpopul":7477,"Ġcurrency":7478,"atterbox":7479,"Ġflame":7480,"exactly":7481,"Ġparalle":7482,"Ġvaried":7483,"Ġfresco":7484,"Ġbasil":7485,"Ġresponded":7486,"Ġviewer":7487,"Ġtemporary":7488,"Ġreceiving":7489,"Ġportrait":7490,"apped":7491,"appro":7492,"Ġsummar":7493,"clear":7494,"Ġstatistical":7495,"Ġprofile":7496,"Ġsixteen":7497,"Ġpatri":7498,"Ġtransition":7499,"Ġsunlight":7500,"ushing":7501,"Ġconfir":7502,"Ġconfused":7503,"Ġstarring":7504,"Ġceased":7505,"Ġ95":7506,"Ġlacking":7507,"Ġdestru":7508,"Ġhistorically":7509,"Ġmulti":7510,"Ġarranged":7511,"Ġinfluential":7512,"Ġobserver":7513,"Ġunfunded":7514,"Ġnecessarily":7515,"Ġchecking":7516,"Ġprincess":7517,"Ġstriking":7518,"Ġdonor":7519,"Ġutility":7520,"Ġholly":7521,"Ġsweat":7522,"Ġcrossing":7523,"Ġnormally":7524,"Ġ1941":7525,"Ġinfrastructure":7526,"Ġopposed":7527,"Ġinstalled":7528,"Ġenhanced":7529,"Ġintroduction":7530,"Ġlifetime":7531,"haust":7532,"Ġincorrect":7533,"Ġrelaxing":7534,"Ġandrew":7535,"Ġdyn":7536,"Ġqualify":7537,"Ġscheduled":7538,"Ġsurvived":7539,"Ġrolling":7540,"Ġlitigation":7541,"Ġexploring":7542,"Ġdistribution":7543,"Ġfantasy":7544,"Ġlewis":7545,"Ġunlikely":7546,"Ġtokugawa":7547,"Ġguaranteed":7548,"Ġdrummer":7549,"Ġrepeat":7550,"Ġrevealed":7551,"Ġevaluate":7552,"Ġimmigration":7553,"Ġboundary":7554,"Ġsucceeded":7555,"Ġpilot":7556,"recently":7557,"Ġdepicting":7558,"Ġprosperity":7559,"Ġarchaeological":7560,"Ġstupid":7561,"Ġkennedy":7562,"Ġbradley":7563,"Ġicon":7564,"Ġsustain":7565,"Ġretrofit":7566,"Ġbankruptcy":7567,"Ġadorned":7568,"Ġconvinced":7569,"Ġnitrogen":7570,"american":7571,"Ġpicnic":7572,"quarters":7573,"participant":7574,"suggest":7575,"Ġjoseph":7576,"Ġtuesday":7577,"Ġhastings":7578,"Ġnucle":7579,"Ġcheese":7580,"Ġmohammed":7581,"200":7582,"86":7583,"bring":7584,"came":7585,"either":7586,"gent":7587,"ih":7588,"lord":7589,"mel":7590,"press":7591,"rat":7592,"sat":7593,"sque":7594,"tell":7595,"took":7596,"yd":7597,"Ġate":7598,"Ġ00":7599,"Ġistanbul":7600,"inqu":7601,"Ġsq":7602,"Ġsel":7603,"Ġpitt":7604,"Ġpian":7605,"arr":7606,"Ġtill":7607,"stair":7608,"street":7609,"Ġdip":7610,"Ġdirty":7611,"Ġby":7612,"Ġbod":7613,"Ġfate":7614,"Ġfox":7615,"Ġgand":7616,"Ġgender":7617,"Ġlad":7618,"Ġlub":7619,"ented":7620,"Ġrenovation":7621,"Ġhike":7622,"Ġhiding":7623,"iser":7624,"Ġineff":7625,"Ġkay":7626,"Ġrick":7627,"Ġvent":7628,"Ġvivid":7629,"Ġvital":7630,"ista":7631,"Ġali":7632,"Ġally":7633,"Ġjess":7634,"Ġjaw":7635,"Ġexit":7636,"esting":7637,"Ġshannon":7638,"allow":7639,"endar":7640,"ellite":7641,"Ġcairo":7642,"Ġlover":7643,"Ġloose":7644,"Ġperth":7645,"oker":7646,"Ġpepper":7647,"Ġroot":7648,"Ġenvelop":7649,"Ġpoem":7650,"Ġspoken":7651,"Ġlav":7652,"Ġresolved":7653,"agn":7654,"Ġimpose":7655,"Ġdisaster":7656,"Ġteeth":7657,"into":7658,"Ġtrader":7659,"Ġprayer":7660,"Ġagenda":7661,"cony":7662,"Ġemotion":7663,"acht":7664,"esque":7665,"Ġorn":7666,"Ġoffense":7667,"Ġoffset":7668,"Ġgoodness":7669,"ocaust":7670,"rena":7671,"Ġregime":7672,"Ġtrunk":7673,"Ġmonet":7674,"Ġruined":7675,"Ġblame":7676,"Ġdiscoura":7677,"Ġasleep":7678,"Ġobst":7679,"Ġswung":7680,"Ġpublicity":7681,"Ġperforms":7682,"Ġcurious":7683,"Ġbarb":7684,"Ġcaput":7685,"Ġrevision":7686,"Ġnotre":7687,"born":7688,"Ġbrook":7689,"Ġparking":7690,"Ġ180":7691,"Ġ187":7692,"Ġconstit":7693,"leyball":7694,"Ġmonthly":7695,"Ġsteady":7696,"Ġtested":7697,"author":7698,"otten":7699,"Ġzeal":7700,"Ġpracticing":7701,"nothing":7702,"boat":7703,"Ġconfidence":7704,"Ġcrazy":7705,"Ġgeograph":7706,"Ġ1984":7707,"Ġsatellite":7708,"Ġexists":7709,"Ġjudic":7710,"Ġcouch":7711,"Ġdocumented":7712,"wealth":7713,"Ġpleased":7714,"Ġpotentially":7715,"Ġsilly":7716,"Ġexcluded":7717,"Ġapproached":7718,"Ġremembered":7719,"Ġdemanding":7720,"Ġutah":7721,"Ġjumped":7722,"Ġsusp":7723,"Ġadmit":7724,"Ġholocaust":7725,"Ġbreakfast":7726,"particular":7727,"Ġcleaning":7728,"Ġexceptional":7729,"Ġessay":7730,"Ġexamination":7731,"Ġsculpted":7732,"Ġflavor":7733,"Ġbowling":7734,"Ġintegrity":7735,"justice":7736,"Ġintroduce":7737,"structed":7738,"Ġsurprising":7739,"Ġlinked":7740,"Ġbriefly":7741,"Ġcrystal":7742,"Ġquietly":7743,"Ġexpanding":7744,"Ġinstitutional":7745,"Ġfolklore":7746,"Ġsheet":7747,"Ġexploration":7748,"Ġsharply":7749,"early":7750,"Ġsemi":7751,"understand":7752,"Ġadvisory":7753,"Ġpilgrim":7754,"Ġnowhere":7755,"Ġpuert":7756,"Ġencountered":7757,"Ġquantity":7758,"Ġmonitoring":7759,"Ġcolonial":7760,"Ġobligation":7761,"Ġjewelry":7762,"Ġaggressive":7763,"Ġisolated":7764,"Ġacknowled":7765,"Ġoriented":7766,"Ġfrancisco":7767,"Ġadequate":7768,"Ġgraphic":7769,"Ġintriguing":7770,"Ġmetropolitan":7771,"Ġarrangement":7772,"Ġfavored":7773,"Ġearnings":7774,"Ġporch":7775,"absolutely":7776,"Ġkyoto":7777,"Ġcushion":7778,"analysis":7779,"museum":7780,"Ġthroat":7781,"Ġparallel":7782,"Ġconfirmed":7783,"Ġdynasty":7784,"11":7785,"13":7786,"22":7787,"away":7788,"bs":7789,"bage":7790,"dess":7791,"data":7792,"fur":7793,"feld":7794,"hol":7795,"later":7796,"mat":7797,"mid":7798,"num":7799,"nut":7800,"rd":7801,"vable":7802,"vana":7803,"xual":7804,"Ġil":7805,"inary":7806,"oning":7807,"Ġcm":7808,"Ġcater":7809,"Ġcute":7810,"Ġcete":7811,"Ġcfo":7812,"Ġmit":7813,"Ġmild":7814,"oration":7815,"orous":7816,"least":7817,"ste":7818,"iti":7819,"Ġdud":7820,"Ġdign":7821,"Ġdimin":7822,"Ġbork":7823,"Ġfid":7824,"Ġfame":7825,"Ġfert":7826,"Ġware":7827,"Ġgi":7828,"Ġging":7829,"Ġlung":7830,"Ġrecy":7831,"isure":7832,"ispan":7833,"ceived":7834,"eted":7835,"elder":7836,"rake":7837,"raint":7838,"seen":7839,"Ġkl":7840,"Ġdeck":7841,"ament":7842,"otal":7843,"Ġconj":7844,"Ġconrad":7845,"Ġnevada":7846,"Ġvessel":7847,"Ġseaf":7848,"Ġseaside":7849,"istol":7850,"Ġalign":7851,"Ġjet":7852,"Ġexotic":7853,"Ġexhaust":7854,"Ġgosh":7855,"orted":7856,"utor":7857,"utant":7858,"Ġmaid":7859,"Ġunemplo":7860,"Ġunexpected":7861,"Ġcake":7862,"Ġload":7863,"Ġroth":7864,"Ġrooney":7865,"Ġbearing":7866,"Ġpream":7867,"Ġpreced":7868,"Ġcob":7869,"Ġtack":7870,"Ġariz":7871,"Ġarrow":7872,"Ġsab":7873,"Ġsailing":7874,"Ġspice":7875,"area":7876,"issue":7877,"Ġfake":7878,"Ġhey":7879,"Ġamateur":7880,"Ġdisorder":7881,"Ġdiscipl":7882,"Ġyelled":7883,"Ġworkplace":7884,"Ġwhat":7885,"Ġrepl":7886,"Ġtrained":7887,"soon":7888,"Ġraid":7889,"Ġemail":7890,"epa":7891,"Ġattire":7892,"Ġbacking":7893,"Ġdecent":7894,"redient":7895,"Ġlegit":7896,"Ġcostly":7897,"Ġabroad":7898,"Ġmarc":7899,"Ġdiscrim":7900,"Ġintact":7901,"Ġdepression":7902,"Ġreturning":7903,"Ġresting":7904,"Ġsimultaneously":7905,"Ġstrongh":7906,"Ġmenu":7907,"Ġlasting":7908,"uba":7909,"Ġrevol":7910,"Ġadding":7911,"Ġaddiction":7912,"Ġoverly":7913,"Ġparag":7914,"ribly":7915,"Ġstudying":7916,"Ġlesser":7917,"Ġtechnological":7918,"Ġconsiderable":7919,"prim":7920,"Ġslim":7921,"azi":7922,"Ġclassified":7923,"Ġforecast":7924,"Ġmusee":7925,"Ġsurely":7926,"Ġcontinu":7927,"Ġmeticul":7928,"Ġequipped":7929,"prof":7930,"program":7931,"Ġmembership":7932,"Ġmorris":7933,"Ġreviewing":7934,"Ġzen":7935,"Ġzoo":7936,"Ġburning":7937,"Ġburned":7938,"Ġmerger":7939,"Ġprototype":7940,"Ġcrack":7941,"Ġ65":7942,"Ġflorence":7943,"Ġhalt":7944,"Ġwax":7945,"Ġcardinal":7946,"Ġplantation":7947,"Ġ1983":7948,"Ġ96":7949,"Ġbalcony":7950,"Ġglory":7951,"Ġgrande":7952,"Ġpicturesque":7953,"Ġminded":7954,"Ġmalisse":7955,"Ġflee":7956,"Ġgoddess":7957,"Ġchecked":7958,"Ġconditioning":7959,"Ġimplementing":7960,"Ġfocusing":7961,"forward":7962,"Ġacceptable":7963,"umbai":7964,"Ġsuffering":7965,"Ġcircle":7966,"Ġ1966":7967,"Ġmeasurement":7968,"Ġpersu":7969,"Ġcombined":7970,"Ġcriticized":7971,"Ġpurchasing":7972,"Ġreceives":7973,"Ġmatching":7974,"domin":7975,"Ġcircus":7976,"Ġextrav":7977,"Ġformerly":7978,"Ġopposing":7979,"bbing":7980,"Ġgarage":7981,"Ġgarbage":7982,"Ġsafeguard":7983,"Ġcontractor":7984,"Ġdorcas":7985,"Ġrespectively":7986,"Ġpulling":7987,"Ġramses":7988,"Ġibm":7989,"Ġautomatically":7990,"Ġefficiently":7991,"Ġ1920":7992,"Ġprinted":7993,"Ġeditorial":7994,"Ġwednesday":7995,"Ġlyric":7996,"help":7997,"Ġadjustment":7998,"Ġassertion":7999,"Ġskiing":8000,"Ġdispute":8001,"Ġdigital":8002,"adeloupe":8003,"slate":8004,"Ġpuzz":8005,"Ġvirtually":8006,"noticed":8007,"Ġthoroughly":8008,"Ġanalyst":8009,"Ġincredibly":8010,"Ġfalse":8011,"Ġcomposer":8012,"Ġsuspicion":8013,"Ġcrusader":8014,"Ġobscure":8015,"appropriate":8016,"ricane":8017,"Ġinhabitant":8018,"Ġvoluntary":8019,"Ġhobby":8020,"Ġutterly":8021,"couple":8022,"stairs":8023,"numerous":8024,"Ġstronghold":8025,"aar":8026,"blo":8027,"cre":8028,"cfa":8029,"due":8030,"dict":8031,"gus":8032,"gated":8033,"hou":8034,"lon":8035,"mi":8036,"mal":8037,"mus":8038,"mitting":8039,"pred":8040,"power":8041,"pract":8042,"tour":8043,"tuppence":8044,"ua":8045,"vest":8046,"watch":8047,"Ã¶":8048,"Ġsed":8049,"Ġsic":8050,"reach":8051,"Ġcree":8052,"enous":8053,"anc":8054,"Ġpent":8055,"Ġpall":8056,"alright":8057,"atable":8058,"Ġmas":8059,"Ġmira":8060,"stop":8061,"itively":8062,"Ġdal":8063,"Ġbh":8064,"Ġbund":8065,"Ġbless":8066,"Ġfier":8067,"Ġfoster":8068,"Ġwis":8069,"Ġwool":8070,"Ġwished":8071,"Ġgle":8072,"Ġgab":8073,"ione":8074,"Ġlin":8075,"Ġlone":8076,"Ġlift":8077,"Ġrebel":8078,"Ġhud":8079,"roman":8080,"ilian":8081,"Ġinev":8082,"rap":8083,"Ġkim":8084,"Ġdei":8085,"adrin":8086,"Ġprophet":8087,"Ġconvert":8088,"asional":8089,"Ġaller":8090,"Ġjar":8091,"Ġjog":8092,"Ġexact":8093,"Ġexquisite":8094,"Ġshark":8095,"Ġshake":8096,"Ġunrest":8097,"Ġcaf":8098,"Ġanger":8099,"Ġanimated":8100,"Ġsuicide":8101,"Ġroy":8102,"Ġbea":8103,"Ġprest":8104,"Ġcompris":8105,"Ġark":8106,"Ġquint":8107,"Ġresc":8108,"Ġreserv":8109,"Ġfault":8110,"Ġdispos":8111,"Ġwhis":8112,"Ġpartially":8113,"introdu":8114,"Ġpron":8115,"atting":8116,"attoo":8117,"soever":8118,"Ġapple":8119,"Ġappointed":8120,"Ġgrey":8121,"Ġgreuze":8122,"Ġdesper":8123,"Ġspear":8124,"Ġmonte":8125,"Ġmonarch":8126,"Ġmonkey":8127,"Ġlegacy":8128,"erton":8129,"Ġrelic":8130,"Ġrelie":8131,"Ġoutlet":8132,"scent":8133,"Ġlocally":8134,"Ġsignal":8135,"Ġsurgery":8136,"Ġvisual":8137,"Ġformally":8138,"Ġskip":8139,"Ġsketch":8140,"Ġgrave":8141,"Ġextend":8142,"Ġbarbec":8143,"Ġdistinction":8144,"Ġcharity":8145,"Ġbetray":8146,"Ġmedica":8147,"Ġaddict":8148,"Ġauction":8149,"Ġheading":8150,"Ġviewpoint":8151,"Ġlanding":8152,"standard":8153,"Ġfollower":8154,"Ġharrison":8155,"Ġtrek":8156,"Ġtrem":8157,"Ġoperates":8158,"Ġdolphin":8159,"Ġtwist":8160,"Ġcompeting":8161,"Ġmerit":8162,"Ġgenerated":8163,"abled":8164,"Ġconfig":8165,"Ġpenny":8166,"Ġ68":8167,"Ġvolleyball":8168,"Ġinitiated":8169,"irable":8170,"Ġ1986":8171,"Ġ1987":8172,"Ġdealing":8173,"Ġlovely":8174,"Ġtraveled":8175,"obile":8176,"Ġfortune":8177,"Ġsimilarly":8178,"Ġplea":8179,"Ġspecialist":8180,"Ġnato":8181,"Ġnaturally":8182,"afat":8183,"Ġexcited":8184,"Ġabsorb":8185,"Ġflew":8186,"Ġtitled":8187,"Ġoccasional":8188,"Ġheaven":8189,"Ġacquire":8190,"Ġadmission":8191,"Ġingredient":8192,"Ġcombine":8193,"Ġmadonna":8194,"Ġoccurs":8195,"Ġconvention":8196,"Ġattempting":8197,"Ġprincipal":8198,"Ġslavery":8199,"Ġtonic":8200,"Ġdestroy":8201,"Ġroyalty":8202,"Ġrapier":8203,"Ġelementary":8204,"control":8205,"common":8206,"Ġpartnership":8207,"Ġnaples":8208,"Ġstraightforward":8209,"Ġdisappointed":8210,"Ġindicate":8211,"Ġmurdered":8212,"Ġtargeted":8213,"Ġhunter":8214,"Ġjesuit":8215,"Ġruled":8216,"urbed":8217,"Ġcomparable":8218,"Ġcitizenship":8219,"Ġhoped":8220,"Ġinquiry":8221,"Ġshooting":8222,"Ġtraditionally":8223,"histor":8224,"Ġcollaboration":8225,"Ġstruggling":8226,"Ġninety":8227,"Ġaustralian":8228,"Ġcomplaint":8229,"Ġaccomplish":8230,"Ġadvocate":8231,"Ġdiverse":8232,"Ġshocked":8233,"Ġboilermakers":8234,"Ġdecreased":8235,"Ġportrayed":8236,"Ġmemorial":8237,"Ġenthusiast":8238,"nearby":8239,"Ġattributed":8240,"Ġvineyard":8241,"Ġdelightful":8242,"Ġmunicip":8243,"Ġanxious":8244,"Ġadapt":8245,"Ġboutique":8246,"Ġantonio":8247,"Ġimpeachment":8248,"Ġaccumulated":8249,"sieur":8250,"Ġenacted":8251,"etheless":8252,"Ġadvertisement":8253,"popular":8254,"Ġuniversal":8255,"necessary":8256,"Ġelaborate":8257,"Ġugly":8258,"Ġmillennium":8259,"Ġpizza":8260,"Ġgandhi":8261,"Ġenvelope":8262,"Ġornate":8263,"Ġobstacle":8264,"Ġjudicial":8265,"Ġpuerto":8266,"Ġgingrich":8267,"Ġpreamble":8268,"Ġwhatsoever":8269,"Ġdiscrimination":8270,"Ġcomprises":8271,"90":8272,"class":8273,"done":8274,"ele":8275,"fem":8276,"fare":8277,"gian":8278,"kal":8279,"rating":8280,"rather":8281,"sn":8282,"sound":8283,"sense":8284,"sburg":8285,"ture":8286,"tail":8287,"uent":8288,"vy":8289,"var":8290,"viously":8291,"win":8292,"Ġip":8293,"Ġsie":8294,"research":8295,"Ġcite":8296,"Ġcoup":8297,"enon":8298,"Ġpork":8299,"atab":8300,"around":8301,"Ġtoss":8302,"Ġmum":8303,"Ġmumbai":8304,"leading":8305,"levard":8306,"storm":8307,"itled":8308,"Ġdense":8309,"Ġdumb":8310,"Ġbone":8311,"Ġbaz":8312,"Ġfare":8313,"Ġfighter":8314,"Ġfbi":8315,"Ġarena":8316,"Ġgorge":8317,"Ġlon":8318,"Ġlush":8319,"Ġree":8320,"Ġreh":8321,"Ġrenov":8322,"Ġhorn":8323,"lyn":8324,"omo":8325,"isa":8326,"isp":8327,"Ġnave":8328,"eli":8329,"elly":8330,"idency":8331,"Ġinnov":8332,"rained":8333,"sement":8334,"thal":8335,"thorn":8336,"amin":8337,"Ġrip":8338,"Ġrico":8339,"keep":8340,"Ġthrew":8341,"Ġchan":8342,"Ġchop":8343,"Ġchocol":8344,"united":8345,"ifting":8346,"Ġalan":8347,"uma":8348,"Ġexem":8349,"Ġleisure":8350,"utch":8351,"article":8352,"Ġmansion":8353,"Ġworsh":8354,"Ġcass":8355,"Ġlocked":8356,"Ġroc":8357,"Ġpreach":8358,"Ġcohen":8359,"Ġtactic":8360,"Ġspell":8361,"Ġlap":8362,"Ġyearly":8363,"itty":8364,"Ġresign":8365,"ordon":8366,"Ġcontrary":8367,"agg":8368,"Ġyad":8369,"Ġpriced":8370,"Ġraj":8371,"contra":8372,"Ġemotional":8373,"Ġclim":8374,"esa":8375,"cession":8376,"pleasant":8377,"Ġcarving":8378,"Ġfeasible":8379,"Ġconscious":8380,"Ġattest":8381,"Ġregret":8382,"Ġmonsieur":8383,"Ġhavana":8384,"Ġprogressive":8385,"Ġguadeloupe":8386,"Ġpresc":8387,"Ġcosting":8388,"scription":8389,"Ġprovince":8390,"atherine":8391,"Ġphen":8392,"acco":8393,"Ġsubt":8394,"Ġsuburban":8395,"avier":8396,"begin":8397,"Ġmarg":8398,"Ġmarsh":8399,"Ġartific":8400,"Ġwright":8401,"Ġsurge":8402,"Ġpersonality":8403,"Ġedward":8404,"Ġeleven":8405,"Ġintent":8406,"Ġrestoration":8407,"Ġwaterfall":8408,"Ġende":8409,"Ġlasted":8410,"Ġcharm":8411,"Ġdetect":8412,"Ġdetective":8413,"Ġgirlfriend":8414,"ansas":8415,"borne":8416,"icacy":8417,"Ġimported":8418,"Ġflash":8419,"exam":8420,"Ġclever":8421,"Ġ185":8422,"print":8423,"Ġpolitically":8424,"Ġinvesting":8425,"Ġsucc":8426,"Ġ47":8427,"Ġeaster":8428,"Ġmetre":8429,"apping":8430,"inai":8431,"Ġoperational":8432,"Ġmainland":8433,"produ":8434,"Ġpalest":8435,"fection":8436,"Ġprevention":8437,"Ġcannon":8438,"Ġpatron":8439,"Ġsecondary":8440,"Ġerected":8441,"Ġ600":8442,"Ġ176":8443,"Ġwooded":8444,"Ġimpacted":8445,"asked":8446,"Ġglimp":8447,"Ġcoastline":8448,"bridge":8449,"Ġsuperb":8450,"Ġassessing":8451,"Ġabsent":8452,"Ġdonald":8453,"Ġsuffer":8454,"Ġadmir":8455,"track":8456,"Ġcontributed":8457,"Ġpacked":8458,"Ġdevil":8459,"Ġlaboratory":8460,"Ġgrassy":8461,"Ġ250":8462,"Ġessentially":8463,"Ġconnected":8464,"Ġexamine":8465,"Ġcandy":8466,"Ġrented":8467,"etto":8468,"liest":8469,"related":8470,"Ġdowntown":8471,"Ġgateway":8472,"Ġphilip":8473,"Ġwildlife":8474,"everyone":8475,"Ġautomated":8476,"Ġtouched":8477,"Ġawareness":8478,"iably":8479,"wait":8480,"Ġreflects":8481,"Ġreflecting":8482,"Ġpushed":8483,"Ġceramic":8484,"Ġexperiencing":8485,"Ġhoused":8486,"Ġbirthday":8487,"theless":8488,"Ġremove":8489,"Ġcounseling":8490,"held":8491,"Ġadjusted":8492,"Ġalleg":8493,"Ġnegotiation":8494,"Ġkentuckian":8495,"Ġresistance":8496,"Ġdecreasing":8497,"Ġiraq":8498,"Ġterrorist":8499,"Ġdetermining":8500,"Ġpowell":8501,"Ġlinda":8502,"Ġpursue":8503,"Ġpursued":8504,"Ġolymp":8505,"Ġdialect":8506,"Ġleonardo":8507,"continued":8508,"crowd":8509,"Ġlodge":8510,"Ġprocure":8511,"Ġsunglass":8512,"Ġbureau":8513,"Ġinterrupted":8514,"Ġindigenous":8515,"Ġdiamond":8516,"Ġannouncement":8517,"Ġpedestrian":8518,"Ġrabbit":8519,"Ġjungle":8520,"Ġindifferent":8521,"Ġtongue":8522,"Ġtobacco":8523,"Ġintricate":8524,"Ġdestruction":8525,"Ġhollywood":8526,"Ġarizona":8527,"Ġmedicaid":8528,"atabase":8529,"Ġbazaar":8530,"Ġchocolate":8531,"Ġglimpse":8532,"26":8533,"34":8534,"42":8535,"bell":8536,"bes":8537,"cap":8538,"gam":8539,"gone":8540,"ked":8541,"mont":8542,"million":8543,"oop":8544,"oard":8545,"pd":8546,"pen":8547,"pson":8548,"run":8549,"sr":8550,"test":8551,"timate":8552,"uble":8553,"vre":8554,"vas":8555,"vised":8556,"wed":8557,"zo":8558,"zer":8559,"erg":8560,"Ġslo":8561,"Ġsinai":8562,"Ġcod":8563,"Ġcord":8564,"Ġcale":8565,"alf":8566,"altern":8567,"arre":8568,"Ġtoe":8569,"Ġtodd":8570,"oria":8571,"left":8572,"stitution":8573,"Ġdot":8574,"Ġdio":8575,"Ġduc":8576,"Ġdatabase":8577,"Ġbam":8578,"Ġbount":8579,"Ġbauer":8580,"Ġfet":8581,"Ġfern":8582,"Ġfena":8583,"oul":8584,"Ġwo":8585,"Ġwow":8586,"Ġwore":8587,"icious":8588,"iceman":8589,"Ġak":8590,"Ġgis":8591,"Ġgop":8592,"Ġgulf":8593,"Ġlith":8594,"Ġrever":8595,"Ġrecycle":8596,"Ġhockey":8597,"Ġhispan":8598,"Ġnerv":8599,"Ġstunt":8600,"ido":8601,"idal":8602,"iva":8603,"imation":8604,"season":8605,"church":8606,"Ġkaz":8607,"Ġkarf":8608,"additional":8609,"Ġrational":8610,"andy":8611,"andise":8612,"irc":8613,"Ġthir":8614,"Ġchin":8615,"Ġchase":8616,"Ġchatterbox":8617,"asian":8618,"Ġvon":8619,"Ġvault":8620,"unfort":8621,"istically":8622,"usive":8623,"lastic":8624,"Ġ1000":8625,"Ġshrug":8626,"Ġshiloh":8627,"Ġshinto":8628,"utory":8629,"Ġmanip":8630,"Ġunhappy":8631,"Ġcage":8632,"Ġloyal":8633,"irect":8634,"Ġbeast":8635,"Ġbeating":8636,"ousin":8637,"Ġcompr":8638,"Ġpoly":8639,"Ġadjacent":8640,"Ġtag":8641,"Ġspar":8642,"Ġlaund":8643,"russ":8644,"Ġincom":8645,"Ġweed":8646,"Ġnewest":8647,"Ġconting":8648,"Ġimposed":8649,"Ġamen":8650,"Ġamph":8651,"Ġreply":8652,"Ġscript":8653,"Ġaged":8654,"Ġaging":8655,"apore":8656,"Ġgreg":8657,"Ġrecre":8658,"Ġneedle":8659,"atively":8660,"Ġpace":8661,"Ġpaved":8662,"Ġpaula":8663,"athan":8664,"Ġtrim":8665,"Ġaccent":8666,"Ġhelm":8667,"Ġpresum":8668,"Ġouts":8669,"Ġoutlay":8670,"phia":8671,"Ġscheme":8672,"Ġaboard":8673,"acca":8674,"Ġwarner":8675,"beh":8676,"Ġsupplier":8677,"Ġartistic":8678,"Ġblind":8679,"Ġsurpass":8680,"Ġpopulated":8681,"Ġmodified":8682,"roller":8683,"Ġsimon":8684,"Ġdelhi":8685,"Ġmuscle":8686,"Ġdistant":8687,"lessly":8688,"Ġnotion":8689,"Ġparticle":8690,"Ġ38":8691,"Ġfilter":8692,"posed":8693,"Ġvariation":8694,"Ġaffirm":8695,"Ġ56":8696,"Ġcalendar":8697,"Ġstepped":8698,"Ġharass":8699,"Ġinsufficient":8700,"Ġquestioned":8701,"Ġequival":8702,"club":8703,"Ġpatrick":8704,"Ġzero":8705,"Ġgenerate":8706,"Ġconfront":8707,"Ġprotagonist":8708,"Ġchris":8709,"Ġ67":8710,"Ġdelivering":8711,"Ġexecuted":8712,"Ġsecured":8713,"Ġwaited":8714,"Ġbrah":8715,"Ġbraz":8716,"iracy":8717,"Ġupcoming":8718,"Ġ700":8719,"Ġ97":8720,"Ġsalam":8721,"Ġexisted":8722,"Ġnationwide":8723,"Ġsquad":8724,"Ġlacked":8725,"Ġfortunate":8726,"Ġsolo":8727,"Ġpromoted":8728,"Ġsilence":8729,"Ġexcuse":8730,"Ġmotion":8731,"Ġdominated":8732,"Ġapache":8733,"Ġstrongly":8734,"Ġconsuming":8735,"Ġsnowy":8736,"Ġ1969":8737,"Ġhurricane":8738,"Ġcrossed":8739,"Ġdavis":8740,"Ġjuan":8741,"iliation":8742,"Ġfancy":8743,"itzer":8744,"Ġautomobile":8745,"Ġthere":8746,"Ġxavier":8747,"Ġdecorative":8748,"Ġultimate":8749,"Ġcaptain":8750,"Ġshoreline":8751,"visor":8752,"Ġdeserted":8753,"Ġbutter":8754,"Ġmeaningful":8755,"Ġexplorer":8756,"Ġinjured":8757,"glas":8758,"Ġescaped":8759,"Ġmerchandise":8760,"Ġdividend":8761,"sometimes":8762,"Ġastron":8763,"Ġsatisfaction":8764,"Ġproceeding":8765,"adelphia":8766,"Ġseverely":8767,"Ġinvestigator":8768,"Ġconquered":8769,"Ġallocation":8770,"Ġallocated":8771,"Ġpoetry":8772,"Ġarrested":8773,"Ġrobust":8774,"majority":8775,"Ġboulevard":8776,"Ġaccommodate":8777,"Ġforbes":8778,"Ġolympic":8779,"Ġouter":8780,"Ġsequence":8781,"Ġcontroversial":8782,"Ġrecruit":8783,"critic":8784,"Ġpuppy":8785,"Ġgesture":8786,"Ġfeminist":8787,"Ġbalear":8788,"Ġaccusation":8789,"uccessful":8790,"Ġbasilica":8791,"Ġnuclear":8792,"elderly":8793,"Ġparagraph":8794,"Ġbarbecue":8795,"Ġconfiguration":8796,"Ġnervous":8797,"89":8798,"bally":8799,"det":8800,"dam":8801,"dav":8802,"easy":8803,"fight":8804,"hs":8805,"how":8806,"hot":8807,"hill":8808,"ias":8809,"luck":8810,"mn":8811,"master":8812,"note":8813,"ois":8814,"py":8815,"poss":8816,"payer":8817,"tical":8818,"tole":8819,"uber":8820,"vance":8821,"villa":8822,"wn":8823,"wow":8824,"Ġod":8825,"erally":8826,"erable":8827,"Ġslack":8828,"Ġcany":8829,"Ġcatherine":8830,"enc":8831,"anim":8832,"Ġpont":8833,"Ġptole":8834,"alo":8835,"inge":8836,"Ġtort":8837,"Ġtattoo":8838,"Ġmi":8839,"Ġmound":8840,"Ġmower":8841,"store":8842,"itle":8843,"itage":8844,"itivity":8845,"Ġdull":8846,"Ġdread":8847,"Ġdagger":8848,"Ġbot":8849,"Ġbun":8850,"Ġbri":8851,"Ġbog":8852,"Ġbree":8853,"Ġfda":8854,"Ġfcc":8855,"Ġwale":8856,"Ġwash":8857,"Ġgagas":8858,"Ġliv":8859,"Ġrevers":8860,"Ġnag":8861,"Ġnbc":8862,"cel":8863,"eteen":8864,"Ġstro":8865,"Ġstom":8866,"Ġstir":8867,"Ġinse":8868,"Ġinac":8869,"olas":8870,"ayed":8871,"Ġuph":8872,"chap":8873,"chair":8874,"opened":8875,"Ġku":8876,"Ġkat":8877,"Ġdeemed":8878,"ador":8879,"advant":8880,"amiliar":8881,"ateau":8882,"Ġridge":8883,"Ġchasing":8884,"mentera":8885,"Ġvet":8886,"Ġvoted":8887,"Ġvinci":8888,"cker":8889,"umble":8890,"Ġexagger":8891,"estyle":8892,"Ġshu":8893,"utes":8894,"utral":8895,"riel":8896,"ripp":8897,"Ġunnecessary":8898,"Ġcaes":8899,"Ġbegun":8900,"Ġcompat":8901,"Ġcompound":8902,"Ġcoord":8903,"Ġcosm":8904,"herever":8905,"Ġspark":8906,"Ġlak":8907,"Ġincl":8908,"Ġreserved":8909,"Ġevolved":8910,"Ġimposing":8911,"Ġamusing":8912,"Ġdisability":8913,"Ġdisgust":8914,"Ġdisregard":8915,"Ġyan":8916,"thermore":8917,"techn":8918,"rowned":8919,"Ġcarbon":8920,"Ġsmell":8921,"Ġdesired":8922,"owner":8923,"icked":8924,"iverse":8925,"Ġplaid":8926,"Ġwayne":8927,"Ġsoap":8928,"enspan":8929,"erted":8930,"Ġwanting":8931,"phy":8932,"Ġfris":8933,"Ġclosing":8934,"Ġlocate":8935,"Ġsubway":8936,"Ġartisan":8937,"Ġforgot":8938,"Ġvisa":8939,"Ġinstinct":8940,"Ġpublicly":8941,"Ġhomeless":8942,"plane":8943,"Ġaviv":8944,"grand":8945,"Ġnotably":8946,"Ġfundra":8947,"Ġairplane":8948,"mere":8949,"Ġfarther":8950,"Ġflu":8951,"Ġflank":8952,"Ġfiled":8953,"Ġvariable":8954,"Ġtaxpayer":8955,"Ġcontrolling":8956,"Ġauditing":8957,"Ġinvested":8958,"Ġ54":8959,"Ġ59":8960,"Ġadvent":8961,"Ġnortheast":8962,"ikh":8963,"Ġ43":8964,"Ġaccountant":8965,"Ġmetap":8966,"Ġrefresh":8967,"Ġavailability":8968,"Ġpalazzo":8969,"Ġstatutory":8970,"Ġtransmission":8971,"Ġshortly":8972,"Ġbadly":8973,"Ġburial":8974,"ughes":8975,"Ġexecution":8976,"Ġ62":8977,"Ġlowest":8978,"Ġmodeling":8979,"Ġreferral":8980,"awak":8981,"Ġbasement":8982,"Ġsuggesting":8983,"Ġdouglas":8984,"Ġdiscusses":8985,"Ġspecialty":8986,"brit":8987,"Ġromanesque":8988,"paper":8989,"Ġsupervisor":8990,"Ġ88":8991,"Ġstruck":8992,"Ġfrequency":8993,"Ġdomain":8994,"Ġabsence":8995,"burger":8996,"Ġunfamiliar":8997,"Ġspends":8998,"Ġbeautifully":8999,"Ġeighteen":9000,"Ġacceptance":9001,"Ġshareholder":9002,"ointment":9003,"Ġhurry":9004,"Ġattacking":9005,"limited":9006,"Ġtransp":9007,"firm":9008,"Ġcooked":9009,"Ġ1940":9010,"Ġconvince":9011,"Ġsettler":9012,"Ġbiography":9013,"evidence":9014,"etta":9015,"Ġmartial":9016,"Ġgaining":9017,"Ġverification":9018,"Ġpollutant":9019,"Ġnonex":9020,"Ġchoir":9021,"Ġsnack":9022,"located":9023,"Ġcorrectly":9024,"Ġangle":9025,"sky":9026,"Ġphiladelphia":9027,"Ġfragment":9028,"esticide":9029,"Ġautomatic":9030,"someone":9031,"Ġlifted":9032,"Ġlifestyle":9033,"Ġelectronics":9034,"Ġdisappeared":9035,"Ġethical":9036,"Ġvirus":9037,"Ġliterary":9038,"Ġlaying":9039,"Ġqualitative":9040,"Ġadditionally":9041,"Ġexclusive":9042,"Ġflexible":9043,"Ġspiritual":9044,"Ġbelongs":9045,"Ġtransformed":9046,"Ġlyon":9047,"Ġvegetation":9048,"Ġenhancement":9049,"Ġscorecard":9050,"Ġcertified":9051,"Ġhighlighted":9052,"Ġdistributed":9053,"Ġlengthy":9054,"Ġescal":9055,"Ġbeneficiary":9056,"Ġcalculated":9057,"Ġutilize":9058,"Ġconducting":9059,"Ġevaluating":9060,"Ġranked":9061,"Ġalleged":9062,"Ġpermanently":9063,"Ġrevolutionary":9064,"Ġtoll":9065,"Ġdelayed":9066,"horse":9067,"viated":9068,"Ġatlantic":9069,"Ġstaircase":9070,"Ġtuition":9071,"Ġprosperous":9072,"close":9073,"world":9074,"Ġtranslation":9075,"Ġstrictly":9076,"Ġwrap":9077,"Ġincredible":9078,"Ġwrestling":9079,"discuss":9080,"Ġrigid":9081,"Ġjacob":9082,"Ġassembly":9083,"Ġleaning":9084,"Ġaxe":9085,"Ġdistinguished":9086,"summer":9087,"Ġlicense":9088,"Ġdismissed":9089,"Ġsponsored":9090,"Ġoverseas":9091,"mandu":9092,"Ġshouted":9093,"japan":9094,"Ġsophisticated":9095,"Ġorchestra":9096,"Ġextravag":9097,"Ġbundle":9098,"Ġgabriel":9099,"Ġinnovative":9100,"Ġyadda":9101,"Ġphenom":9102,"Ġcanyon":9103,"21":9104,"48":9105,"bit":9106,"bro":9107,"bow":9108,"bull":9109,"ean":9110,"eat":9111,"eve":9112,"fr":9113,"game":9114,"gerton":9115,"has":9116,"late":9117,"mate":9118,"method":9119,"nd":9120,"ni":9121,"nar":9122,"offic":9123,"pul":9124,"past":9125,"risk":9126,"rates":9127,"sus":9128,"significant":9129,"tion":9130,"vil":9131,"washington":9132,"watched":9133,"yment":9134,"Ã¼":9135,"Ġq":9136,"intern":9137,"Ġsigh":9138,"Ġsne":9139,"ref":9140,"republ":9141,"onse":9142,"onial":9143,"Ġced":9144,"enna":9145,"Ġtul":9146,"Ġtusc":9147,"Ġment":9148,"Ġmam":9149,"oro":9150,"step":9151,"Ġdow":9152,"Ġdub":9153,"Ġbru":9154,"Ġbik":9155,"Ġfict":9156,"Ġfred":9157,"Ġfaint":9158,"Ġwas":9159,"Ġwherever":9160,"Ġaz":9161,"Ġglow":9162,"Ġgram":9163,"Ġgordon":9164,"Ġeater":9165,"Ġreim":9166,"Ġreass":9167,"Ġreverse":9168,"Ġhow":9169,"Ġhence":9170,"Ġhint":9171,"Ġhatch":9172,"Ġhook":9173,"Ġhond":9174,"rog":9175,"Ġnas":9176,"ctive":9177,"elon":9178,"eling":9179,"Ġstan":9180,"aya":9181,"owa":9182,"iga":9183,"igger":9184,"imon":9185,"seemed":9186,"thm":9187,"urt":9188,"urious":9189,"Ġdean":9190,"ges":9191,"Ġrude":9192,"ando":9193,"Ġchuck":9194,"Ġconsecut":9195,"Ġneutral":9196,"Ġcomic":9197,"unlike":9198,"qual":9199,"quet":9200,"Ġalike":9201,"umin":9202,"Ġshifted":9203,"Ġuncover":9204,"Ġunpleasant":9205,"Ġuniverse":9206,"Ġcaut":9207,"Ġcaution":9208,"log":9209,"locked":9210,"Ġrobe":9211,"rychn":9212,"Ġarafat":9213,"Ġincons":9214,"pered":9215,"neath":9216,"Ġquar":9217,"Ġquoted":9218,"former":9219,"Ġhesit":9220,"aga":9221,"Ġimply":9222,"Ġwhip":9223,"Ġtractor":9224,"atty":9225,"Ġraw":9226,"Ġmood":9227,"tex":9228,"Ġoffensive":9229,"Ġgreenspan":9230,"Ġconsp":9231,"Ġbacked":9232,"Ġtrigger":9233,"Ġmonster":9234,"Ġhaul":9235,"Ġinvader":9236,"typ":9237,"type":9238,"angle":9239,"Ġentitled":9240,"Ġrug":9241,"erald":9242,"Ġoutlook":9243,"scope":9244,"Ġlawsuit":9245,"Ġproducing":9246,"Ġabc":9247,"Ġdefine":9248,"Ġdefender":9249,"Ġsubmission":9250,"Ġwarned":9251,"beyond":9252,"Ġbluff":9253,"Ġdisco":9254,"ologically":9255,"Ġobjection":9256,"Ġswamp":9257,"Ġedgerton":9258,"Ġpayroll":9259,"Ġcoroner":9260,"Ġintim":9261,"Ġcrete":9262,"cursion":9263,"Ġbarn":9264,"Ġbarry":9265,"ceptive":9266,"Ġsitcom":9267,"Ġposted":9268,"def":9269,"Ġflute":9270,"exc":9271,"Ġparish":9272,"Ġpointing":9273,"Ġchewing":9274,"Ġsingapore":9275,"Ġaffection":9276,"Ġthoughtfully":9277,"Ġconstraint":9278,"Ġreadily":9279,"Ġ53":9280,"Ġhotline":9281,"Ġsteven":9282,"Ġfollows":9283,"Ġporto":9284,"Ġwalker":9285,"Ġharlem":9286,"Ġinsisted":9287,"Ġreasonably":9288,"rett":9289,"Ġreflection":9290,"Ġcentered":9291,"problem":9292,"Ġsummary":9293,"Ġshortage":9294,"Ġreviewer":9295,"Ġjohnny":9296,"boo":9297,"Ġprojected":9298,"Ġchronic":9299,"Ġcultiv":9300,"Ġmilan":9301,"Ġ170":9302,"Ġrisky":9303,"Ġbrass":9304,"Ġbrave":9305,"Ġ1982":9306,"Ġcommonwealth":9307,"Ġadministered":9308,"Ġbloom":9309,"Ġcommented":9310,"Ġcommentary":9311,"Ġdescend":9312,"Ġhalfway":9313,"Ġherb":9314,"Ġprompt":9315,"Ġpromotion":9316,"Ġperiodical":9317,"Ġpreferable":9318,"Ġarriving":9319,"Ġarrival":9320,"Ġsounded":9321,"Ġcataly":9322,"Ġdrawer":9323,"Ġemerged":9324,"Ġballoon":9325,"Ġstuffed":9326,"Ġoptim":9327,"looked":9328,"heart":9329,"Ġexplod":9330,"Ġdemanded":9331,"Ġcontaining":9332,"Ġsuspected":9333,"Ġcruc":9334,"traditional":9335,"Ġevaluated":9336,"Ġinstructor":9337,"incre":9338,"Ġdivide":9339,"Ġrequester":9340,"Ġ1945":9341,"Ġpanor":9342,"Ġconviction":9343,"Ġbanana":9344,"Ġextraordinary":9345,"Ġlimitation":9346,"Ġnarrative":9347,"Ġinfant":9348,"Ġownership":9349,"Ġsnake":9350,"Ġtomato":9351,"ska":9352,"Ã©e":9353,"Ġdeeply":9354,"Ġsupposedly":9355,"Ġpredicted":9356,"Ġscreenplay":9357,"Ġfranco":9358,"Ġdisappro":9359,"Ġethic":9360,"Ġcasa":9361,"Ġliterally":9362,"Ġxv":9363,"Ġlayer":9364,"court":9365,"Ġcollecting":9366,"Ġcollective":9367,"Ġimagined":9368,"Ġaccompan":9369,"Ġinspiration":9370,"Ġbelonging":9371,"wanted":9372,"Ġidiot":9373,"Ġtalented":9374,"Ġhello":9375,"Ġinquired":9376,"Ġpossession":9377,"Ġadviser":9378,"Ġcollaborate":9379,"Ġstretched":9380,"Ġsatisfied":9381,"Ġiowa":9382,"Ġnineteen":9383,"Ġconsultant":9384,"poirot":9385,"Ġvirtual":9386,"Ġconquest":9387,"Ġagriculture":9388,"expensive":9389,"Ġbolt":9390,"Ġreminder":9391,"Ġadvocacy":9392,"Ġwrapped":9393,"Ġdetermination":9394,"Ġclinic":9395,"Ġacknowledge":9396,"Ġdeparture":9397,"initial":9398,"Ġbrowser":9399,"Ġprecisely":9400,"Ġforgotten":9401,"Ġconstitutional":9402,"green":9403,"Ġmathem":9404,"response":9405,"Ġhawai":9406,"Ġtoxic":9407,"Ġlamb":9408,"Ġencompasses":9409,"Ġfacilitate":9410,"Ġswedish":9411,"Ġrhythm":9412,"Ġabbre":9413,"Ġmalaysia":9414,"Ġridiculous":9415,"throughout":9416,"Ġpursuing":9417,"Ġjesse":9418,"furthermore":9419,"Ġrevolt":9420,"Ġsicily":9421,"Ġfierce":9422,"Ġsiege":9423,"Ġartificial":9424,"Ġendeavor":9425,"Ġolympics":9426,"Ġprocurement":9427,"Ġbamboo":9428,"Ġthirteen":9429,"unfortunately":9430,"Ġequivalent":9431,"Ġphenomenon":9432,"republican":9433,"Ġconsecutive":9434,"rychnine":9435,"cod":9436,"die":9437,"dale":9438,"dave":9439,"daugh":9440,"eper":9441,"eval":9442,"fp":9443,"fly":9444,"fra":9445,"fman":9446,"iar":9447,"iard":9448,"iated":9449,"jul":9450,"mir":9451,"mart":9452,"mill":9453,"mass":9454,"nin":9455,"none":9456,"nice":9457,"named":9458,"oiled":9459,"pent":9460,"present":9461,"possible":9462,"rie":9463,"rous":9464,"rical":9465,"ridge":9466,"sad":9467,"tru":9468,"total":9469,"troller":9470,"vity":9471,"wi":9472,"ws":9473,"wau":9474,"wara":9475,"zare":9476,"inn":9477,"Ġcott":9478,"anian":9479,"Ġtire":9480,"Ġtends":9481,"Ġmature":9482,"sted":9483,"Ġdum":9484,"Ġdorm":9485,"Ġbin":9486,"Ġfork":9487,"Ġfled":9488,"Ġfilling":9489,"Ġwider":9490,"icating":9491,"Ġgym":9492,"Ġlas":9493,"Ġlump":9494,"Ġes":9495,"Ġease":9496,"Ġreed":9497,"Ġhay":9498,"Ġhamp":9499,"Ġhcfa":9500,"Ġstor":9501,"Ġstability":9502,"Ġinappropriate":9503,"rak":9504,"sem":9505,"thian":9506,"Ġkar":9507,"Ġriv":9508,"keeping":9509,"Ġneo":9510,"Ġnestor":9511,"ounce":9512,"asm":9513,"ifle":9514,"Ġalph":9515,"Ġaltered":9516,"establ":9517,"laud":9518,"Ġsher":9519,"Ġshog":9520,"Ġshep":9521,"nowadays":9522,"Ġmaus":9523,"rio":9524,"Ġworn":9525,"Ġunve":9526,"Ġunaff":9527,"Ġunpre":9528,"Ġunanim":9529,"inee":9530,"Ġance":9531,"Ġpertain":9532,"cia":9533,"Ġrod":9534,"ounded":9535,"Ġbean":9536,"Ġcomptroller":9537,"Ġenlight":9538,"Ġadher":9539,"Ġsphere":9540,"Ġlabour":9541,"Ġincon":9542,"Ġreside":9543,"bler":9544,"agle":9545,"agogue":9546,"Ġevolving":9547,"osa":9548,"Ġdisadvant":9549,"Ġtrauma":9550,"Ġscor":9551,"Ġindul":9552,"Ġindones":9553,"conne":9554,"construction":9555,"Ġcommander":9556,"Ġbuyer":9557,"Ġacted":9558,"Ġactiv":9559,"Ġcarl":9560,"Ġcarlos":9561,"Ġgreco":9562,"Ġbackpack":9563,"Ġdeclining":9564,"Ġpavement":9565,"Ġregent":9566,"angular":9567,"phis":9568,"Ġcounted":9569,"scar":9570,"Ġgenetic":9571,"Ġchildhood":9572,"aco":9573,"Ġdefensive":9574,"Ġwarrant":9575,"began":9576,"Ġmartha":9577,"Ġbelly":9578,"Ġblouse":9579,"Ġformentera":9580,"osexual":9581,"Ġmineral":9582,"center":9583,"Ġintake":9584,"Ġdepiction":9585,"spond":9586,"Ġskating":9587,"Ġgaze":9588,"Ġorganic":9589,"Ġdoom":9590,"curate":9591,"Ġgrabbed":9592,"Ġbarbar":9593,"Ġbarrier":9594,"Ġunderneath":9595,"oleum":9596,"Ġovert":9597,"Ġovercome":9598,"Ġovertime":9599,"defin":9600,"Ġfarming":9601,"priv":9602,"Ġhardware":9603,"Ġslam":9604,"Ġnightlife":9605,"Ġheaded":9606,"nessee":9607,"Ġ58":9608,"Ġadvised":9609,"Ġharvard":9610,"Ġeasiest":9611,"Ġquestioning":9612,"Ġarchive":9613,"Ġtransit":9614,"Ġ2017":9615,"Ġprobability":9616,"Ġcraig":9617,"Ġgeomet":9618,"Ġmilo":9619,"Ġvillager":9620,"Ġ179":9621,"Ġyorker":9622,"goal":9623,"spec":9624,"Ġcharacterized":9625,"Ġthrill":9626,"Ġ98":9627,"Ġ99":9628,"onym":9629,"Ġhillary":9630,"Ġpottery":9631,"Ġheritage":9632,"Ġenclo":9633,"Ġcivic":9634,"Ġstruct":9635,"Ġ1974":9636,"Ġ1977":9637,"Ġ1978":9638,"Ġfleet":9639,"factory":9640,"zzling":9641,"Ġforeigner":9642,"Ġdonkey":9643,"Ġlowered":9644,"Ġ1953":9645,"Ġcorrespond":9646,"Ġadmire":9647,"Ġ1962":9648,"Ġhurdle":9649,"ouched":9650,"Ġmurm":9651,"Ġsweeping":9652,"Ġrecognition":9653,"Ġlaborer":9654,"Ġtranqu":9655,"ovitz":9656,"Ġglobally":9657,"Ġembra":9658,"Ġpetition":9659,"Ġlegislature":9660,"Ġbanner":9661,"Ġbias":9662,"Ġcircular":9663,"Ġexplaining":9664,"Ġmystic":9665,"namic":9666,"Ġmaintains":9667,"Ġprofitable":9668,"Ġsympath":9669,"Ġfixing":9670,"Ġhamburger":9671,"Ġignoring":9672,"Ġscenic":9673,"ski":9674,"Ġramp":9675,"Ġnominee":9676,"Ġmistress":9677,"Ġcrafted":9678,"Ġsevent":9679,"Ġcasual":9680,"tax":9681,"Ġtimber":9682,"Ġgaming":9683,"Ġ1930":9684,"Ġextensively":9685,"Ġprospective":9686,"Ġspectator":9687,"Ġbirthplace":9688,"pretty":9689,"Ġmelaka":9690,"Ġaccurately":9691,"ennial":9692,"Ġdistinctive":9693,"Ġpierre":9694,"Ġcalculation":9695,"versely":9696,"Ġluxor":9697,"Ġunfortunate":9698,"Ġupdate":9699,"Ġbyzantium":9700,"Ġillustrates":9701,"Ġalexand":9702,"Ġdependent":9703,"Ġcomplain":9704,"Ġoverlooking":9705,"Ġliqu":9706,"Ġoxide":9707,"Ġfaithful":9708,"Ġknock":9709,"Ġlogical":9710,"Ġemphasize":9711,"Ġstreamlined":9712,"Ġsubsequently":9713,"Ġstupa":9714,"Ġprepares":9715,"Ġhypocr":9716,"Ġanxiety":9717,"Ġmechanism":9718,"Ġflourished":9719,"difference":9720,"Ġrebell":9721,"Ġunsuccessful":9722,"Ġnegotiated":9723,"Ġwilson":9724,"Ġminiature":9725,"worthy":9726,"model":9727,"Ġgranite":9728,"Ġanalyzed":9729,"Ġregistered":9730,"Ġswiftly":9731,"Ġmichelangel":9732,"culiar":9733,"Ġstere":9734,"better":9735,"Ġkathmandu":9736,"Ġreluctant":9737,"Ġrubber":9738,"Ġoverwhelming":9739,"Ġscrutiny":9740,"Ġcompromise":9741,"Ġwizard":9742,"Ġpiano":9743,"Ġacknowledged":9744,"Ġdudovitz":9745,"Ġrecycling":9746,"Ġseafood":9747,"primary":9748,"Ġallergy":9749,"Ġjogging":9750,"Ġrenovated":9751,"Ġattestation":9752,"Ġdiox":9753,"Ġbounty":9754,"Ġlaundry":9755,"david":9756,"Ġbotan":9757,"Ġfundraising":9758,"Ġextravagant":9759,"Ġcedar":9760,"Ġhawaiian":9761,"daughter":9762,"julius":9763,"waukee":9764,"Ġmichelangelo":9765,"aver":9766,"aire":9767,"bent":9768,"bank":9769,"cow":9770,"cla":9771,"call":9772,"cross":9773,"dar":9774,"dou":9775,"eor":9776,"free":9777,"fund":9778,"france":9779,"give":9780,"gage":9781,"gentle":9782,"ho":9783,"hong":9784,"huh":9785,"honestly":9786,"iat":9787,"jm":9788,"kim":9789,"knew":9790,"liss":9791,"lik":9792,"mare":9793,"mag":9794,"matic":9795,"oen":9796,"park":9797,"sant":9798,"sia":9799,"tem":9800,"told":9801,"wall":9802,"will":9803,"yp":9804,"zhou":9805,"Ãº":9806,"Ġie":9807,"Ġern":9808,"Ġander":9809,"Ġsr":9810,"Ġsour":9811,"Ġcp":9812,"Ġcem":9813,"Ġcelt":9814,"ancial":9815,"Ġpud":9816,"Ġpour":9817,"Ġpatch":9818,"Ġpony":9819,"Ġpunk":9820,"Ġpundit":9821,"Ġpesticide":9822,"alb":9823,"arium":9824,"Ġtile":9825,"Ġtooth":9826,"orus":9827,"star":9828,"Ġdive":9829,"Ġdried":9830,"Ġbind":9831,"Ġbiz":9832,"Ġbalk":9833,"Ġbened":9834,"Ġfrowned":9835,"Ġfwi":9836,"Ġwy":9837,"Ġwake":9838,"Ġaic":9839,"Ġaired":9840,"Ġaunt":9841,"Ġaston":9842,"Ġgin":9843,"Ġgol":9844,"Ġgri":9845,"Ġgee":9846,"Ġeve":9847,"Ġeug":9848,"Ġeagle":9849,"Ġreact":9850,"Ġhale":9851,"Ġhonestly":9852,"Ġhughes":9853,"robert":9854,"omic":9855,"isen":9856,"isdiction":9857,"Ġnod":9858,"Ġnazi":9859,"Ġstol":9860,"Ġstrychnine":9861,"idation":9862,"idable":9863,"Ġinfer":9864,"raft":9865,"iman":9866,"imately":9867,"imeter":9868,"sec":9869,"opy":9870,"oped":9871,"adio":9872,"ulates":9873,"Ġry":9874,"Ġrut":9875,"Ġrud":9876,"Ġrust":9877,"Ġpropose":9878,"kest":9879,"Ġchatting":9880,"Ġconcur":9881,"Ġvel":9882,"Ġvamp":9883,"Ġseized":9884,"Ġseattle":9885,"Ġcomed":9886,"Ġalert":9887,"Ġalright":9888,"Ġaligned":9889,"Ġja":9890,"Ġjol":9891,"Ġjas":9892,"uman":9893,"umed":9894,"umbling":9895,"Ġexcursion":9896,"lav":9897,"uten":9898,"Ġmae":9899,"rix":9900,"Ġunw":9901,"Ġunchanged":9902,"Ġunrelated":9903,"ainted":9904,"illo":9905,"Ġperception":9906,"astro":9907,"Ġprepar":9908,"Ġpredomin":9909,"Ġcomparing":9910,"herd":9911,"indian":9912,"Ġtab":9913,"Ġtai":9914,"Ġtap":9915,"Ġargu":9916,"pta":9917,"pton":9918,"ptic":9919,"ptical":9920,"Ġspare":9921,"Ġspray":9922,"Ġlazy":9923,"neg":9924,"Ġbored":9925,"Ġcontested":9926,"Ġheir":9927,"Ġdisband":9928,"Ġyacht":9929,"Ġtear":9930,"Ġusps":9931,"Ġtrapped":9932,"cycl":9933,"Ġprud":9934,"Ġscattered":9935,"Ġcommitting":9936,"Ġbubble":9937,"team":9938,"lower":9939,"Ġexped":9940,"Ġconsort":9941,"Ġpolo":9942,"Ġhighland":9943,"Ġinvoice":9944,"Ġfinishing":9945,"Ġsovere":9946,"Ġlottery":9947,"Ġguer":9948,"Ġoutlined":9949,"Ġoutlaw":9950,"Ġoutstanding":9951,"Ġprovence":9952,"Ġmaria":9953,"Ġterrain":9954,"Ġterribly":9955,"Ġisle":9956,"Ġblend":9957,"Ġobse":9958,"Ġcorrid":9959,"Ġelector":9960,"Ġintr":9961,"spring":9962,"Ġretained":9963,"Ġgau":9964,"Ġrestore":9965,"anyway":9966,"Ġcreates":9967,"Ġstrive":9968,"plate":9969,"Ġgrab":9970,"Ġbuilder":9971,"Ġbarber":9972,"Ġcharging":9973,"Ġnationality":9974,"Ġnationalist":9975,"meeting":9976,"exhib":9977,"Ġparole":9978,"Ġfiling":9979,"Ġtaxed":9980,"Ġslip":9981,"Ġheadquarters":9982,"Ġlanded":9983,"Ġbehalf":9984,"assess":9985,"Ġfinanced":9986,"Ġfinancially":9987,"Ġsteam":9988,"Ġstewart":9989,"Ġwalkway":9990,"ika":9991,"Ġcontinuous":9992,"Ġ44":9993,"Ġaccountable":9994,"Ġhoriz":9995,"Ġannette":9996,"Ġfrontier":9997,"Ġpreval":9998,"Ġ2013":9999}